{
  "version": "1.0",
  "truncation": null,
  "padding": null,
  "added_tokens": [
    {
      "id": 0,
      "content": "[UNK]",
      "single_word": false,
      "lstrip": false,
      "rstrip": false,
      "normalized": false,
      "special": true
    },
    {
      "id": 1,
      "content": "[PAD]",
      "single_word": false,
      "lstrip": false,
      "rstrip": false,
      "normalized": false,
      "special": true
    },
    {
      "id": 2,
      "content": "[EOS]",
      "single_word": false,
      "lstrip": false,
      "rstrip": false,
      "normalized": false,
      "special": true
    }
  ],
  "normalizer": null,
  "pre_tokenizer": {
    "type": "ByteLevel",
    "add_prefix_space": true,
    "trim_offsets": true,
    "use_regex": true
  },
  "post_processor": null,
  "decoder": {
    "type": "ByteLevel",
    "add_prefix_space": true,
    "trim_offsets": true,
    "use_regex": true
  },
  "model": {
    "type": "BPE",
    "dropout": null,
    "unk_token": "[UNK]",
    "continuing_subword_prefix": null,
    "end_of_word_suffix": null,
    "fuse_unk": true,
    "byte_fallback": false,
    "vocab": {
      "[UNK]": 0,
      "[PAD]": 1,
      "[EOS]": 2,
      "!": 3,
      "\"": 4,
      "#": 5,
      "$": 6,
      "%": 7,
      "&": 8,
      "'": 9,
      "(": 10,
      ")": 11,
      "*": 12,
      "+": 13,
      ",": 14,
      "-": 15,
      ".": 16,
      "/": 17,
      "0": 18,
      "1": 19,
      "2": 20,
      "3": 21,
      "4": 22,
      "5": 23,
      "6": 24,
      "7": 25,
      "8": 26,
      "9": 27,
      ":": 28,
      ";": 29,
      "<": 30,
      "=": 31,
      ">": 32,
      "?": 33,
      "@": 34,
      "A": 35,
      "B": 36,
      "C": 37,
      "D": 38,
      "E": 39,
      "F": 40,
      "G": 41,
      "H": 42,
      "I": 43,
      "J": 44,
      "K": 45,
      "L": 46,
      "M": 47,
      "N": 48,
      "O": 49,
      "P": 50,
      "Q": 51,
      "R": 52,
      "S": 53,
      "T": 54,
      "U": 55,
      "V": 56,
      "W": 57,
      "X": 58,
      "Y": 59,
      "Z": 60,
      "[": 61,
      "\\": 62,
      "]": 63,
      "^": 64,
      "_": 65,
      "`": 66,
      "a": 67,
      "b": 68,
      "c": 69,
      "d": 70,
      "e": 71,
      "f": 72,
      "g": 73,
      "h": 74,
      "i": 75,
      "j": 76,
      "k": 77,
      "l": 78,
      "m": 79,
      "n": 80,
      "o": 81,
      "p": 82,
      "q": 83,
      "r": 84,
      "s": 85,
      "t": 86,
      "u": 87,
      "v": 88,
      "w": 89,
      "x": 90,
      "y": 91,
      "z": 92,
      "{": 93,
      "|": 94,
      "}": 95,
      "~": 96,
      "ą": 97,
      "Ĉ": 98,
      "ĉ": 99,
      "Ċ": 100,
      "č": 101,
      "Ġ": 102,
      "ġ": 103,
      "ĠĠ": 104,
      "er": 105,
      "Ċĉ": 106,
      "in": 107,
      "re": 108,
      "on": 109,
      "Ġ0": 110,
      "st": 111,
      "te": 112,
      "ĠĠĠĠ": 113,
      "or": 114,
      "Ċĉĉ": 115,
      "Ġ{": 116,
      "en": 117,
      "at": 118,
      "es": 119,
      "il": 120,
      "ur": 121,
      "al": 122,
      "err": 123,
      "ing": 124,
      "un": 125,
      "th": 126,
      "an": 127,
      "et": 128,
      "ar": 129,
      "ret": 130,
      "//": 131,
      "ion": 132,
      "Ġn": 133,
      "Ġerr": 134,
      "if": 135,
      "urn": 136,
      "se": 137,
      "ct": 138,
      "return": 139,
      "ro": 140,
      "Ġ:": 141,
      "Ġ:=": 142,
      "Ġ=": 143,
      "me": 144,
      "ĉĉ": 145,
      "Ġ\"": 146,
      "()": 147,
      "str": 148,
      "ce": 149,
      "int": 150,
      "de": 151,
      "le": 152,
      "Ġc": 153,
      "\",": 154,
      "Ġf": 155,
      "Ġ*": 156,
      "pe": 157,
      "unc": 158,
      "ĠĠĠĠĠĠĠĠ": 159,
      "Ġ(": 160,
      "lo": 161,
      "ent": 162,
      "to": 163,
      "Ġnil": 164,
      "it": 165,
      "ag": 166,
      "ate": 167,
      "Ġs": 168,
      "ue": 169,
      "ut": 170,
      "Ġth": 171,
      "Re": 172,
      "In": 173,
      "func": 174,
      "om": 175,
      "ck": 176,
      "string": 177,
      "Ġp": 178,
      "Ġm": 179,
      "li": 180,
      "St": 181,
      "Ġa": 182,
      "is": 183,
      "pt": 184,
      "ĊĊ": 185,
      "ame": 186,
      "(\"": 187,
      "ch": 188,
      "Ġo": 189,
      "Ċĉĉĉ": 190,
      "Ġb": 191,
      "Ġ!": 192,
      "ad": 193,
      "},": 194,
      "Ġthe": 195,
      "ri": 196,
      "rr": 197,
      "ype": 198,
      "res": 199,
      "ap": 200,
      "Con": 201,
      "ol": 202,
      "Err": 203,
      "age": 204,
      "Ġ!=": 205,
      "ul": 206,
      "el": 207,
      "[]": 208,
      "Ġ1": 209,
      "ig": 210,
      "Ġt": 211,
      "id": 212,
      "ed": 213,
      "and": 214,
      "00": 215,
      "as": 216,
      "Ċĉĉĉĉ": 217,
      "Ġstring": 218,
      "am": 219,
      "ic": 220,
      "Ġw": 221,
      "ew": 222,
      "ation": 223,
      "ode": 224,
      "ex": 225,
      "Res": 226,
      "\")": 227,
      "ess": 228,
      "ub": 229,
      "ĠĠĠ": 230,
      "erv": 231,
      "ith": 232,
      "ot": 233,
      "Ġ&": 234,
      "Error": 235,
      "Ġerror": 236,
      "Ġ[]": 237,
      ":\"": 238,
      "od": 239,
      "Ġd": 240,
      "us": 241,
      "ab": 242,
      "con": 243,
      "Ġre": 244,
      "um": 245,
      "fa": 246,
      "Ġ2": 247,
      "son": 248,
      "que": 249,
      "Ġ`": 250,
      "Ex": 251,
      "roto": 252,
      "Name": 253,
      "Get": 254,
      "im": 255,
      "ist": 256,
      "Ġint": 257,
      "ers": 258,
      "Ġr": 259,
      "64": 260,
      "Ġin": 261,
      "Ġv": 262,
      "ff": 263,
      "json": 264,
      "ime": 265,
      "ase": 266,
      "quest": 267,
      "ey": 268,
      "Type": 269,
      "ata": 270,
      "Ġl": 271,
      "Ġto": 272,
      "pon": 273,
      "De": 274,
      "tex": 275,
      "up": 276,
      "ack": 277,
      "ile": 278,
      "test": 279,
      "Ġg": 280,
      "Str": 281,
      "yte": 282,
      "ult": 283,
      "text": 284,
      "New": 285,
      "ht": 286,
      "per": 287,
      "lient": 288,
      "ponse": 289,
      "Ġi": 290,
      "tem": 291,
      "))": 292,
      "Un": 293,
      "ction": 294,
      "\"`": 295,
      "pl": 296,
      "com": 297,
      "qu": 298,
      "fig": 299,
      "ort": 300,
      "ted": 301,
      "fo": 302,
      "Ġcon": 303,
      "put": 304,
      "ID": 305,
      "mt": 306,
      "iz": 307,
      "for": 308,
      "En": 309,
      "String": 310,
      "oun": 311,
      "--": 312,
      "end": 313,
      "alue": 314,
      "Ġ%": 315,
      "ĠT": 316,
      "our": 317,
      "pec": 318,
      "var": 319,
      "Request": 320,
      "ath": 321,
      "uct": 322,
      "Ġis": 323,
      "ire": 324,
      "bu": 325,
      "ice": 326,
      "em": 327,
      "\":": 328,
      "Lo": 329,
      "ge": 330,
      "dd": 331,
      "ĠĠĠĠĠĠĠĠĠĠĠĠĠĠĠĠ": 332,
      "essage": 333,
      "ay": 334,
      "ter": 335,
      "Serv": 336,
      "all": 337,
      "ain": 338,
      "Response": 339,
      "ser": 340,
      "ctx": 341,
      "),": 342,
      "os": 343,
      "byte": 344,
      "log": 345,
      "32": 346,
      "Ġ+": 347,
      "sh": 348,
      "proto": 349,
      "Pro": 350,
      "type": 351,
      "pp": 352,
      "{}": 353,
      "name": 354,
      "ĠS": 355,
      "Ġh": 356,
      "op": 357,
      "ption": 358,
      "Ġu": 359,
      "ĠC": 360,
      "tp": 361,
      "struct": 362,
      "Ġ==": 363,
      "ource": 364,
      "ec": 365,
      "eld": 366,
      "ield": 367,
      "able": 368,
      "Ġ_": 369,
      "ve": 370,
      "ĠA": 371,
      "Id": 372,
      "ect": 373,
      "lic": 374,
      "Ġfor": 375,
      "out": 376,
      "ow": 377,
      "tr": 378,
      "To": 379,
      "pty": 380,
      "cc": 381,
      "ver": 382,
      "ool": 383,
      "ir": 384,
      "port": 385,
      "Ġof": 386,
      "ak": 387,
      "http": 388,
      "rint": 389,
      "ithub": 390,
      "Info": 391,
      "Ġx": 392,
      "he": 393,
      "ost": 394,
      "github": 395,
      "Ġres": 396,
      "atus": 397,
      "reate": 398,
      "Ġ<": 399,
      "est": 400,
      "cri": 401,
      "List": 402,
      "go": 403,
      "ment": 404,
      "face": 405,
      "item": 406,
      "ount": 407,
      "ize": 408,
      "Ġstruct": 409,
      "Ġ3": 410,
      "Key": 411,
      "ach": 412,
      "ange": 413,
      "arg": 414,
      "ust": 415,
      "Client": 416,
      "..": 417,
      "Config": 418,
      "der": 419,
      "xf": 420,
      "ock": 421,
      "ject": 422,
      "alid": 423,
      "xb": 424,
      "65": 425,
      "key": 426,
      "ail": 427,
      "Set": 428,
      "aram": 429,
      "Ġex": 430,
      "Ġst": 431,
      "Ċĉĉĉĉĉĉ": 432,
      "case": 433,
      "art": 434,
      "ity": 435,
      "pa": 436,
      "At": 437,
      "vent": 438,
      "dex": 439,
      ").": 440,
      "Ġ4": 441,
      "omitem": 442,
      "omitempty": 443,
      "nt": 444,
      "sg": 445,
      "erface": 446,
      "Message": 447,
      "Ġtr": 448,
      "ress": 449,
      "Context": 450,
      "Add": 451,
      "xe": 452,
      "Com": 453,
      "xd": 454,
      "yp": 455,
      "date": 456,
      "ler": 457,
      "Ġe": 458,
      "roup": 459,
      "20": 460,
      "xc": 461,
      "Ġde": 462,
      "Ġ//": 463,
      "ine": 464,
      "ĠP": 465,
      "Ġ-": 466,
      "Ġfunc": 467,
      "lock": 468,
      "xff": 469,
      ");": 470,
      "Errorf": 471,
      "ĠGet": 472,
      "co": 473,
      "xa": 474,
      "Ġreturn": 475,
      "arsh": 476,
      "Status": 477,
      "arshal": 478,
      "atch": 479,
      "Data": 480,
      "Value": 481,
      "ersion": 482,
      "ork": 483,
      "ra": 484,
      "Ġ>": 485,
      "dEx": 486,
      "pected": 487,
      "Ch": 488,
      "ĠĠĠĠĠĠĠ": 489,
      "ader": 490,
      "Ġlen": 491,
      "Ġsh": 492,
      "ĠL": 493,
      "74": 494,
      "NdEx": 495,
      "time": 496,
      "Up": 497,
      "Ġ5": 498,
      "ast": 499,
      "ure": 500,
      "rom": 501,
      "Out": 502,
      "Is": 503,
      "Time": 504,
      "Ġand": 505,
      "ance": 506,
      "ant": 507,
      "fmt": 508,
      "ackage": 509,
      "Op": 510,
      "XX": 511,
      "Ġbe": 512,
      "ĠĠĠĠĠ": 513,
      "ĊĊĉ": 514,
      "Bu": 515,
      "12": 516,
      "ery": 517,
      "Path": 518,
      "Ġfmt": 519,
      "Ġuint": 520,
      "ind": 521,
      "perand": 522,
      "ok": 523,
      "ake": 524,
      "Des": 525,
      "Service": 526,
      "})": 527,
      "fault": 528,
      "lect": 529,
      "sert": 530,
      "Ġrange": 531,
      "uth": 532,
      "po": 533,
      "ener": 534,
      "61": 535,
      "Int": 536,
      "72": 537,
      "Ġapp": 538,
      "For": 539,
      "alse": 540,
      "Ġ(*": 541,
      "fer": 542,
      "ĠM": 543,
      "01": 544,
      "----": 545,
      "testing": 546,
      "ard": 547,
      "(),": 548,
      "low": 549,
      "Ġnot": 550,
      "ory": 551,
      "File": 552,
      "ypes": 553,
      "Ġtrue": 554,
      "set": 555,
      "With": 556,
      "bject": 557,
      "code": 558,
      "ense": 559,
      "Se": 560,
      "Ġy": 561,
      "Log": 562,
      "ign": 563,
      "ord": 564,
      "tain": 565,
      "Ġproto": 566,
      "He": 567,
      "Met": 568,
      "io": 569,
      "Ġan": 570,
      "Index": 571,
      "69": 572,
      "ple": 573,
      "())": 574,
      "ator": 575,
      "ken": 576,
      "73": 577,
      "import": 578,
      "ans": 579,
      "Output": 580,
      "Ġnew": 581,
      "are": 582,
      "cl": 583,
      "Ġfile": 584,
      "ON": 585,
      "Ġbool": 586,
      "Ġthis": 587,
      "act": 588,
      "State": 589,
      "rintf": 590,
      "pro": 591,
      "quire": 592,
      "ated": 593,
      "Ċĉĉĉĉĉ": 594,
      "ition": 595,
      "ift": 596,
      "cal": 597,
      "ache": 598,
      "Ġ_,": 599,
      "ĠI": 600,
      "ĠĠĠĠĠĠ": 601,
      "(*": 602,
      "icense": 603,
      "Field": 604,
      "Ġwith": 605,
      "load": 606,
      "ger": 607,
      "Ġcom": 608,
      "ody": 609,
      "buf": 610,
      "qual": 611,
      "ĊĠĠĠ": 612,
      "Ġjson": 613,
      "10": 614,
      "Group": 615,
      "Update": 616,
      "Hand": 617,
      "Descri": 618,
      "ore": 619,
      "Ġun": 620,
      "Server": 621,
      "ou": 622,
      "ix": 623,
      "().": 624,
      "ames": 625,
      "Ġfalse": 626,
      "Qu": 627,
      "ext": 628,
      "data": 629,
      "rite": 630,
      "lete": 631,
      "own": 632,
      "Ġpro": 633,
      "ial": 634,
      "Po": 635,
      "thod": 636,
      "ies": 637,
      "Map": 638,
      "80": 639,
      "ip": 640,
      "opy": 641,
      "Ġon": 642,
      "Ġor": 643,
      "Version": 644,
      "iter": 645,
      "odel": 646,
      "expected": 647,
      "==": 648,
      "Event": 649,
      "Option": 650,
      "Ġif": 651,
      "Ġmap": 652,
      "Create": 653,
      "Equal": 654,
      "User": 655,
      "16": 656,
      "serv": 657,
      "ild": 658,
      "md": 659,
      "lag": 660,
      "ann": 661,
      "Node": 662,
      "min": 663,
      "75": 664,
      "Size": 665,
      "Param": 666,
      "ĠNew": 667,
      "file": 668,
      "18": 669,
      "Ġhttp": 670,
      "af": 671,
      "Ġcontext": 672,
      "Ġtime": 673,
      "sw": 674,
      "ber": 675,
      "63": 676,
      "ref": 677,
      "iNdEx": 678,
      "Ġ&&": 679,
      "ax": 680,
      "pace": 681,
      "Resource": 682,
      "Sp": 683,
      "Ġinterface": 684,
      "Ġ}": 685,
      "22": 686,
      "ask": 687,
      "mand": 688,
      "uster": 689,
      "pc": 690,
      "Ċĉĉĉĉĉĉĉĉ": 691,
      "Al": 692,
      "iv": 693,
      "Len": 694,
      "ary": 695,
      "aw": 696,
      "mo": 697,
      "...": 698,
      "Ġfield": 699,
      "ĠO": 700,
      "Not": 701,
      "ĠLicense": 702,
      "ne": 703,
      "Reg": 704,
      "Cl": 705,
      "UR": 706,
      "Ġpackage": 707,
      "assert": 708,
      "Ġshift": 709,
      "Ar": 710,
      "{\"": 711,
      "70": 712,
      "55": 713,
      "Ġtest": 714,
      "valid": 715,
      "ly": 716,
      "ĠB": 717,
      "user": 718,
      "ash": 719,
      "ĠD": 720,
      "19": 721,
      "AtA": 722,
      "Run": 723,
      "Ġel": 724,
      "Ġ|": 725,
      "client": 726,
      "form": 727,
      "Ġmake": 728,
      "54": 729,
      "ft": 730,
      "api": 731,
      "loat": 732,
      "No": 733,
      "opt": 734,
      "++": 735,
      "ite": 736,
      "ces": 737,
      "ive": 738,
      "Ġok": 739,
      "Ġappend": 740,
      "Ġthat": 741,
      "Ġvalue": 742,
      "Sh": 743,
      "Tr": 744,
      "ptor": 745,
      "Var": 746,
      "ob": 747,
      "work": 748,
      "Ġelse": 749,
      "Query": 750,
      "oc": 751,
      "ĠW": 752,
      "gr": 753,
      "path": 754,
      "Ġname": 755,
      "heck": 756,
      "Code": 757,
      "unction": 758,
      "ang": 759,
      "].": 760,
      "sed": 761,
      "Ġk": 762,
      "{},": 763,
      "Acc": 764,
      "ns": 765,
      "ytes": 766,
      "ound": 767,
      "(&": 768,
      "interface": 769,
      "alu": 770,
      "ule": 771,
      "yn": 772,
      "config": 773,
      "Ġ'": 774,
      "52": 775,
      "one": 776,
      "ric": 777,
      "Input": 778,
      "Ġse": 779,
      "tent": 780,
      "Ġ\"\"": 781,
      "67": 782,
      "Ġen": 783,
      "Ġ+=": 784,
      "Delete": 785,
      "14": 786,
      "error": 787,
      "([]": 788,
      "ee": 789,
      "uld": 790,
      "message": 791,
      "ac": 792,
      "kg": 793,
      "Ġch": 794,
      "Ġserv": 795,
      "pos": 796,
      "ĠTest": 797,
      "args": 798,
      "list": 799,
      "red": 800,
      "plate": 801,
      "net": 802,
      "nal": 803,
      "Handler": 804,
      "tes": 805,
      "xx": 806,
      "uration": 807,
      "Read": 808,
      "protobuf": 809,
      "Col": 810,
      "map": 811,
      "col": 812,
      "0000": 813,
      "ĠF": 814,
      "**": 815,
      "ific": 816,
      "ib": 817,
      "68": 818,
      "Ġget": 819,
      "Sprintf": 820,
      "Ġas": 821,
      "Inter": 822,
      "marshal": 823,
      "Num": 824,
      "33": 825,
      "ud": 826,
      "15": 827,
      "Ġby": 828,
      "Object": 829,
      "Sub": 830,
      "ould": 831,
      "Test": 832,
      "Ġerrors": 833,
      "len": 834,
      "79": 835,
      "Msg": 836,
      "alues": 837,
      "URL": 838,
      "abel": 839,
      "rol": 840,
      "XXX": 841,
      "ql": 842,
      "Spec": 843,
      "gin": 844,
      "be": 845,
      "Ġout": 846,
      "result": 847,
      "bytes": 848,
      "licy": 849,
      "Item": 850,
      "05": 851,
      "atal": 852,
      "13": 853,
      "istr": 854,
      "62": 855,
      "Of": 856,
      "bo": 857,
      "],": 858,
      "amespace": 859,
      "Ġit": 860,
      "Ġset": 861,
      "])": 862,
      "mit": 863,
      "Wr": 864,
      "ifi": 865,
      "uk": 866,
      "Body": 867,
      "value": 868,
      "xy": 869,
      "End": 870,
      "ill": 871,
      "util": 872,
      "av": 873,
      "tri": 874,
      "53": 875,
      "ER": 876,
      "nil": 877,
      "PI": 878,
      "dAtA": 879,
      "app": 880,
      "ilter": 881,
      "Header": 882,
      "ded": 883,
      "Gener": 884,
      "db": 885,
      "App": 886,
      "Ġwh": 887,
      "Print": 888,
      "Im": 889,
      "As": 890,
      "Ġreturns": 891,
      "ations": 892,
      "Me": 893,
      "`,": 894,
      "adata": 895,
      "vid": 896,
      "lose": 897,
      "Valid": 898,
      "Call": 899,
      "78": 900,
      "Ġio": 901,
      "Ġfrom": 902,
      "28": 903,
      "ln": 904,
      "Or": 905,
      "Sto": 906,
      "Ġim": 907,
      "ull": 908,
      "ry": 909,
      "11": 910,
      "ify": 911,
      "cod": 912,
      "Ġ8": 913,
      "cond": 914,
      "mon": 915,
      "Ġdata": 916,
      "Write": 917,
      "ession": 918,
      "Ġkey": 919,
      "pi": 920,
      "und": 921,
      "\"),": 922,
      "09": 923,
      "49": 924,
      "defer": 925,
      "pkg": 926,
      "local": 927,
      "02": 928,
      "Dis": 929,
      "arse": 930,
      "{})": 931,
      "rent": 932,
      "gth": 933,
      "IN": 934,
      "mat": 935,
      "Unmarshal": 936,
      "Result": 937,
      "Le": 938,
      "Ġrequest": 939,
      "ĠThe": 940,
      "ass": 941,
      "pect": 942,
      "ĠĠĠĠĠĠĠĠĠĠĠ": 943,
      "get": 944,
      "ream": 945,
      "point": 946,
      "ert": 947,
      "Ġ7": 948,
      "Ġclient": 949,
      "kn": 950,
      "url": 951,
      "rc": 952,
      "ĠR": 953,
      "An": 954,
      "Ġwire": 955,
      "Arg": 956,
      "uint": 957,
      "25": 958,
      "line": 959,
      "ffer": 960,
      "stance": 961,
      "Ġoperand": 962,
      "Token": 963,
      "Auth": 964,
      "ace": 965,
      "require": 966,
      "Descriptor": 967,
      "Ġ>=": 968,
      "Address": 969,
      "IT": 970,
      "context": 971,
      "ister": 972,
      "og": 973,
      "By": 974,
      "Pl": 975,
      "Marshal": 976,
      "trol": 977,
      "operand": 978,
      "add": 979,
      "eb": 980,
      "chem": 981,
      "Base": 982,
      "ĠRe": 983,
      "ight": 984,
      "Ġme": 985,
      "30": 986,
      "čĊ": 987,
      "IP": 988,
      "66": 989,
      "arget": 990,
      "ep": 991,
      "flow": 992,
      "Ġid": 993,
      "Count": 994,
      "--------": 995,
      "msg": 996,
      "OF": 997,
      "Method": 998,
      "ST": 999,
      "Fatal": 1000,
      "known": 1001,
      "ence": 1002,
      "lication": 1003,
      "Ġconfig": 1004,
      "99": 1005,
      "34": 1006,
      "ĠĠĠĠĠĠĠĠĠ": 1007,
      "cord": 1008,
      "action": 1009,
      "ms": 1010,
      "orage": 1011,
      "impl": 1012,
      "Ġtype": 1013,
      "////": 1014,
      "Ġat": 1015,
      "ink": 1016,
      "scri": 1017,
      "Options": 1018,
      "Mock": 1019,
      "ĠN": 1020,
      "inter": 1021,
      "ync": 1022,
      "ght": 1023,
      "tx": 1024,
      "Ġso": 1025,
      "TP": 1026,
      "HT": 1027,
      "ml": 1028,
      "From": 1029,
      "Ro": 1030,
      "ere": 1031,
      "met": 1032,
      "ĊĊĉĉ": 1033,
      "su": 1034,
      "Ġadd": 1035,
      "Ġstrings": 1036,
      "ave": 1037,
      "://": 1038,
      "On": 1039,
      "chema": 1040,
      "Ġcreate": 1041,
      "Ġ\"\",": 1042,
      "this": 1043,
      "Params": 1044,
      "Ġal": 1045,
      "tainer": 1046,
      "04": 1047,
      "ĠSet": 1048,
      "ĠErr": 1049,
      "annel": 1050,
      "Tag": 1051,
      "ument": 1052,
      "Tem": 1053,
      "Ġup": 1054,
      "ĠĠĠĠĠĠĠĠĠĠĠĠĠĠĠĠĠĠĠĠĠĠĠĠĠĠĠĠĠĠĠĠ": 1055,
      "pts": 1056,
      "itch": 1057,
      "ute": 1058,
      "sc": 1059,
      "ware": 1060,
      "Ġlog": 1061,
      "Ġrun": 1062,
      "Default": 1063,
      "Start": 1064,
      "JS": 1065,
      "All": 1066,
      "ĠiNdEx": 1067,
      "29": 1068,
      "Block": 1069,
      "76": 1070,
      "tribu": 1071,
      "Println": 1072,
      "Bytes": 1073,
      "req": 1074,
      "iss": 1075,
      "Trans": 1076,
      "Source": 1077,
      "model": 1078,
      "AL": 1079,
      "84": 1080,
      "ph": 1081,
      "Ġro": 1082,
      "24": 1083,
      "EOF": 1084,
      "39": 1085,
      "Ġ([]": 1086,
      "sy": 1087,
      "Man": 1088,
      "Ġbu": 1089,
      "oin": 1090,
      "urrent": 1091,
      "ccess": 1092,
      "Ġspec": 1093,
      "Command": 1094,
      "JSON": 1095,
      "default": 1096,
      "vice": 1097,
      "[\"": 1098,
      "Policy": 1099,
      "vel": 1100,
      ")(": 1101,
      "Ġj": 1102,
      "ĠG": 1103,
      "rep": 1104,
      "\"},": 1105,
      "Cluster": 1106,
      "Func": 1107,
      "Ċĉĉĉĉĉĉĉĉĉĉ": 1108,
      "query": 1109,
      "EN": 1110,
      "Unexpected": 1111,
      "AR": 1112,
      "fg": 1113,
      "sub": 1114,
      "Store": 1115,
      "77": 1116,
      "38": 1117,
      "Exp": 1118,
      "Fail": 1119,
      "org": 1120,
      "messageInfo": 1121,
      "vider": 1122,
      "refix": 1123,
      "Ġ10": 1124,
      "mock": 1125,
      "(\"%": 1126,
      "Ġunder": 1127,
      "Ret": 1128,
      "stem": 1129,
      "const": 1130,
      "ĠwireType": 1131,
      "Ġare": 1132,
      "bug": 1133,
      "xF": 1134,
      "Ġreq": 1135,
      "ings": 1136,
      "Text": 1137,
      "eter": 1138,
      "vi": 1139,
      "Ġwr": 1140,
      "reg": 1141,
      "switch": 1142,
      "val": 1143,
      "Ġresult": 1144,
      "ual": 1145,
      "Ġ[]*": 1146,
      "core": 1147,
      "17": 1148,
      "SE": 1149,
      "Flag": 1150,
      "cr": 1151,
      "ages": 1152,
      "Proc": 1153,
      "Ptr": 1154,
      "pert": 1155,
      "uto": 1156,
      "Exec": 1157,
      "fin": 1158,
      "Ġ9": 1159,
      "Ref": 1160,
      "45": 1161,
      "etwork": 1162,
      "Account": 1163,
      "Template": 1164,
      "Close": 1165,
      "60": 1166,
      "Sec": 1167,
      "Stat": 1168,
      "ther": 1169,
      "ĠE": 1170,
      "ulum": 1171,
      "ions": 1172,
      "ong": 1173,
      "ume": 1174,
      "xD": 1175,
      "ments": 1176,
      "Hash": 1177,
      "Back": 1178,
      "ulumi": 1179,
      "Be": 1180,
      "HTTP": 1181,
      "ĠIn": 1182,
      "ErrUnexpected": 1183,
      "reak": 1184,
      "ErrUnexpectedEOF": 1185,
      "Dir": 1186,
      "xA": 1187,
      "Task": 1188,
      "ĠXXX": 1189,
      "ostIndex": 1190,
      "35": 1191,
      "rl": 1192,
      "ized": 1193,
      "host": 1194,
      "AS": 1195,
      "Host": 1196,
      "ĠĠĠĠĠĠĠĠĠĠ": 1197,
      "ook": 1198,
      "Rou": 1199,
      "Ent": 1200,
      "Content": 1201,
      "Ġos": 1202,
      "Types": 1203,
      "erm": 1204,
      "Ġret": 1205,
      "ply": 1206,
      "Ġ/": 1207,
      "ices": 1208,
      "xE": 1209,
      "right": 1210,
      "lice": 1211,
      "Mem": 1212,
      "Work": 1213,
      "Ġmet": 1214,
      "irect": 1215,
      "31": 1216,
      "service": 1217,
      "89": 1218,
      "Register": 1219,
      "Ġwill": 1220,
      "44": 1221,
      "Ġgo": 1222,
      "Ġresponse": 1223,
      "run": 1224,
      "ark": 1225,
      "dk": 1226,
      "Cache": 1227,
      "xC": 1228,
      "read": 1229,
      "Ġuse": 1230,
      "types": 1231,
      "ager": 1232,
      "resp": 1233,
      "param": 1234,
      "50": 1235,
      "Pri": 1236,
      "ens": 1237,
      "cation": 1238,
      "ĠDe": 1239,
      "xB": 1240,
      "Buffer": 1241,
      "back": 1242,
      "che": 1243,
      "Metadata": 1244,
      "\\\"": 1245,
      "Pos": 1246,
      "ĠV": 1247,
      "Ġuser": 1248,
      "Us": 1249,
      "mp": 1250,
      "Check": 1251,
      "ayload": 1252,
      "cket": 1253,
      "42": 1254,
      "UT": 1255,
      "ffset": 1256,
      "Sign": 1257,
      "Ġ...": 1258,
      "umn": 1259,
      "arch": 1260,
      "new": 1261,
      "_,": 1262,
      "Ġprotoimpl": 1263,
      "ĊĠ": 1264,
      "request": 1265,
      "quired": 1266,
      "API": 1267,
      "Args": 1268,
      "Writer": 1269,
      "Namespace": 1270,
      "break": 1271,
      "Ġ||": 1272,
      "pan": 1273,
      "Oper": 1274,
      "Ġmsg": 1275,
      "loud": 1276,
      "59": 1277,
      "Expect": 1278,
      "Invalid": 1279,
      "ww": 1280,
      "ws": 1281,
      "iles": 1282,
      "omain": 1283,
      "Ġ[": 1284,
      "Ġlist": 1285,
      "Tx": 1286,
      "exp": 1287,
      "Uint": 1288,
      "Fields": 1289,
      "ptions": 1290,
      "ten": 1291,
      "Label": 1292,
      "package": 1293,
      "ES": 1294,
      "====": 1295,
      "Ġwant": 1296,
      "ĠString": 1297,
      "Attribu": 1298,
      "az": 1299,
      "ke": 1300,
      "Meta": 1301,
      "Stack": 1302,
      "Entity": 1303,
      "ia": 1304,
      "lob": 1305,
      "AT": 1306,
      "ait": 1307,
      "not": 1308,
      "Max": 1309,
      "Port": 1310,
      "cp": 1311,
      "82": 1312,
      "Ġ\"/": 1313,
      "40": 1314,
      "Su": 1315,
      "nection": 1316,
      "ning": 1317,
      "Ġservice": 1318,
      "83": 1319,
      "Ġparam": 1320,
      "olume": 1321,
      "rics": 1322,
      "Ġargs": 1323,
      "Filter": 1324,
      "want": 1325,
      "ree": 1326,
      "ET": 1327,
      "Ġall": 1328,
      "Stream": 1329,
      "old": 1330,
      "yy": 1331,
      "lection": 1332,
      "card": 1333,
      "{-": 1334,
      "event": 1335,
      "Length": 1336,
      "led": 1337,
      "Unknown": 1338,
      "Ġgot": 1339,
      "try": 1340,
      "03": 1341,
      "Ġ6": 1342,
      "Remo": 1343,
      "Ġcl": 1344,
      "Conn": 1345,
      "block": 1346,
      "posit": 1347,
      "41": 1348,
      "Ġresp": 1349,
      "Em": 1350,
      "Nil": 1351,
      "auth": 1352,
      "Ad": 1353,
      "Ġcol": 1354,
      "23": 1355,
      "server": 1356,
      "ample": 1357,
      "Ġhand": 1358,
      "Ident": 1359,
      "Ġ.": 1360,
      "ĠTh": 1361,
      "48": 1362,
      "OR": 1363,
      "43": 1364,
      "Ġmay": 1365,
      "000": 1366,
      "size": 1367,
      "use": 1368,
      "ĠĠĠĠĠĠĠĠĠĠĠĠ": 1369,
      "ors": 1370,
      "ide": 1371,
      "Ġref": 1372,
      "cept": 1373,
      "Ġpath": 1374,
      "abled": 1375,
      "les": 1376,
      "\"]": 1377,
      "dis": 1378,
      "Ġexpected": 1379,
      "DB": 1380,
      "ogle": 1381,
      "\"))": 1382,
      "Ġ<<": 1383,
      "state": 1384,
      "AN": 1385,
      "Copy": 1386,
      "cmd": 1387,
      "Table": 1388,
      "IC": 1389,
      "input": 1390,
      "Ġtypes": 1391,
      "ush": 1392,
      "field": 1393,
      "idd": 1394,
      "Ġvalid": 1395,
      "Ġ64": 1396,
      "Logger": 1397,
      "raw": 1398,
      "...)": 1399,
      "Reset": 1400,
      "lu": 1401,
      "Ġcan": 1402,
      "88": 1403,
      "Ġstr": 1404,
      "aws": 1405,
      "Ġdo": 1406,
      "Ġfloat": 1407,
      "Format": 1408,
      "27": 1409,
      "Cmd": 1410,
      "ĊĠĠĠĠĠĠĠ": 1411,
      "ner": 1412,
      "Ġinput": 1413,
      "Ġdefault": 1414,
      "Image": 1415,
      "odes": 1416,
      "aph": 1417,
      "cy": 1418,
      "conv": 1419,
      "pre": 1420,
      "Af": 1421,
      "troller": 1422,
      "Ġfail": 1423,
      "Ġcomp": 1424,
      "group": 1425,
      "46": 1426,
      "uction": 1427,
      "Printf": 1428,
      "Ġwe": 1429,
      "ference": 1430,
      "atab": 1431,
      "):": 1432,
      "Ġyy": 1433,
      "store": 1434,
      "Ġcopy": 1435,
      "Action": 1436,
      "ffff": 1437,
      "Ġhe": 1438,
      "Ġexp": 1439,
      "Addr": 1440,
      "irst": 1441,
      "ustom": 1442,
      "21": 1443,
      "strings": 1444,
      "Device": 1445,
      ".(": 1446,
      "Ġgener": 1447,
      "Ġfunction": 1448,
      "errors": 1449,
      "the": 1450,
      "MM": 1451,
      "reflect": 1452,
      "Ġresource": 1453,
      "Ċĉĉĉĉĉĉĉ": 1454,
      "Reader": 1455,
      "58": 1456,
      "Ġob": 1457,
      "oll": 1458,
      "Ġsub": 1459,
      "Ġli": 1460,
      "71": 1461,
      "Pre": 1462,
      "Ġshould": 1463,
      "Pub": 1464,
      "Ġarg": 1465,
      "sum": 1466,
      "ization": 1467,
      "ified": 1468,
      "Env": 1469,
      "36": 1470,
      "}}": 1471,
      "Join": 1472,
      "Ġ<-": 1473,
      "Line": 1474,
      "Generated": 1475,
      "Ġread": 1476,
      "pha": 1477,
      "Ip": 1478,
      "NoError": 1479,
      "Ġlo": 1480,
      "ature": 1481,
      "sign": 1482,
      "afe": 1483,
      "08": 1484,
      "ates": 1485,
      "Ġobject": 1486,
      "Session": 1487,
      "tract": 1488,
      "Send": 1489,
      "tin": 1490,
      "Ġused": 1491,
      "Ġcall": 1492,
      "Load": 1493,
      "raft": 1494,
      "Instance": 1495,
      "Parse": 1496,
      "ĠK": 1497,
      "amp": 1498,
      "so": 1499,
      "ution": 1500,
      "56": 1501,
      "Lock": 1502,
      "EC": 1503,
      "localVar": 1504,
      "loy": 1505,
      "Network": 1506,
      "Timeout": 1507,
      "node": 1508,
      "Ġxxx": 1509,
      "fs": 1510,
      "Ġmain": 1511,
      "logger": 1512,
      "my": 1513,
      "Bo": 1514,
      "26": 1515,
      "Storage": 1516,
      "cs": 1517,
      "lector": 1518,
      "Arr": 1519,
      "cover": 1520,
      "assw": 1521,
      "ĠH": 1522,
      "erge": 1523,
      "Per": 1524,
      "rv": 1525,
      "ĠĠĠĠĠĠĠĠĠĠĠĠĠ": 1526,
      "ources": 1527,
      "57": 1528,
      "pb": 1529,
      "tains": 1530,
      "Ġcheck": 1531,
      "struction": 1532,
      "LO": 1533,
      "function": 1534,
      "gn": 1535,
      "37": 1536,
      "****": 1537,
      "ĠĠĠĠĠĠĠĠĠĠĠĠĠĠĠ": 1538,
      "Ġmethod": 1539,
      "ĠĠĠĠĠĠĠĠĠĠĠĠĠĠ": 1540,
      "Ġmessage": 1541,
      "Entry": 1542,
      "mr": 1543,
      "Number": 1544,
      "atabase": 1545,
      "96": 1546,
      "coding": 1547,
      "06": 1548,
      "Return": 1549,
      "Position": 1550,
      "47": 1551,
      "Internal": 1552,
      "ploy": 1553,
      "Secret": 1554,
      "etail": 1555,
      "response": 1556,
      "Build": 1557,
      "=\"": 1558,
      "igh": 1559,
      "Ele": 1560,
      "Provider": 1561,
      "rpc": 1562,
      "start": 1563,
      "ilder": 1564,
      "Propert": 1565,
      "Route": 1566,
      "Match": 1567,
      "place": 1568,
      "ifier": 1569,
      "da": 1570,
      "Ġem": 1571,
      "Values": 1572,
      "Open": 1573,
      "assword": 1574,
      "Sy": 1575,
      "ĠCreate": 1576,
      "pres": 1577,
      "Th": 1578,
      "Ġnode": 1579,
      "eters": 1580,
      "Ġend": 1581,
      "Ġz": 1582,
      "istri": 1583,
      "ki": 1584,
      "Mod": 1585,
      "Channel": 1586,
      "iven": 1587,
      "Role": 1588,
      "Prefix": 1589,
      ".(*": 1590,
      "Endpoint": 1591,
      "Pool": 1592,
      "ists": 1593,
      "Post": 1594,
      "order": 1595,
      "Ġreg": 1596,
      "Container": 1597,
      "token": 1598,
      "Cert": 1599,
      "Ġinit": 1600,
      "ren": 1601,
      "istribu": 1602,
      "of": 1603,
      "aml": 1604,
      "Ġopts": 1605,
      "Ġvalues": 1606,
      "fail": 1607,
      "ps": 1608,
      "Ġserver": 1609,
      "Ġreflect": 1610,
      "ls": 1611,
      "95": 1612,
      "OD": 1613,
      "98": 1614,
      "cd": 1615,
      "();": 1616,
      "grpc": 1617,
      "Inputs": 1618,
      "mary": 1619,
      "ched": 1620,
      "Order": 1621,
      "Ġ17": 1622,
      "IS": 1623,
      "Subscri": 1624,
      "sql": 1625,
      "way": 1626,
      "Rule": 1627,
      "alpha": 1628,
      "ccount": 1629,
      "Ġnum": 1630,
      "Second": 1631,
      "OT": 1632,
      "wire": 1633,
      "ION": 1634,
      "Ġstatus": 1635,
      "ĠThis": 1636,
      "Ġast": 1637,
      "51": 1638,
      "Ġupdate": 1639,
      "Ġmodel": 1640,
      "mi": 1641,
      "template": 1642,
      "Instruction": 1643,
      "ld": 1644,
      "Ġhas": 1645,
      "round": 1646,
      "81": 1647,
      "resource": 1648,
      "pository": 1649,
      "mm": 1650,
      "ube": 1651,
      "Bool": 1652,
      "Over": 1653,
      "ermiss": 1654,
      "ĠU": 1655,
      "erial": 1656,
      "85": 1657,
      "ED": 1658,
      "ĠIf": 1659,
      "pri": 1660,
      "Ġus": 1661,
      "iew": 1662,
      "istributed": 1663,
      "Access": 1664,
      "CS": 1665,
      "Record": 1666,
      "Mode": 1667,
      "Column": 1668,
      "its": 1669,
      "Proto": 1670,
      "stamp": 1671,
      "Fatalf": 1672,
      "ca": 1673,
      "Min": 1674,
      "gress": 1675,
      "index": 1676,
      "lease": 1677,
      "[:": 1678,
      "body": 1679,
      "no": 1680,
      "ancel": 1681,
      "90": 1682,
      "sec": 1683,
      "base": 1684,
      "Ġevent": 1685,
      "Ġrequired": 1686,
      "pulumi": 1687,
      "Que": 1688,
      "Init": 1689,
      "status": 1690,
      "conn": 1691,
      "Duration": 1692,
      "93": 1693,
      "tens": 1694,
      "panic": 1695,
      "tinue": 1696,
      "Handle": 1697,
      "orted": 1698,
      "Ġbytes": 1699,
      "safe": 1700,
      ":\"-": 1701,
      "Ġag": 1702,
      "ĠProto": 1703,
      "intrep": 1704,
      "ayer": 1705,
      "flag": 1706,
      "ecraft": 1707,
      "Ġstate": 1708,
      "Pod": 1709,
      "Ġ{}": 1710,
      "Ġno": 1711,
      "version": 1712,
      "'s": 1713,
      "\").": 1714,
      "SD": 1715,
      "src": 1716,
      "iddle": 1717,
      "ulti": 1718,
      "97": 1719,
      "minecraft": 1720,
      "tag": 1721,
      "Job": 1722,
      "Struct": 1723,
      "escri": 1724,
      "){": 1725,
      "ocument": 1726,
      "((*": 1727,
      "86": 1728,
      "PC": 1729,
      "\"\",": 1730,
      "ugin": 1731,
      "Outputs": 1732,
      "coder": 1733,
      "Level": 1734,
      "Ġmock": 1735,
      "Enum": 1736,
      "Ġctx": 1737,
      "ules": 1738,
      "Location": 1739,
      "true": 1740,
      "Comp": 1741,
      "ification": 1742,
      "Transaction": 1743,
      "Volume": 1744,
      "tings": 1745,
      "Do": 1746,
      "Rib": 1747,
      "92": 1748,
      "hand": 1749,
      "Ġgiven": 1750,
      "07": 1751,
      "Raw": 1752,
      "Ġfound": 1753,
      "Ġinter": 1754,
      "Array": 1755,
      "////////": 1756,
      "Ġtt": 1757,
      "Ġsu": 1758,
      "sdk": 1759,
      ":\"-\"`": 1760,
      "91": 1761,
      "istry": 1762,
      "Description": 1763,
      "Ġbase": 1764,
      "ponent": 1765,
      "Validate": 1766,
      "ground": 1767,
      "check": 1768,
      "info": 1769,
      "Interface": 1770,
      "Ne": 1771,
      "Ġtoken": 1772,
      "bool": 1773,
      "And": 1774,
      "Flags": 1775,
      "Manager": 1776,
      "float": 1777,
      "87": 1778,
      "Slice": 1779,
      "Ġle": 1780,
      "ating": 1781,
      "Ġ\",": 1782,
      "Configuration": 1783,
      "',": 1784,
      "'t": 1785,
      "Ġ;": 1786,
      "Ġ51": 1787,
      "Bind": 1788,
      "man": 1789,
      "Ġ|=": 1790,
      "AA": 1791,
      "Kind": 1792,
      "essages": 1793,
      "Api": 1794,
      "Target": 1795,
      "ts": 1796,
      "google": 1797,
      "cess": 1798,
      "94": 1799,
      "Debug": 1800,
      "create": 1801,
      "als": 1802,
      "inary": 1803,
      "ĠList": 1804,
      "Ġent": 1805,
      "cfg": 1806,
      "istic": 1807,
      "Ġwhen": 1808,
      "ision": 1809,
      "Pointer": 1810,
      "OK": 1811,
      "Point": 1812,
      "ities": 1813,
      "Ġruntime": 1814,
      "Hel": 1815,
      "\"}": 1816,
      "Payload": 1817,
      "Page": 1818,
      "Date": 1819,
      "Attributes": 1820,
      "ftware": 1821,
      "ll": 1822,
      "Ġcode": 1823,
      "lf": 1824,
      "vate": 1825,
      "cli": 1826,
      "Ġpre": 1827,
      "ĠpostIndex": 1828,
      "Ġdb": 1829,
      "outil": 1830,
      "----------------": 1831,
      "Now": 1832,
      "ick": 1833,
      "RE": 1834,
      "arr": 1835,
      "vc": 1836,
      "Ġ20": 1837,
      "itor": 1838,
      "dir": 1839,
      "MessageInfo": 1840,
      "suite": 1841,
      "AC": 1842,
      "iS": 1843,
      "ipe": 1844,
      "Ġtag": 1845,
      "Inst": 1846,
      "eta": 1847,
      "Ag": 1848,
      "fore": 1849,
      "mb": 1850,
      "Wrap": 1851,
      "angu": 1852,
      "Describe": 1853,
      "itle": 1854,
      "Ġapi": 1855,
      "sp": 1856,
      "Ġbut": 1857,
      "wr": 1858,
      "Ġpo": 1859,
      "utils": 1860,
      "open": 1861,
      "Acl": 1862,
      "aders": 1863,
      "idth": 1864,
      "Ctx": 1865,
      "continue": 1866,
      "Ed": 1867,
      ")))": 1868,
      "Desc": 1869,
      "Overflow": 1870,
      "kipp": 1871,
      "ĠUn": 1872,
      "med": 1873,
      "Ġgroup": 1874,
      "fe": 1875,
      "Found": 1876,
      "Float": 1877,
      "output": 1878,
      "Ġcommand": 1879,
      "Items": 1880,
      "AM": 1881,
      "Ġversion": 1882,
      "cur": 1883,
      "Metric": 1884,
      "Ġmatch": 1885,
      "iddleware": 1886,
      "Ġdistributed": 1887,
      "ĠReset": 1888,
      "Ġsize": 1889,
      "lean": 1890,
      "foo": 1891,
      "IntOverflow": 1892,
      "Ġ255": 1893,
      "Ġimple": 1894,
      "tt": 1895,
      "Failed": 1896,
      "update": 1897,
      "varint": 1898,
      "ocker": 1899,
      "Operation": 1900,
      "Ġinst": 1901,
      "Ġyou": 1902,
      "Ġurl": 1903,
      "ctrl": 1904,
      "ero": 1905,
      "ĠAPI": 1906,
      "Merge": 1907,
      "Ġtrans": 1908,
      "count": 1909,
      "ĠOR": 1910,
      "AD": 1911,
      "Schema": 1912,
      "License": 1913,
      "Ġwork": 1914,
      "plication": 1915,
      "Connection": 1916,
      "Ġdeter": 1917,
      "Ġblock": 1918,
      "Ver": 1919,
      "Ġoutput": 1920,
      "uid": 1921,
      "Ġhave": 1922,
      "Lim": 1923,
      "cloud": 1924,
      "nap": 1925,
      "Keys": 1926,
      "anguage": 1927,
      "ative": 1928,
      "__": 1929,
      "chan": 1930,
      "Ġstart": 1931,
      "ĠErrIntOverflow": 1932,
      "Local": 1933,
      "orm": 1934,
      "ĠAN": 1935,
      "Next": 1936,
      "aa": 1937,
      "TI": 1938,
      "Bal": 1939,
      "=<": 1940,
      "Ġte": 1941,
      "Ġauth": 1942,
      "upp": 1943,
      "ĠAdd": 1944,
      "print": 1945,
      "Row": 1946,
      "cre": 1947,
      "kip": 1948,
      "ats": 1949,
      "iSaf": 1950,
      "Ġmust": 1951,
      "Ġact": 1952,
      "EntityData": 1953,
      "entic": 1954,
      "alth": 1955,
      "AfiSaf": 1956,
      "kippy": 1957,
      "dition": 1958,
      "ich": 1959,
      "ss": 1960,
      "Class": 1961,
      "Req": 1962,
      "Ġone": 1963,
      "Ġencode": 1964,
      "Std": 1965,
      "ateway": 1966,
      "Ġquery": 1967,
      "Enabled": 1968,
      "Model": 1969,
      "failed": 1970,
      "RO": 1971,
      "raph": 1972,
      "Domain": 1973,
      "Liter": 1974,
      "top": 1975,
      "Encode": 1976,
      "Act": 1977,
      "irectory": 1978,
      "Prod": 1979,
      "ĠID": 1980,
      "View": 1981,
      "Expr": 1982,
      "{{": 1983,
      "params": 1984,
      "ases": 1985,
      "num": 1986,
      "ĠDescriptor": 1987,
      "table": 1988,
      "Ġany": 1989,
      "formation": 1990,
      "Ċĉĉĉĉĉĉĉĉĉ": 1991,
      "Ġne": 1992,
      "ĠError": 1993,
      "board": 1994,
      "unk": 1995,
      "river": 1996,
      "second": 1997,
      "Empty": 1998,
      "vert": 1999,
      "vo": 2000,
      "indow": 2001,
      "runtime": 2002,
      ",-": 2003,
      "ename": 2004,
      "Part": 2005,
      "ĠlocalVar": 2006,
      "ential": 2007,
      "ateg": 2008,
      "cache": 2009,
      "Ġflag": 2010,
      "ason": 2011,
      "iting": 2012,
      "ression": 2013,
      "Opcode": 2014,
      "anner": 2015,
      "Operand": 2016,
      "(`": 2017,
      "One": 2018,
      "ux": 2019,
      "ĠErrInvalid": 2020,
      "DIT": 2021,
      "Ġoper": 2022,
      "olang": 2023,
      "common": 2024,
      "Ġdis": 2025,
      "models": 2026,
      "can": 2027,
      "bb": 2028,
      "cer": 2029,
      "Ac": 2030,
      "\");": 2031,
      "Rec": 2032,
      "last": 2033,
      "acket": 2034,
      "rame": 2035,
      "(\"/": 2036,
      "Tra": 2037,
      "Names": 2038,
      "postIndex": 2039,
      "ank": 2040,
      "ĊĊĉĉĉ": 2041,
      "atter": 2042,
      "ĠProtoMessage": 2043,
      "Operands": 2044,
      "ĠdAtA": 2045,
      ")\",": 2046,
      "]*": 2047,
      "Ġxy": 2048,
      "ifest": 2049,
      "ally": 2050,
      "ances": 2051,
      "xdb": 2052,
      "max": 2053,
      "Queue": 2054,
      "CP": 2055,
      "ĠCopy": 2056,
      "shot": 2057,
      "arent": 2058,
      "beta": 2059,
      "Ġop": 2060,
      "gp": 2061,
      "plit": 2062,
      "ighb": 2063,
      "Ġitem": 2064,
      "pend": 2065,
      "epCopy": 2066,
      "less": 2067,
      "fake": 2068,
      "Ġoptions": 2069,
      "ĠY": 2070,
      "Ġcluster": 2071,
      "etch": 2072,
      "Background": 2073,
      "Process": 2074,
      "match": 2075,
      "gen": 2076,
      "LOC": 2077,
      "bs": 2078,
      "Ġonly": 2079,
      "otal": 2080,
      "allet": 2081,
      "cluster": 2082,
      "iff": 2083,
      "ttp": 2084,
      "Unlock": 2085,
      "ped": 2086,
      "lobal": 2087,
      "Ipv": 2088,
      "Ġdetermin": 2089,
      "resh": 2090,
      "Change": 2091,
      "Errors": 2092,
      "Detail": 2093,
      "napshot": 2094,
      "vm": 2095,
      "Range": 2096,
      "ResponseBody": 2097,
      "Ġper": 2098,
      "Compa": 2099,
      "Discard": 2100,
      "Root": 2101,
      "ui": 2102,
      "trans": 2103,
      "uber": 2104,
      "ĠErrInvalidLength": 2105,
      "Ġpl": 2106,
      "redential": 2107,
      "Controller": 2108,
      "ODO": 2109,
      "golang": 2110,
      "par": 2111,
      "Ġauto": 2112,
      "ines": 2113,
      "Conf": 2114,
      "Ġindex": 2115,
      "Builder": 2116,
      "www": 2117,
      "inal": 2118,
      "covery": 2119,
      "ility": 2120,
      "lied": 2121,
      "NS": 2122,
      "erval": 2123,
      "ĠfileDescriptor": 2124,
      "Ġspecific": 2125,
      "HO": 2126,
      "Web": 2127,
      "ds": 2128,
      "ĠFor": 2129,
      "Ġwhich": 2130,
      "Link": 2131,
      "irt": 2132,
      "ination": 2133,
      "čĊĉ": 2134,
      "TL": 2135,
      "Ġcurrent": 2136,
      "Ġformat": 2137,
      "Ġfailed": 2138,
      "ause": 2139,
      "present": 2140,
      "ailable": 2141,
      "current": 2142,
      "bar": 2143,
      "Ġ201": 2144,
      "play": 2145,
      "Ċĉĉĉĉĉĉĉĉĉĉĉĉ": 2146,
      "UID": 2147,
      "spec": 2148,
      "Ġempty": 2149,
      "*/": 2150,
      ",.": 2151,
      "ĠVersion": 2152,
      "schema": 2153,
      "Ġpos": 2154,
      "ĠOF": 2155,
      "stack": 2156,
      "Ġexec": 2157,
      "ĠDelete": 2158,
      "Ġsy": 2159,
      "ĠUpdate": 2160,
      "Wait": 2161,
      "queue": 2162,
      "Ġdoes": 2163,
      "mx": 2164,
      "session": 2165,
      "ĠAp": 2166,
      "Url": 2167,
      "scall": 2168,
      "Ġxml": 2169,
      "move": 2170,
      "ting": 2171,
      "Project": 2172,
      "mount": 2173,
      "loc": 2174,
      "Ġparams": 2175,
      "Must": 2176,
      "Fe": 2177,
      "got": 2178,
      "over": 2179,
      "Ġsource": 2180,
      "system": 2181,
      "xxx": 2182,
      "ables": 2183,
      "Ġmax": 2184,
      "Ġman": 2185,
      "ceptor": 2186,
      "encoding": 2187,
      "ĠCom": 2188,
      "PtrOutput": 2189,
      "Ġaddress": 2190,
      "ptr": 2191,
      "ĠIs": 2192,
      "color": 2193,
      "Ġother": 2194,
      "ĠEx": 2195,
      "Ġdeterministic": 2196,
      "ault": 2197,
      "Remove": 2198,
      "Ġ@": 2199,
      "ible": 2200,
      "NotFound": 2201,
      "ollar": 2202,
      "Ġenv": 2203,
      "Ġstrconv": 2204,
      "/*": 2205,
      "ternal": 2206,
      "achine": 2207,
      "Neighb": 2208,
      "ither": 2209,
      "obj": 2210,
      "build": 2211,
      "Ġnon": 2212,
      "ĠMarshal": 2213,
      "ENSE": 2214,
      "sync": 2215,
      "Dollar": 2216,
      "istory": 2217,
      "ICENSE": 2218,
      "ical": 2219,
      "rest": 2220,
      "Total": 2221,
      "Ġ>>": 2222,
      "ermissions": 2223,
      "Has": 2224,
      "Tri": 2225,
      "Ġrece": 2226,
      "lish": 2227,
      "Profile": 2228,
      "mxy": 2229,
      "========": 2230,
      "RAN": 2231,
      "opts": 2232,
      "br": 2233,
      "Ġexist": 2234,
      "Ġcmd": 2235,
      "hook": 2236,
      "imple": 2237,
      "Top": 2238,
      "mod": 2239,
      "ificate": 2240,
      "Workflow": 2241,
      "DiscardUnknown": 2242,
      "LE": 2243,
      "Wh": 2244,
      "Ġreturned": 2245,
      "256": 2246,
      "Limit": 2247,
      "elf": 2248,
      "Bucket": 2249,
      "Varint": 2250,
      "clu": 2251,
      "fd": 2252,
      "Tags": 2253,
      "Ġ<=": 2254,
      "ĠIS": 2255,
      "Ġnumber": 2256,
      "we": 2257,
      "Ġstore": 2258,
      "xeb": 2259,
      "view": 2260,
      "entity": 2261,
      "Ġsql": 2262,
      "}},": 2263,
      "Ġ18": 2264,
      "ĠCopyright": 2265,
      "Ġ32": 2266,
      "utex": 2267,
      "Ġinto": 2268,
      "false": 2269,
      "tal": 2270,
      "exec": 2271,
      "gener": 2272,
      "Last": 2273,
      "oper": 2274,
      "Ob": 2275,
      "Ġvar": 2276,
      "Ġsrc": 2277,
      "Ste": 2278,
      "internal": 2279,
      "Sync": 2280,
      "ĠTo": 2281,
      "fc": 2282,
      ")),": 2283,
      "ĠĊ": 2284,
      "Ġmsglen": 2285,
      "Mon": 2286,
      "arn": 2287,
      "Repository": 2288,
      "Public": 2289,
      "\":\"": 2290,
      "row": 2291,
      "Ġgover": 2292,
      "image": 2293,
      "Go": 2294,
      "bc": 2295,
      "Ġval": 2296,
      "okup": 2297,
      "sm": 2298,
      "Ġ12": 2299,
      "Ġwrong": 2300,
      "Ġwrite": 2301,
      "Ġinfo": 2302,
      "hel": 2303,
      "Member": 2304,
      "LOCAL": 2305,
      "chain": 2306,
      "ures": 2307,
      "Ġwriting": 2308,
      "Ġpulumi": 2309,
      "200": 2310,
      "EX": 2311,
      "tension": 2312,
      "Ġwas": 2313,
      "uberne": 2314,
      "ĊĊĠĠĠ": 2315,
      "yaml": 2316,
      "Del": 2317,
      "ubernetes": 2318,
      "Pe": 2319,
      "Parameters": 2320,
      "Ġrepresent": 2321,
      "hash": 2322,
      "ron": 2323,
      "2018": 2324,
      "air": 2325,
      "Function": 2326,
      "older": 2327,
      "Settings": 2328,
      "Mark": 2329,
      "Replace": 2330,
      "Ġcommon": 2331,
      "next": 2332,
      "Ġeither": 2333,
      "cryp": 2334,
      "Execution": 2335,
      "target": 2336,
      "Property": 2337,
      "vok": 2338,
      "Put": 2339,
      "ise": 2340,
      "label": 2341,
      "Ġq": 2342,
      "cope": 2343,
      "leg": 2344,
      "Labels": 2345,
      "Ġtx": 2346,
      "{}{": 2347,
      "ev": 2348,
      "unknown": 2349,
      "Selector": 2350,
      "til": 2351,
      "env": 2352,
      "Element": 2353,
      "igest": 2354,
      "task": 2355,
      "flu": 2356,
      "ping": 2357,
      "Stats": 2358,
      "Ġgenerated": 2359,
      "oo": 2360,
      "finition": 2361,
      "ward": 2362,
      "Box": 2363,
      "project": 2364,
      "Ġhost": 2365,
      "}()": 2366,
      "ish": 2367,
      ",,": 2368,
      "Resol": 2369,
      "ĠApache": 2370,
      ").(": 2371,
      "annot": 2372,
      "ECT": 2373,
      "Ġlimit": 2374,
      "ĠCON": 2375,
      "ging": 2376,
      "conf": 2377,
      "Custom": 2378,
      "Ġsign": 2379,
      "Ġsov": 2380,
      "cted": 2381,
      "Ġsrv": 2382,
      "ĠSh": 2383,
      "Author": 2384,
      "Chan": 2385,
      "()))": 2386,
      "ilename": 2387,
      "IsX": 2388,
      "PO": 2389,
      "ĠWAR": 2390,
      "BaseNode": 2391,
      "Ġxmm": 2392,
      "Ġfields": 2393,
      "IsXMM": 2394,
      "ObjectMeta": 2395,
      "Ġpart": 2396,
      "escription": 2397,
      "cle": 2398,
      "iron": 2399,
      "Ġspecified": 2400,
      "stream": 2401,
      "vision": 2402,
      "The": 2403,
      "Deploy": 2404,
      "xbf": 2405,
      "ĠANY": 2406,
      "Sum": 2407,
      "Ġobtain": 2408,
      "Ġtc": 2409,
      "Ġpod": 2410,
      "addr": 2411,
      "ĠĠĠĠĠĠĠĠĠĠĠĠĠĠĠĠĠĠĠ": 2412,
      "down": 2413,
      "alled": 2414,
      "Ġsoftware": 2415,
      "RegisterType": 2416,
      "ĠCon": 2417,
      "Repo": 2418,
      "box": 2419,
      "ersist": 2420,
      "Ġinstance": 2421,
      "command": 2422,
      "IND": 2423,
      "cent": 2424,
      "yle": 2425,
      "ounter": 2426,
      "Ġ16": 2427,
      "init": 2428,
      "andom": 2429,
      "sumer": 2430,
      "Ġcontains": 2431,
      "keys": 2432,
      "Offset": 2433,
      "irtual": 2434,
      "enses": 2435,
      "Password": 2436,
      "delete": 2437,
      "Ġport": 2438,
      "Ġimp": 2439,
      "link": 2440,
      "AB": 2441,
      "dget": 2442,
      "Ph": 2443,
      "System": 2444,
      "ĠAuth": 2445,
      "fined": 2446,
      "ING": 2447,
      "Ġhandler": 2448,
      "gine": 2449,
      "000000": 2450,
      "subscri": 2451,
      "cogn": 2452,
      "Loc": 2453,
      "Child": 2454,
      "Cur": 2455,
      "ful": 2456,
      "sv": 2457,
      "Timestamp": 2458,
      "msgTypes": 2459,
      "StringLen": 2460,
      "liance": 2461,
      "Static": 2462,
      "Ġtarget": 2463,
      "ResponseWriter": 2464,
      "asic": 2465,
      "ĠWARRAN": 2466,
      "Serial": 2467,
      "ender": 2468,
      "address": 2469,
      "upported": 2470,
      "UL": 2471,
      "Char": 2472,
      "Height": 2473,
      "uments": 2474,
      "ĠNOT": 2475,
      "licenses": 2476,
      "ocket": 2477,
      "lowed": 2478,
      "Plugin": 2479,
      "Ġpri": 2480,
      "dat": 2481,
      "Ġimage": 2482,
      "ran": 2483,
      "UN": 2484,
      "write": 2485,
      "Chain": 2486,
      ":\",": 2487,
      "StatusCode": 2488,
      "bl": 2489,
      "storage": 2490,
      "xfe": 2491,
      "Assert": 2492,
      "dc": 2493,
      "https": 2494,
      "Attribute": 2495,
      "ĠSee": 2496,
      "ĠType": 2497,
      "chedule": 2498,
      "Budget": 2499,
      "Http": 2500,
      "Ow": 2501,
      "ending": 2502,
      "}{": 2503,
      "Asset": 2504,
      "PS": 2505,
      "][": 2506,
      "Ġlanguage": 2507,
      "ĠGo": 2508,
      "Ġbuf": 2509,
      "upport": 2510,
      "ived": 2511,
      "Bad": 2512,
      "igr": 2513,
      "debug": 2514,
      "Val": 2515,
      "Site": 2516,
      "Ġpermissions": 2517,
      "Ġconn": 2518,
      "Ġparse": 2519,
      "root": 2520,
      "keyed": 2521,
      "Metrics": 2522,
      "Unkeyed": 2523,
      "So": 2524,
      "men": 2525,
      "NoUnkeyed": 2526,
      "NoUnkeyedLiter": 2527,
      "Ġback": 2528,
      "si": 2529,
      "array": 2530,
      "pub": 2531,
      "df": 2532,
      "CH": 2533,
      "Subscription": 2534,
      "Ġcreates": 2535,
      "Use": 2536,
      "method": 2537,
      "ie": 2538,
      "Ġobj": 2539,
      "handler": 2540,
      "np": 2541,
      "Ġ100": 2542,
      "ĠfieldNum": 2543,
      "apache": 2544,
      "options": 2545,
      "128": 2546,
      ">,": 2547,
      "cry": 2548,
      "ĠencodeVarint": 2549,
      "Reference": 2550,
      "ote": 2551,
      "ingle": 2552,
      "content": 2553,
      "Proxy": 2554,
      "Condition": 2555,
      "Usage": 2556,
      "invalid": 2557,
      "eries": 2558,
      "ton": 2559,
      "Files": 2560,
      "rus": 2561,
      "Ġtask": 2562,
      "Ġioutil": 2563,
      "aim": 2564,
      "Registry": 2565,
      "oci": 2566,
      "Rout": 2567,
      "wh": 2568,
      "Ġoffset": 2569,
      "ready": 2570,
      "Compact": 2571,
      "Ġskippy": 2572,
      "Null": 2573,
      "part": 2574,
      "xdf": 2575,
      "rift": 2576,
      "Pipe": 2577,
      "Form": 2578,
      "ffffffff": 2579,
      "Ġapplic": 2580,
      "her": 2581,
      "100": 2582,
      "gra": 2583,
      "TIES": 2584,
      "USD": 2585,
      "rop": 2586,
      "xfc": 2587,
      "Ġexpress": 2588,
      "ĠWARRANTIES": 2589,
      ")}": 2590,
      "xcf": 2591,
      "ba": 2592,
      "apis": 2593,
      "lay": 2594,
      "********": 2595,
      "</": 2596,
      "IONS": 2597,
      "dic": 2598,
      "Ġmetadata": 2599,
      "+\"": 2600,
      "mark": 2601,
      "MessageState": 2602,
      "Ġ\\": 2603,
      "Services": 2604,
      "network": 2605,
      "Ġexcept": 2606,
      "ell": 2607,
      "Remote": 2608,
      "Identifier": 2609,
      "];": 2610,
      "Ġmod": 2611,
      "Ġnet": 2612,
      "xfb": 2613,
      "Ġcount": 2614,
      "Private": 2615,
      "\",\"": 2616,
      "Fact": 2617,
      "WS": 2618,
      "ince": 2619,
      "ptional": 2620,
      "syscall": 2621,
      "Ġagre": 2622,
      "Split": 2623,
      "ITHO": 2624,
      "ITHOUT": 2625,
      "Ġbuild": 2626,
      "math": 2627,
      "metrics": 2628,
      "Ġfirst": 2629,
      "xfd": 2630,
      "GroupName": 2631,
      "object": 2632,
      "Report": 2633,
      "azy": 2634,
      "bra": 2635,
      "Search": 2636,
      "Success": 2637,
      "MS": 2638,
      "mem": 2639,
      "Par": 2640,
      "Plan": 2641,
      "DE": 2642,
      "filter": 2643,
      "cognized": 2644,
      "record": 2645,
      "ĊĠĠĠĠĠĠĠĠĠĠĠ": 2646,
      "QL": 2647,
      "ĠKIND": 2648,
      "iver": 2649,
      "dev": 2650,
      "Ġnamespace": 2651,
      "Region": 2652,
      "Control": 2653,
      "Generate": 2654,
      "Document": 2655,
      "Accept": 2656,
      "apt": 2657,
      "urity": 2658,
      "Ġhttps": 2659,
      "&&": 2660,
      "wo": 2661,
      "Properties": 2662,
      "Ġ$": 2663,
      "Ġele": 2664,
      "GET": 2665,
      "Events": 2666,
      "AP": 2667,
      "conc": 2668,
      "xef": 2669,
      "Ġapplicable": 2670,
      "html": 2671,
      "Ġcontent": 2672,
      "Ġprovi": 2673,
      "Resources": 2674,
      "Ġline": 2675,
      "Ġad": 2676,
      "Ġlabel": 2677,
      "Decode": 2678,
      "Gen": 2679,
      "xaf": 2680,
      "Ġneed": 2681,
      "ML": 2682,
      "Validation": 2683,
      "It": 2684,
      "LICENSE": 2685,
      "recognized": 2686,
      "Ġbyte": 2687,
      "fn": 2688,
      "Org": 2689,
      "repo": 2690,
      "Identity": 2691,
      "sl": 2692,
      "word": 2693,
      "Ġcompliance": 2694,
      "inst": 2695,
      "IM": 2696,
      "tach": 2697,
      "Lookup": 2698,
      "Mutex": 2699,
      "OS": 2700,
      "cobra": 2701,
      "ĠIt": 2702,
      "undle": 2703,
      "Routes": 2704,
      "WithContext": 2705,
      "Should": 2706,
      "namespace": 2707,
      "doc": 2708,
      "application": 2709,
      "If": 2710,
      "Resp": 2711,
      "Ġ57": 2712,
      "iod": 2713,
      "call": 2714,
      "pply": 2715,
      "ĊĠĠĠĠĠ": 2716,
      "Commit": 2717,
      "lers": 2718,
      "Ċĉĉĉĉĉĉĉĉĉĉĉ": 2719,
      "Ġ\"\")": 2720,
      "Ġtests": 2721,
      "Case": 2722,
      "pod": 2723,
      "ĠYou": 2724,
      "vailable": 2725,
      "ironment": 2726,
      "ĠBAS": 2727,
      "ters": 2728,
      "atform": 2729,
      "self": 2730,
      "ĠBASIS": 2731,
      "Ġlaw": 2732,
      "Ġactual": 2733,
      "Ġ254": 2734,
      "TextString": 2735,
      "Bgp": 2736,
      "Find": 2737,
      "tls": 2738,
      "xfa": 2739,
      "Lazy": 2740,
      "ĠRead": 2741,
      "Ġgoverning": 2742,
      "issing": 2743,
      "Ġimplied": 2744,
      "UB": 2745,
      "Ġ14": 2746,
      "gh": 2747,
      "oller": 2748,
      "Idx": 2749,
      "Color": 2750,
      "CompactTextString": 2751,
      "sor": 2752,
      "select": 2753,
      "meta": 2754,
      "Ġagreed": 2755,
      "Ġchannel": 2756,
      "Health": 2757,
      "Ġtea": 2758,
      "dst": 2759,
      "mer": 2760,
      "Stop": 2761,
      "do": 2762,
      "kube": 2763,
      "Ġbody": 2764,
      "cript": 2765,
      "Ġ->": 2766,
      "ared": 2767,
      "Step": 2768,
      "Agent": 2769,
      "des": 2770,
      "xbe": 2771,
      "cg": 2772,
      "Auto": 2773,
      "Binding": 2774,
      "ome": 2775,
      "Created": 2776,
      "SH": 2777,
      "Ġaccount": 2778,
      "ĠUse": 2779,
      "source": 2780,
      "Helper": 2781,
      "Messages": 2782,
      "Obj": 2783,
      "USDT": 2784,
      "Ġinformation": 2785,
      "fb": 2786,
      ".\")": 2787,
      "Batch": 2788,
      "osm": 2789,
      "job": 2790,
      "IG": 2791,
      "DITIONS": 2792,
      "Contains": 2793,
      "ĠCONDITIONS": 2794,
      "Med": 2795,
      "Nodes": 2796,
      "Generator": 2797,
      "1000": 2798,
      ":])": 2799,
      "Ġorder": 2800,
      "xce": 2801,
      "ccur": 2802,
      "Tim": 2803,
      "bit": 2804,
      "Expected": 2805,
      "MarshalTo": 2806,
      "Ge": 2807,
      "Watch": 2808,
      "Ġsync": 2809,
      "container": 2810,
      "emon": 2811,
      "Ġsec": 2812,
      "Opts": 2813,
      "Ġfilter": 2814,
      "ota": 2815,
      "Gateway": 2816,
      "cb": 2817,
      "Ġschema": 2818,
      "Buf": 2819,
      "Interval": 2820,
      "mote": 2821,
      "Down": 2822,
      "rid": 2823,
      "length": 2824,
      "cheme": 2825,
      "Product": 2826,
      "Ġprocess": 2827,
      "Rules": 2828,
      "esh": 2829,
      "ĠĠĠĠĠĠĠĠĠĠĠĠĠĠĠĠĠ": 2830,
      "Exit": 2831,
      "ĠTODO": 2832,
      "xbd": 2833,
      "True": 2834,
      "protoimpl": 2835,
      "tra": 2836,
      "xbb": 2837,
      "pare": 2838,
      "ta": 2839,
      "account": 2840,
      "ma": 2841,
      "History": 2842,
      "dr": 2843,
      "Ġnext": 2844,
      "iable": 2845,
      "ĠCh": 2846,
      "Ġfiles": 2847,
      "Collection": 2848,
      "du": 2849,
      "xec": 2850,
      "Exists": 2851,
      "TypeOf": 2852,
      "sResponse": 2853,
      "Usr": 2854,
      "graph": 2855,
      "unrecognized": 2856,
      "ĠIP": 2857,
      "Append": 2858,
      "sort": 2859,
      "rect": 2860,
      "Protocol": 2861,
      "Ġheader": 2862,
      "UsrMsg": 2863,
      "Ġtable": 2864,
      "icast": 2865,
      "Into": 2866,
      "=%": 2867,
      "clude": 2868,
      "xml": 2869,
      "LazyProc": 2870,
      "imum": 2871,
      "Ġgraph": 2872,
      "Attr": 2873,
      "PD": 2874,
      "secret": 2875,
      "now": 2876,
      "Ġpub": 2877,
      "attern": 2878,
      "CSUsrMsg": 2879,
      "Cap": 2880,
      "Scal": 2881,
      "osmos": 2882,
      "thing": 2883,
      "Ġcontainer": 2884,
      "Ġbo": 2885,
      "xbc": 2886,
      "Ġdelete": 2887,
      "Enable": 2888,
      "arm": 2889,
      "ĠName": 2890,
      "Rece": 2891,
      "Ġmem": 2892,
      "bers": 2893,
      "enom": 2894,
      "xdd": 2895,
      "Ġgrpc": 2896,
      "voke": 2897,
      "theus": 2898,
      "Headers": 2899,
      "Ġconfiguration": 2900,
      "tc": 2901,
      "Ġ--": 2902,
      "gram": 2903,
      "Details": 2904,
      "Serve": 2905,
      "logrus": 2906,
      "metheus": 2907,
      "ved": 2908,
      "Ġ15": 2909,
      "ixed": 2910,
      "Ġprotoreflect": 2911,
      "Full": 2912,
      "Comple": 2913,
      "OV": 2914,
      "Failure": 2915,
      "Gr": 2916,
      "ĠCode": 2917,
      "Json": 2918,
      "ynam": 2919,
      "main": 2920,
      "Ġsession": 2921,
      "Ġusing": 2922,
      "Done": 2923,
      "Groups": 2924,
      "ae": 2925,
      "ency": 2926,
      "Contract": 2927,
      "Ġpar": 2928,
      "/{": 2929,
      "xed": 2930,
      "uter": 2931,
      "xee": 2932,
      "Memory": 2933,
      "Ġaws": 2934,
      "entication": 2935,
      "Ġoperation": 2936,
      "Ġlength": 2937,
      "WriteString": 2938,
      "git": 2939,
      "ape": 2940,
      "xde": 2941,
      "IL": 2942,
      "cf": 2943,
      "Ġ*/": 2944,
      "aint": 2945,
      "Ġmin": 2946,
      "].(": 2947,
      "auto": 2948,
      "uture": 2949,
      "Ġmore": 2950,
      "web": 2951,
      "ivity": 2952,
      "Packet": 2953,
      "pool": 2954,
      "Ġip": 2955,
      "Ġexists": 2956,
      "process": 2957,
      "Package": 2958,
      "ĠDeepCopy": 2959,
      "soci": 2960,
      "Ġms": 2961,
      "Application": 2962,
      "VAL": 2963,
      "Ġcre": 2964,
      "author": 2965,
      "redentials": 2966,
      "Recorder": 2967,
      "Replication": 2968,
      "HE": 2969,
      "xae": 2970,
      "My": 2971,
      "Pay": 2972,
      "ics": 2973,
      "Ġrecord": 2974,
      "Encoder": 2975,
      "rs": 2976,
      "rag": 2977,
      "lib": 2978,
      "ries": 2979,
      "Balance": 2980,
      "comp": 2981,
      "Ġcase": 2982,
      "Unsafe": 2983,
      "255": 2984,
      "Ġtemplate": 2985,
      "Ġslice": 2986,
      "xcd": 2987,
      "Ġdec": 2988,
      "Te": 2989,
      "ian": 2990,
      "illi": 2991,
      "limit": 2992,
      "Ġcfg": 2993,
      "Mo": 2994,
      "ermin": 2995,
      "Ġ38": 2996,
      "aster": 2997,
      "xcb": 2998,
      "fter": 2999,
      "ĠIN": 3000,
      "(_": 3001,
      "ker": 3002,
      "yyDollar": 3003,
      "Parent": 3004,
      "Ġhash": 3005,
      "Clo": 3006,
      "Database": 3007,
      "mented": 3008,
      "Net": 3009,
      "erved": 3010,
      "Space": 3011,
      "atest": 3012,
      "strconv": 3013,
      "Ġfilepath": 3014,
      "tmp": 3015,
      ")).": 3016,
      "xad": 3017,
      "Ġright": 3018,
      ":%": 3019,
      "Ġ\"\\": 3020,
      "parent": 3021,
      "xcc": 3022,
      "Ġendpoint": 3023,
      "Ġcancel": 3024,
      "utton": 3025,
      "ead": 3026,
      "Ġfind": 3027,
      "Ġ\".": 3028,
      "crypto": 3029,
      "CL": 3030,
      "xba": 3031,
      "xdc": 3032,
      "Ġroot": 3033,
      "ĠAll": 3034,
      "Ali": 3035,
      "sure": 3036,
      "Ġqu": 3037,
      "primary": 3038,
      "ĠKey": 3039,
      "NewProc": 3040,
      "Common": 3041,
      "After": 3042,
      "Unix": 3043,
      "cert": 3044,
      "ithy": 3045,
      "ĠSe": 3046,
      "Ġsw": 3047,
      "Ġsdk": 3048,
      "CCSUsrMsg": 3049,
      "plugin": 3050,
      "Peer": 3051,
      "Snapshot": 3052,
      "Ġcache": 3053,
      "ENT": 3054,
      "RPC": 3055,
      "Operator": 3056,
      "////////////////": 3057,
      "ci": 3058,
      "mbol": 3059,
      "leted": 3060,
      "ĠHTTP": 3061,
      "ĠDefault": 3062,
      "ĠCheck": 3063,
      "example": 3064,
      "Expression": 3065,
      "push": 3066,
      "ĠUnmarshal": 3067,
      "peer": 3068,
      "filepath": 3069,
      "Admin": 3070,
      "Cr": 3071,
      "Ġdatabase": 3072,
      "umns": 3073,
      "IDs": 3074,
      "Export": 3075,
      "xca": 3076,
      "Current": 3077,
      "ĠyyLOCAL": 3078,
      "Ġ22": 3079,
      "Ġ53": 3080,
      "Ġinterceptor": 3081,
      "Ġ24": 3082,
      "instance": 3083,
      "Ġ63": 3084,
      "Ġfake": 3085,
      "ority": 3086,
      "services": 3087,
      "bound": 3088,
      "ef": 3089,
      "ATE": 3090,
      "BgpRib": 3091,
      "AfiSafis": 3092,
      "/%": 3093,
      "ĠJSON": 3094,
      "Ġlast": 3095,
      "=<-": 3096,
      "AfiSafi": 3097,
      "Cancel": 3098,
      "MP": 3099,
      "bed": 3100,
      "format": 3101,
      "ĠWith": 3102,
      "cgui": 3103,
      "Ġcore": 3104,
      "agement": 3105,
      "Certificate": 3106,
      "lear": 3107,
      "xab": 3108,
      "Ġxcgui": 3109,
      "EST": 3110,
      "Ġ\\\"": 3111,
      "sClient": 3112,
      "Ġ11": 3113,
      "Unicast": 3114,
      "big": 3115,
      "cce": 3116,
      "policy": 3117,
      "ersistent": 3118,
      "sRequest": 3119,
      "xea": 3120,
      "ranch": 3121,
      "flux": 3122,
      "gg": 3123,
      "space": 3124,
      "StaticSite": 3125,
      "Reflect": 3126,
      "Ġ/*": 3127,
      "Ġstorage": 3128,
      "Parameter": 3129,
      "ability": 3130,
      "Any": 3131,
      "unknownFields": 3132,
      "page": 3133,
      "Ġconnection": 3134,
      "fields": 3135,
      "Execute": 3136,
      "Infof": 3137,
      "xda": 3138,
      "Aler": 3139,
      "Ġ35": 3140,
      "Ġbeen": 3141,
      "rawDesc": 3142,
      "offset": 3143,
      "ump": 3144,
      "Required": 3145,
      "čĊč": 3146,
      "Connect": 3147,
      "prec": 3148,
      "Ġvalidate": 3149,
      "Ġprovided": 3150,
      "Ġsecret": 3151,
      "Ġ#": 3152,
      "bin": 3153,
      "anges": 3154,
      "Ġrepresents": 3155,
      "provider": 3156,
      "00000000": 3157,
      "Ġ23": 3158,
      "xaa": 3159,
      "Sc": 3160,
      "lab": 3161,
      "Ġutil": 3162,
      "xac": 3163,
      "Definition": 3164,
      "ired": 3165,
      "ique": 3166,
      "very": 3167,
      "gb": 3168,
      "atalog": 3169,
      "stination": 3170,
      "Reply": 3171,
      "grade": 3172,
      "ĠConfig": 3173,
      "fra": 3174,
      "Ġ200": 3175,
      "Ġmodels": 3176,
      "wise": 3177,
      "Ori": 3178,
      "rand": 3179,
      "Fee": 3180,
      "Multi": 3181,
      "light": 3182,
      "Owner": 3183,
      "Pair": 3184,
      "Rate": 3185,
      "chedul": 3186,
      "TLS": 3187,
      "Rpc": 3188,
      "Ġ``,": 3189,
      "Tree": 3190,
      "from": 3191,
      "Ġsend": 3192,
      "values": 3193,
      "Suite": 3194,
      "Email": 3195,
      "Ġnetwork": 3196,
      "Ids": 3197,
      "Upload": 3198,
      "rou": 3199,
      "StatusOK": 3200,
      "Byte": 3201,
      "Validator": 3202,
      "ĠRet": 3203,
      "nd": 3204,
      "verr": 3205,
      "Ġab": 3206,
      "Install": 3207,
      "Ġopen": 3208,
      "agent": 3209,
      "ialize": 3210,
      "Ġcert": 3211,
      "Ġhi": 3212,
      "Ġ48": 3213,
      "ious": 3214,
      "Backend": 3215,
      "}.": 3216,
      "Ġ13": 3217,
      "temp": 3218,
      "izer": 3219,
      "eep": 3220,
      "lation": 3221,
      "domain": 3222,
      "px": 3223,
      "Machine": 3224,
      "tests": 3225,
      "Ġconf": 3226,
      "Import": 3227,
      "Prote": 3228,
      "structure": 3229,
      "Manifest": 3230,
      "UUID": 3231,
      "bd": 3232,
      "ĠService": 3233,
      "Have": 3234,
      "ancer": 3235,
      "Market": 3236,
      "Wallet": 3237,
      "plic": 3238,
      "Title": 3239,
      "docker": 3240,
      "leep": 3241,
      "ĠValue": 3242,
      "omock": 3243,
      "icro": 3244,
      "atures": 3245,
      "Ġimplements": 3246,
      "Ġbad": 3247,
      "Module": 3248,
      "Factory": 3249,
      "Ġ\"-": 3250,
      "Ġthen": 3251,
      "Leaf": 3252,
      "Ġed": 3253,
      "char": 3254,
      "files": 3255,
      "Insert": 3256,
      "by": 3257,
      "ĠJ": 3258,
      "Ġsc": 3259,
      "ĠValidate": 3260,
      "Ġsm": 3261,
      "IsM": 3262,
      "Select": 3263,
      "Amount": 3264,
      "Milli": 3265,
      "ĠInt": 3266,
      "(\"[": 3267,
      "pack": 3268,
      "ĠWrite": 3269,
      "unsafe": 3270,
      "Ġindic": 3271,
      "plan": 3272,
      "Neighbor": 3273,
      "Price": 3274,
      "orld": 3275,
      "Ġafter": 3276,
      "width": 3277,
      "apim": 3278,
      "BadRequest": 3279,
      ")-": 3280,
      "Ġcor": 3281,
      "vs": 3282,
      "Ġ43": 3283,
      "Ġhandle": 3284,
      "PE": 3285,
      "cast": 3286,
      "Ġ33": 3287,
      "UnsafeEnabled": 3288,
      "Ġchar": 3289,
      "null": 3290,
      "Ġcontain": 3291,
      "search": 3292,
      "ins": 3293,
      "greg": 3294,
      "Ġinvalid": 3295,
      "ccurred": 3296,
      "operator": 3297,
      "ops": 3298,
      "ffic": 3299,
      "Ġkeys": 3300,
      "AG": 3301,
      "Low": 3302,
      "Ġ50": 3303,
      "ĠĠĠĠĠĠĠĠĠĠĠĠĠĠĠĠĠĠ": 3304,
      "ilters": 3305,
      "gment": 3306,
      "External": 3307,
      "Ġlogger": 3308,
      "Ġtransaction": 3309,
      "ifact": 3310,
      "title": 3311,
      "Ġver": 3312,
      "endpoint": 3313,
      "Component": 3314,
      "Results": 3315,
      "ategory": 3316,
      "post": 3317,
      "arer": 3318,
      "stringLen": 3319,
      "ĠintStringLen": 3320,
      "Ġeach": 3321,
      "ermission": 3322,
      "Ġar": 3323,
      "Release": 3324,
      "class": 3325,
      "Ġposition": 3326,
      "ient": 3327,
      "Ġtext": 3328,
      "Sw": 3329,
      "ynamic": 3330,
      "bf": 3331,
      "Ġ21": 3332,
      "mpl": 3333,
      "description": 3334,
      "child": 3335,
      "Only": 3336,
      "Ġchan": 3337,
      "Ġinstead": 3338,
      "TR": 3339,
      "ĠApp": 3340,
      "ĠUser": 3341,
      "Exist": 3342,
      "ka": 3343,
      "OP": 3344,
      "ĠReplication": 3345,
      "Instances": 3346,
      "CR": 3347,
      "Ġthan": 3348,
      "CallOption": 3349,
      "Ġload": 3350,
      "ĠWITHOUT": 3351,
      "ories": 3352,
      "arted": 3353,
      "Reason": 3354,
      "SS": 3355,
      "direct": 3356,
      "ged": 3357,
      "tact": 3358,
      "omic": 3359,
      "testify": 3360,
      "Ġassert": 3361,
      "tenv": 3362,
      "Basic": 3363,
      "Disk": 3364,
      "rency": 3365,
      "Ġentry": 3366,
      "Ġcr": 3367,
      "Fn": 3368,
      "with": 3369,
      "lex": 3370,
      "VM": 3371,
      "location": 3372,
      "chr": 3373,
      "Ġgraphql": 3374,
      "Ok": 3375,
      "cor": 3376,
      "uble": 3377,
      "ServerError": 3378,
      "Virtual": 3379,
      "Pnp": 3380,
      "mun": 3381,
      "Notification": 3382,
      "Monitor": 3383,
      "(%": 3384,
      "Apply": 3385,
      "CC": 3386,
      "Before": 3387,
      "channel": 3388,
      "Ġ'',": 3389,
      "POST": 3390,
      "Ġ49": 3391,
      "\"+": 3392,
      "expr": 3393,
      "controller": 3394,
      "Denom": 3395,
      "StoreMessageInfo": 3396,
      "sizeCache": 3397,
      "MessageStateOf": 3398,
      "Ġsame": 3399,
      "ĠRequest": 3400,
      "ĠLicensed": 3401,
      "672": 3402,
      "off": 3403,
      "metadata": 3404,
      "Union": 3405,
      "achin": 3406,
      "Arch": 3407,
      "HER": 3408,
      "stret": 3409,
      "first": 3410,
      "timeout": 3411,
      "wg": 3412,
      "Ġprefix": 3413,
      "Ġdes": 3414,
      "utor": 3415,
      "Ġ30": 3416,
      "URI": 3417,
      "Ġits": 3418,
      "Ġjob": 3419,
      "achinery": 3420,
      "Binary": 3421,
      "ga": 3422,
      "ict": 3423,
      "Script": 3424,
      "TY": 3425,
      "Ġ`,": 3426,
      "license": 3427,
      "Ġpropert": 3428,
      "Ingress": 3429,
      "::": 3430,
      "Iter": 3431,
      "mu": 3432,
      "Push": 3433,
      "ected": 3434,
      "Signature": 3435,
      "Ġsuccess": 3436,
      "clo": 3437,
      "ioutil": 3438,
      "Non": 3439,
      "ollow": 3440,
      "Ġsets": 3441,
      "level": 3442,
      "Extension": 3443,
      "Ġmr": 3444,
      "ignore": 3445,
      "Pipeline": 3446,
      "actual": 3447,
      ",\"": 3448,
      "Tcp": 3449,
      "found": 3450,
      "Ġrepo": 3451,
      "US": 3452,
      "etion": 3453,
      "Ġ19": 3454,
      "corev": 3455,
      "Ġev": 3456,
      "Origin": 3457,
      "Unit": 3458,
      "window": 3459,
      "Ġthere": 3460,
      "Ġaction": 3461,
      "stant": 3462,
      "change": 3463,
      "ids": 3464,
      "Ġ'%": 3465,
      "stretchr": 3466,
      "Ġpayload": 3467,
      "that": 3468,
      "apimachinery": 3469,
      "Ġcreated": 3470,
      "fl": 3471,
      "ĠRun": 3472,
      "Adj": 3473,
      "Ġskip": 3474,
      "Ġwait": 3475,
      "KE": 3476,
      "Sort": 3477,
      "total": 3478,
      "ampl": 3479,
      "orig": 3480,
      "ffix": 3481,
      "Username": 3482,
      "Driver": 3483,
      "isco": 3484,
      "Ġaccess": 3485,
      "PM": 3486,
      "\\\":": 3487,
      "anic": 3488,
      "entry": 3489,
      ":`": 3490,
      "vious": 3491,
      "pn": 3492,
      "Ġlocal": 3493,
      "Ġyaml": 3494,
      "Alert": 3495,
      "idx": 3496,
      "509": 3497,
      "Fake": 3498,
      "kubernetes": 3499,
      "\"\\": 3500,
      "Fin": 3501,
      "Trim": 3502,
      "AAAA": 3503,
      "Ġ\")": 3504,
      "ResourceGroup": 3505,
      "Poller": 3506,
      "connect": 3507,
      "expect": 3508,
      "Bl": 3509,
      "router": 3510,
      "Users": 3511,
      "720": 3512,
      "Schedule": 3513,
      "cap": 3514,
      "tegr": 3515,
      "EventAttributes": 3516,
      "ToString": 3517,
      "active": 3518,
      "reshold": 3519,
      "IB": 3520,
      "Warn": 3521,
      "Deployment": 3522,
      "Ġprint": 3523,
      "Scope": 3524,
      "precated": 3525,
      "Ġreference": 3526,
      "Ġproject": 3527,
      "quence": 3528,
      "Ġmetav": 3529,
      "CA": 3530,
      "frame": 3531,
      "Ġdirectory": 3532,
      "ĠOn": 3533,
      "ĠUnless": 3534,
      "Zero": 3535,
      "Verify": 3536,
      "`)": 3537,
      "aged": 3538,
      "ty": 3539,
      "InternalServerError": 3540,
      "Elem": 3541,
      "Ġlimitations": 3542,
      "stat": 3543,
      "Callback": 3544,
      "prefix": 3545,
      "ses": 3546,
      "enc": 3547,
      "attr": 3548,
      "ench": 3549,
      "ormal": 3550,
      "Trace": 3551,
      "events": 3552,
      "Ġbind": 3553,
      ":],": 3554,
      "Coin": 3555,
      "InternalMessageInfo": 3556,
      "Unary": 3557,
      "buffer": 3558,
      "ĠCl": 3559,
      "NewRequest": 3560,
      "Ġbefore": 3561,
      "Ġmiddleware": 3562,
      "region": 3563,
      "ced": 3564,
      "Webhook": 3565,
      "Ti": 3566,
      "zure": 3567,
      "ele": 3568,
      "hether": 3569,
      "Media": 3570,
      "We": 3571,
      "dn": 3572,
      "Subject": 3573,
      "Cons": 3574,
      "paces": 3575,
      "epEqual": 3576,
      "access": 3577,
      "Ġstream": 3578,
      "idden": 3579,
      "SQL": 3580,
      "parse": 3581,
      "irm": 3582,
      "Cfg": 3583,
      "other": 3584,
      "ĠSize": 3585,
      "Begin": 3586,
      "Ġcur": 3587,
      "Dat": 3588,
      "Mapping": 3589,
      "Width": 3590,
      "close": 3591,
      "Ġpage": 3592,
      "Claim": 3593,
      "Period": 3594,
      "Fp": 3595,
      "ĠTr": 3596,
      "erve": 3597,
      "Ġalready": 3598,
      "custom": 3599,
      "optional": 3600,
      "sing": 3601,
      "Ġbinary": 3602,
      "cip": 3603,
      "Ġutils": 3604,
      "Topic": 3605,
      "siz": 3606,
      "Engine": 3607,
      "proxy": 3608,
      "crypt": 3609,
      "First": 3610,
      "Occurred": 3611,
      "copy": 3612,
      "Ġsecond": 3613,
      "Ġ`,`,": 3614,
      "DS": 3615,
      "Feature": 3616,
      ")]": 3617,
      "Security": 3618,
      "Ġover": 3619,
      "Ġparameters": 3620,
      "gor": 3621,
      "header": 3622,
      "(.": 3623,
      ".\",": 3624,
      "368": 3625,
      "cosmos": 3626,
      "Retry": 3627,
      "HaveOccurred": 3628,
      "Edge": 3629,
      "rie": 3630,
      "Ġsome": 3631,
      "Digest": 3632,
      "rt": 3633,
      "Fetch": 3634,
      "Hex": 3635,
      "Cloud": 3636,
      "Fault": 3637,
      "srv": 3638,
      "ana": 3639,
      "Co": 3640,
      "bucket": 3641,
      "roll": 3642,
      "ea": 3643,
      "rule": 3644,
      "Ġtimeout": 3645,
      "Aws": 3646,
      "Mount": 3647,
      "Ġarray": 3648,
      "Annot": 3649,
      "CO": 3650,
      "][]": 3651,
      "Require": 3652,
      "alle": 3653,
      "tom": 3654,
      "Ġpost": 3655,
      "Active": 3656,
      "socket": 3657,
      "zip": 3658,
      "ĠState": 3659,
      "Ġthrift": 3660,
      "Stmt": 3661,
      "Ġĉ": 3662,
      "ESS": 3663,
      "ences": 3664,
      "sig": 3665,
      "775": 3666,
      "RequestId": 3667,
      "Ġpolicy": 3668,
      "Ġimplement": 3669,
      "||": 3670,
      "SourceLocation": 3671,
      "ĠDO": 3672,
      "writer": 3673,
      "Router": 3674,
      "empty": 3675,
      "ĠNo": 3676,
      "union": 3677,
      "Ġcannot": 3678,
      "Ġmath": 3679,
      "Short": 3680,
      "redis": 3681,
      "--------------------------------": 3682,
      "generated": 3683,
      "wantErr": 3684,
      "Ġexisting": 3685,
      "DeepCopy": 3686,
      "ĠParse": 3687,
      "2949": 3688,
      "builder": 3689,
      "Publish": 3690,
      "\\\\": 3691,
      "DeepEqual": 3692,
      "Ġident": 3693,
      "bind": 3694,
      "gomock": 3695,
      "viders": 3696,
      "Ġaddr": 3697,
      "Can": 3698,
      "See": 3699,
      "Ġwhere": 3700,
      "ĠErrIntOverflowGenerated": 3701,
      "ategy": 3702,
      "Cre": 3703,
      "Runtime": 3704,
      "2949672": 3705,
      "Skip": 3706,
      "nav": 3707,
      "Neighbors": 3708,
      "component": 3709,
      "Ġcreating": 3710,
      "Ġnop": 3711,
      "ĠUint": 3712,
      ")},": 3713,
      "iler": 3714,
      "Ġcli": 3715,
      "CPU": 3716,
      "}),": 3717,
      "ater": 3718,
      "andard": 3719,
      "Ġotherwise": 3720,
      "FS": 3721,
      "Ġsupport": 3722,
      "tensions": 3723,
      "wd": 3724,
      "Respon": 3725,
      "Ġhel": 3726,
      "straint": 3727,
      "ĠLog": 3728,
      "acter": 3729,
      "Ġallow": 3730,
      "lugin": 3731,
      "iction": 3732,
      "Ġ\"+": 3733,
      "Left": 3734,
      "Ġct": 3735,
      "Shard": 3736,
      "ys": 3737,
      "Ġdir": 3738,
      "Frag": 3739,
      "pu": 3740,
      "Ġraw": 3741,
      "ĠyyS": 3742,
      "PublicKey": 3743,
      "gger": 3744,
      "ĠStart": 3745,
      "svc": 3746,
      "Listener": 3747,
      "prot": 3748,
      "yyVAL": 3749,
      "Ġclo": 3750,
      "agger": 3751,
      "yypt": 3752,
      "Ġyypt": 3753,
      "Formatter": 3754,
      "Ġupdated": 3755,
      "Share": 3756,
      "ĠShould": 3757,
      "čĊĉĉ": 3758,
      "Iam": 3759,
      "miss": 3760,
      "ves": 3761,
      "Resolver": 3762,
      "Ġ%+": 3763,
      "defined": 3764,
      "Ġmode": 3765,
      "crete": 3766,
      "Sleep": 3767,
      "patch": 3768,
      "Ġnow": 3769,
      "ĠClient": 3770,
      "register": 3771,
      "Ġgenerate": 3772,
      "Scan": 3773,
      "ges": 3774,
      "Allow": 3775,
      "EL": 3776,
      "signed": 3777,
      "ali": 3778,
      "BB": 3779,
      "Middleware": 3780,
      "Ġ\"%": 3781,
      "Summary": 3782,
      "na": 3783,
      "Kube": 3784,
      "eth": 3785,
      "Chunk": 3786,
      "Grant": 3787,
      "sizec": 3788,
      "ĠFile": 3789,
      "ached": 3790,
      "(\"\\": 3791,
      "NewReader": 3792,
      "codes": 3793,
      "admin": 3794,
      "Ġdevice": 3795,
      "-+": 3796,
      "Future": 3797,
      "Ġopt": 3798,
      "NoUnkeyedLiteral": 3799,
      "sizecache": 3800,
      "erra": 3801,
      "anization": 3802,
      "Ġdescri": 3803,
      "manager": 3804,
      "goto": 3805,
      "Ġold": 3806,
      "ampa": 3807,
      "Ġprovider": 3808,
      "ampaign": 3809,
      "Ġ},": 3810,
      "Ġiter": 3811,
      "anged": 3812,
      "Fl": 3813,
      "ystem": 3814,
      "section": 3815,
      "Ġcalled": 3816,
      "Ġmulti": 3817,
      "assed": 3818,
      "IsY": 3819,
      "Ġbuffer": 3820,
      "Updated": 3821,
      "teger": 3822,
      "boarding": 3823,
      "ĠPut": 3824,
      "Transport": 3825,
      "bal": 3826,
      "std": 3827,
      "()),": 3828,
      "Ġymm": 3829,
      "redic": 3830,
      "Rows": 3831,
      "IsYMM": 3832,
      "Global": 3833,
      "has": 3834,
      "Ġ?": 3835,
      "ĠURL": 3836,
      "Seconds": 3837,
      "sue": 3838,
      "ulate": 3839,
      "ĠSub": 3840,
      "ĠĠĠĠĠĠĠĠĠĠĠĠĠĠĠĠĠĠĠĠĠĠĠĠĠĠĠĠĠĠĠĠĠĠĠĠĠĠĠĠĠĠĠĠĠĠĠĠĠĠĠĠĠĠĠĠĠĠĠĠĠĠĠĠ": 3841,
      "PR": 3842,
      "stop": 3843,
      "eeper": 3844,
      "acity": 3845,
      "Counter": 3846,
      "bot": 3847,
      "zap": 3848,
      "Ġ65": 3849,
      "stion": 3850,
      "(){": 3851,
      "flags": 3852,
      "Ġreceiver": 3853,
      "ĠĠĠĠĠĠĠĠĠĠĠĠĠĠĠĠĠĠĠĠĠĠĠ": 3854,
      "Ġcolor": 3855,
      "UD": 3856,
      "div": 3857,
      "ERC": 3858,
      "Backup": 3859,
      "Patch": 3860,
      "lected": 3861,
      "Listen": 3862,
      "Paths": 3863,
      "Ġlevel": 3864,
      "ĠErrInvalidLengthGenerated": 3865,
      "ios": 3866,
      "Stdout": 3867,
      "Show": 3868,
      "tags": 3869,
      ":]": 3870,
      "FC": 3871,
      "ĠEDIT": 3872,
      "Ġnodes": 3873,
      "Decoder": 3874,
      "concile": 3875,
      "Sup": 3876,
      "Ġweb": 3877,
      "ector": 3878,
      "au": 3879,
      "route": 3880,
      "Millisecond": 3881,
      "Ġparent": 3882,
      "should": 3883,
      "}/": 3884,
      "Ġclose": 3885,
      "GZ": 3886,
      "Art": 3887,
      "desc": 3888,
      "Ġorig": 3889,
      "Ġconsumer": 3890,
      "BeNil": 3891,
      "Series": 3892,
      "ĠMessage": 3893,
      "ross": 3894,
      "ĠResource": 3895,
      "Dev": 3896,
      "Worker": 3897,
      "left": 3898,
      "Each": 3899,
      "oot": 3900,
      "Ġresults": 3901,
      "td": 3902,
      "zh": 3903,
      "ĠTime": 3904,
      "head": 3905,
      "UnaryServer": 3906,
      "Ġmessages": 3907,
      "ayout": 3908,
      "2233": 3909,
      "secondary": 3910,
      "ished": 3911,
      "Ġinitial": 3912,
      "banner": 3913,
      "skippy": 3914,
      "iface": 3915,
      "ventory": 3916,
      "Signer": 3917,
      "ĠX": 3918,
      "Ġtesting": 3919,
      "Ġdown": 3920,
      "tect": 3921,
      "Style": 3922,
      "exist": 3923,
      "StackGroup": 3924,
      "FA": 3925,
      "Ġdocument": 3926,
      "vides": 3927,
      "}\",": 3928,
      "Onboarding": 3929,
      "cm": 3930,
      "iag": 3931,
      "war": 3932,
      "EM": 3933,
      "xFF": 3934,
      "================": 3935,
      "]);": 3936,
      "utdown": 3937,
      "resent": 3938,
      "Ġwhether": 3939,
      "IsR": 3940,
      "itional": 3941,
      "BT": 3942,
      "ĠNode": 3943,
      "tribute": 3944,
      "Scheme": 3945,
      "Ġimport": 3946,
      "Ġwithout": 3947,
      "OnboardingPnp": 3948,
      "ech": 3949,
      "DeviceOnboardingPnp": 3950,
      "Save": 3951,
      "Subnet": 3952,
      "subscription": 3953,
      "Encoding": 3954,
      "Sender": 3955,
      "Dial": 3956,
      "ano": 3957,
      "Stderr": 3958,
      "Player": 3959,
      "ween": 3960,
      "let": 3961,
      "Ign": 3962,
      "ĠLe": 3963,
      "zone": 3964,
      "Ġec": 3965,
      "Ġvm": 3966,
      "Ġcomple": 3967,
      "ĠDo": 3968,
      "Persistent": 3969,
      "vis": 3970,
      "Def": 3971,
      "2233720": 3972,
      "ont": 3973,
      "Ġpoint": 3974,
      "duct": 3975,
      "epc": 3976,
      "ling": 3977,
      "ĠSo": 3978,
      "Ġbucket": 3979,
      "kit": 3980,
      "istration": 3981,
      "Dr": 3982,
      "Frame": 3983,
      "Random": 3984,
      "riend": 3985,
      "Ġ34": 3986,
      "Ġchild": 3987,
      "Prep": 3988,
      "password": 3989,
      "posal": 3990,
      "HTTPResponse": 3991,
      "Compile": 3992,
      "cision": 3993,
      "Db": 3994,
      "names": 3995,
      "Comment": 3996,
      "Lower": 3997,
      "ular": 3998,
      "aset": 3999,
      "Mut": 4000,
      "agination": 4001,
      "labels": 4002,
      "uring": 4003,
      "Ġ54": 4004,
      "Window": 4005,
      "items": 4006,
      "tainers": 4007,
      "Ġdiff": 4008,
      "cheduler": 4009,
      "ĠEvent": 4010,
      "etween": 4011,
      "WriteHeader": 4012,
      "etails": 4013,
      "NoUnkeyedLiterals": 4014,
      "rough": 4015,
      "enu": 4016,
      "Ġuintptr": 4017,
      "Produ": 4018,
      "WorkflowExecution": 4019,
      "([": 4020,
      "erraform": 4021,
      "watch": 4022,
      "(\"-": 4023,
      "Ġchain": 4024,
      "Ġgoogle": 4025,
      "medi": 4026,
      "tool": 4027,
      "127": 4028,
      "Seq": 4029,
      "00000": 4030,
      "nel": 4031,
      "AdjRib": 4032,
      "ereum": 4033,
      "cv": 4034,
      "faces": 4035,
      "column": 4036,
      "Authorization": 4037,
      "send": 4038,
      "Requests": 4039,
      "sets": 4040,
      "openapi": 4041,
      "AWS": 4042,
      "scal": 4043,
      "orp": 4044,
      "===": 4045,
      "parser": 4046,
      "ĠReturn": 4047,
      "ĠIm": 4048,
      "iffer": 4049,
      "Exce": 4050,
      "ADD": 4051,
      "authorized": 4052,
      "ĠPro": 4053,
      "ĠAs": 4054,
      "ĠForms": 4055,
      "Vis": 4056,
      "Zone": 4057,
      "epcopy": 4058,
      "PECT": 4059,
      "]\",": 4060,
      "():": 4061,
      "abc": 4062,
      "Ext": 4063,
      "HandlerFunc": 4064,
      "ĠInit": 4065,
      "wrap": 4066,
      "icode": 4067,
      "ibility": 4068,
      "Ġrows": 4069,
      "Ġmetrics": 4070,
      "OL": 4071,
      "ĠĠĠĠĠĠĠĠĠĠĠĠĠĠĠĠĠĠĠĠ": 4072,
      "Ġrights": 4073,
      "ĠMake": 4074,
      "Allowed": 4075,
      "daemon": 4076,
      "Fprintf": 4077,
      "verse": 4078,
      "Since": 4079,
      "QU": 4080,
      "Ġlicense": 4081,
      "Invoke": 4082,
      "Ġ(_": 4083,
      "ycle": 4084,
      "roker": 4085,
      "Ġsingle": 4086,
      "msglen": 4087,
      "Ġindicates": 4088,
      "Attach": 4089,
      "Ġ102": 4090,
      "Ġ[][]": 4091,
      "Modify": 4092,
      "DNS": 4093,
      "driver": 4094,
      "Ġavailable": 4095,
      "Ġpool": 4096,
      "Cursor": 4097,
      "ks": 4098,
      "ĠAl": 4099,
      "nodes": 4100,
      "Ġremove": 4101,
      "([]*": 4102,
      "Balancer": 4103,
      "Diff": 4104,
      "Ġ105": 4105,
      "Ġoperands": 4106,
      "FI": 4107,
      "Render": 4108,
      "ffect": 4109,
      "ERR": 4110,
      "ĠDescribe": 4111,
      "some": 4112,
      "Ġevents": 4113,
      "Esc": 4114,
      "pr": 4115,
      "Ġtop": 4116,
      "validate": 4117,
      "54775": 4118,
      "Depend": 4119,
      "ĠTHE": 4120,
      "required": 4121,
      "36854775": 4122,
      "223372036854775": 4123,
      ")[": 4124,
      "Flow": 4125,
      "global": 4126,
      "(\"\",": 4127,
      "fast": 4128,
      "leanup": 4129,
      "payload": 4130,
      "Redis": 4131,
      "Logs": 4132,
      "Branch": 4133,
      "handle": 4134,
      "Inv": 4135,
      "ĠObject": 4136,
      "Iterator": 4137,
      "22337203685477580": 4138,
      "esis": 4139,
      "Ġhere": 4140,
      "Ġsubscri": 4141,
      "Ċĉĉĉĉĉĉĉĉĉĉĉĉĉ": 4142,
      "Migr": 4143,
      "Replic": 4144,
      "Ġbeing": 4145,
      "docs": 4146,
      "Ev": 4147,
      "Ġplugin": 4148,
      "protocol": 4149,
      "CON": 4150,
      "Scr": 4151,
      "Getenv": 4152,
      "alc": 4153,
      "TODO": 4154,
      "ao": 4155,
      "Ġcustom": 4156,
      "NotNil": 4157,
      "ĠWe": 4158,
      "Ġyour": 4159,
      "ĠDis": 4160,
      "Interceptor": 4161,
      "metav": 4162,
      "database": 4163,
      "lot": 4164,
      "preserve": 4165,
      "enant": 4166,
      "Ġnames": 4167,
      "Ġrule": 4168,
      "ĠAuthors": 4169,
      "Timer": 4170,
      "')": 4171,
      "()).": 4172,
      "Ġrel": 4173,
      "Ġfollow": 4174,
      "ĠAn": 4175,
      "icker": 4176,
      "KEY": 4177,
      "ĠData": 4178,
      "enn": 4179,
      "prometheus": 4180,
      "MockRecorder": 4181,
      "Environment": 4182,
      "ployment": 4183,
      "ik": 4184,
      "Ġts": 4185,
      "success": 4186,
      "poch": 4187,
      "Temp": 4188,
      "Blob": 4189,
      "Ġcc": 4190,
      "Addresses": 4191,
      "Payment": 4192,
      "ĊĠĠĠĠĠĠĠĠĠĠĠĠĠĠĠ": 4193,
      "entities": 4194,
      "InfoElement": 4195,
      "AME": 4196,
      "':": 4197,
      "Ġrow": 4198,
      "ured": 4199,
      "Optional": 4200,
      "Ġsystem": 4201,
      "Graph": 4202,
      "mesh": 4203,
      "rd": 4204,
      "Ġthey": 4205,
      "abil": 4206,
      "Quota": 4207,
      "tegration": 4208,
      "ier": 4209,
      "001": 4210,
      "eded": 4211,
      "ValidationError": 4212,
      "CE": 4213,
      "Ġarguments": 4214,
      "ily": 4215,
      "Section": 4216,
      "Ġremo": 4217,
      "tempt": 4218,
      "Progress": 4219,
      "Ab": 4220,
      "Ġmeta": 4221,
      "filename": 4222,
      "js": 4223,
      "ads": 4224,
      "Ġgen": 4225,
      "Login": 4226,
      "Ġ(%": 4227,
      "Ġow": 4228,
      "Ġstack": 4229,
      "<-": 4230,
      "Ġbec": 4231,
      "velo": 4232,
      "propert": 4233,
      "book": 4234,
      "rece": 4235,
      "Ġnull": 4236,
      "ested": 4237,
      "number": 4238,
      "apter": 4239,
      "Ġresources": 4240,
      "Ġalso": 4241,
      "Ġparameter": 4242,
      "Directory": 4243,
      "imens": 4244,
      "Prop": 4245,
      "Ġreserved": 4246,
      "toa": 4247,
      "ĠĠĠĠĠĠĠĠĠĠĠĠĠĠĠĠĠĠĠĠĠ": 4248,
      "Ġautorest": 4249,
      "rw": 4250,
      "tle": 4251,
      "typ": 4252,
      "Ġqueue": 4253,
      "Ġconvert": 4254,
      "TS": 4255,
      "VC": 4256,
      "uri": 4257,
      "Bundle": 4258,
      "hcp": 4259,
      "ze": 4260,
      "Span": 4261,
      "hs": 4262,
      "Ġrf": 4263,
      "height": 4264,
      "Ġstd": 4265,
      "ĠBudget": 4266,
      "ifies": 4267,
      "mapkey": 4268,
      "Hook": 4269,
      "reader": 4270,
      "Mask": 4271,
      "Ġoption": 4272,
      "unexpected": 4273,
      "Segment": 4274,
      "Ġassoci": 4275,
      "Methods": 4276,
      "ble": 4277,
      "Ġcap": 4278,
      "Ġ47": 4279,
      "Literal": 4280,
      "Bit": 4281,
      "qs": 4282,
      "ĠyyDollar": 4283,
      "AV": 4284,
      "sible": 4285,
      "Ġdomain": 4286,
      "##": 4287,
      "Ġdescription": 4288,
      "imal": 4289,
      "Ġflags": 4290,
      "Ġ52": 4291,
      "position": 4292,
      "wait": 4293,
      "Ġrequests": 4294,
      "mission": 4295,
      "ĠDeprecated": 4296,
      "updated": 4297,
      "Pull": 4298,
      "1234": 4299,
      "Long": 4300,
      "sys": 4301,
      "verride": 4302,
      "Impl": 4303,
      "legal": 4304,
      "Move": 4305,
      "ĠNot": 4306,
      "Ġgets": 4307,
      "redicate": 4308,
      "MD": 4309,
      "(\"\")": 4310,
      "ROM": 4311,
      "Convert": 4312,
      "Ġ89": 4313,
      "fix": 4314,
      "Ġac": 4315,
      "Ġwatch": 4316,
      "Ġdefined": 4317,
      "Ġprovides": 4318,
      "Debugf": 4319,
      "123": 4320,
      "PH": 4321,
      "ĊĠĠĠĠĠĠĠĠĠ": 4322,
      "Ġagain": 4323,
      "Activity": 4324,
      "reen": 4325,
      "IR": 4326,
      "Bound": 4327,
      "Docker": 4328,
      "Itoa": 4329,
      "MOV": 4330,
      "VS": 4331,
      "Right": 4332,
      "bank": 4333,
      "wt": 4334,
      "irection": 4335,
      "Ġvalidation": 4336,
      "Serialize": 4337,
      "Sm": 4338,
      "username": 4339,
      "jav": 4340,
      "Head": 4341,
      "cn": 4342,
      "pth": 4343,
      "resources": 4344,
      "Variable": 4345,
      "Returns": 4346,
      "ru": 4347,
      "Ġself": 4348,
      "gs": 4349,
      "icle": 4350,
      "GZIP": 4351,
      "Wire": 4352,
      "bad": 4353,
      "Discovery": 4354,
      "txt": 4355,
      "Ġregister": 4356,
      "Scratch": 4357,
      "Ġfn": 4358,
      "Ins": 4359,
      "Ġidx": 4360,
      "Ġlabels": 4361,
      "yper": 4362,
      "olum": 4363,
      "Ġvolume": 4364,
      "Ġapplication": 4365,
      "urlPath": 4366,
      "Ġtags": 4367,
      "lines": 4368,
      "non": 4369,
      "enum": 4370,
      "fines": 4371,
      "Ġautogenerated": 4372,
      "Contact": 4373,
      "ident": 4374,
      "Endian": 4375,
      "ifec": 4376,
      "Ġ25": 4377,
      "Pending": 4378,
      "GB": 4379,
      "oice": 4380,
      "unf": 4381,
      "etcd": 4382,
      "Ġbig": 4383,
      "Ġ128": 4384,
      "ai": 4385,
      "UM": 4386,
      "stro": 4387,
      "toi": 4388,
      "Core": 4389,
      "Credentials": 4390,
      "done": 4391,
      "Ġsvc": 4392,
      "Ġzero": 4393,
      "Consumer": 4394,
      "StringVar": 4395,
      "Cli": 4396,
      "ookie": 4397,
      "ĠMarshalTo": 4398,
      "respon": 4399,
      "PL": 4400,
      "dns": 4401,
      "Ind": 4402,
      "Provision": 4403,
      "ese": 4404,
      "ReadAll": 4405,
      "Authentication": 4406,
      "sume": 4407,
      "supported": 4408,
      "Ġpassword": 4409,
      "Ġmi": 4410,
      "metric": 4411,
      "ĠsovGenerated": 4412,
      "-+-+": 4413,
      "\">": 4414,
      "False": 4415,
      "WAR": 4416,
      "utes": 4417,
      "Ġorg": 4418,
      "ResourceType": 4419,
      "enchmark": 4420,
      "ned": 4421,
      "ually": 4422,
      "ĠEn": 4423,
      "ummy": 4424,
      "uplic": 4425,
      "NewBuffer": 4426,
      "uuid": 4427,
      "style": 4428,
      "def": 4429,
      "Ġfe": 4430,
      "icon": 4431,
      "Button": 4432,
      "Campaign": 4433,
      "device": 4434,
      "ĊĊĠ": 4435,
      "ĠBlock": 4436,
      "Ġsee": 4437,
      "tributes": 4438,
      "olumes": 4439,
      "Ġcondition": 4440,
      "ipher": 4441,
      "Ġcopying": 4442,
      "('": 4443,
      "make": 4444,
      "comple": 4445,
      "licies": 4446,
      "Ġ55": 4447,
      "Pass": 4448,
      "fh": 4449,
      "ators": 4450,
      "Gu": 4451,
      "Ġĉĉ": 4452,
      "Statement": 4453,
      "Ġmemory": 4454,
      "((": 4455,
      "ArrayOutput": 4456,
      ":\\": 4457,
      "Available": 4458,
      "middleware": 4459,
      "Resolve": 4460,
      "****************": 4461,
      "Ġelement": 4462,
      "ĠQuery": 4463,
      "tries": 4464,
      "Bar": 4465,
      "Final": 4466,
      "Ġsp": 4467,
      "Strategy": 4468,
      "Ġdeepcopy": 4469,
      "Ġheaders": 4470,
      "Ġinternal": 4471,
      "mux": 4472,
      "Ġregexp": 4473,
      "Ġexample": 4474,
      "created": 4475,
      "DeepCopyInto": 4476,
      "WN": 4477,
      "iness": 4478,
      "StringValue": 4479,
      "formats": 4480,
      "{`": 4481,
      "Ġbecause": 4482,
      "xr": 4483,
      "mega": 4484,
      "Ġadds": 4485,
      "Real": 4486,
      "Track": 4487,
      "udit": 4488,
      "binary": 4489,
      "Ġ110": 4490,
      "validation": 4491,
      "Columns": 4492,
      "Assign": 4493,
      "ffffffffffffffff": 4494,
      "cing": 4495,
      "argin": 4496,
      "results": 4497,
      "unable": 4498,
      "Exporter": 4499,
      "localhost": 4500,
      "Threshold": 4501,
      "Ġworkflow": 4502,
      "ĠWh": 4503,
      "TYPE": 4504,
      "gw": 4505,
      "connection": 4506,
      "registry": 4507,
      "Records": 4508,
      "Aggreg": 4509,
      "Permission": 4510,
      "coded": 4511,
      "Ticket": 4512,
      "iables": 4513,
      "kv": 4514,
      "Where": 4515,
      "public": 4516,
      "TEST": 4517,
      "Vote": 4518,
      "available": 4519,
      "ifferent": 4520,
      "Upgrade": 4521,
      "commands": 4522,
      "čĊčĊ": 4523,
      "Ġmocks": 4524,
      "zz": 4525,
      "Ġstop": 4526,
      "kt": 4527,
      "multi": 4528,
      "ives": 4529,
      "Children": 4530,
      "ade": 4531,
      "Ġprotocol": 4532,
      "csv": 4533,
      "<<": 4534,
      "Ct": 4535,
      "IV": 4536,
      "Rel": 4537,
      "licit": 4538,
      "StatusInternalServerError": 4539,
      "Cases": 4540,
      "kind": 4541,
      "Ġcontract": 4542,
      "Display": 4543,
      "Drop": 4544,
      "aded": 4545,
      "ServiceServer": 4546,
      "timestamp": 4547,
      "Ġsetup": 4548,
      "Ġrunning": 4549,
      "media": 4550,
      "ĠlocalVarHTTPResponse": 4551,
      "Fragment": 4552,
      "stroy": 4553,
      "atomic": 4554,
      "Ġpassed": 4555,
      "Ġroute": 4556,
      ">:": 4557,
      "Filename": 4558,
      "ĠSend": 4559,
      "Parser": 4560,
      "Information": 4561,
      "email": 4562,
      "clud": 4563,
      "FO": 4564,
      "ho": 4565,
      "Setup": 4566,
      "Suffix": 4567,
      "Fprint": 4568,
      "Ġstat": 4569,
      "Members": 4570,
      "Hello": 4571,
      "Ġassociated": 4572,
      "Doc": 4573,
      "Ġpeer": 4574,
      "stats": 4575,
      "Ġ{{": 4576,
      "Question": 4577,
      "sii": 4578,
      "Game": 4579,
      "OC": 4580,
      "}))": 4581,
      "Ġtotal": 4582,
      "Ġzap": 4583,
      "Minute": 4584,
      "abilities": 4585,
      "Category": 4586,
      "TemplateScratch": 4587,
      "Pr": 4588,
      "Src": 4589,
      "Ġtry": 4590,
      "ones": 4591,
      "gogo": 4592,
      "Images": 4593,
      "iam": 4594,
      "ĠRes": 4595,
      "Ġacc": 4596,
      "logging": 4597,
      "Endpoints": 4598,
      "Ġstep": 4599,
      "sole": 4600,
      "vey": 4601,
      "role": 4602,
      "FileName": 4603,
      "Ġfs": 4604,
      "ValueOf": 4605,
      "Ġrole": 4606,
      "Sized": 4607,
      "acc": 4608,
      "Ġtri": 4609,
      "Ġform": 4610,
      "ideo": 4611,
      "Cred": 4612,
      "lx": 4613,
      "rows": 4614,
      "ĠInc": 4615,
      "\\\",": 4616,
      "ĠRegister": 4617,
      "StringTo": 4618,
      "{}{}": 4619,
      "ferences": 4620,
      "EXPECT": 4621,
      "ĠSign": 4622,
      "Logf": 4623,
      "remote": 4624,
      "Ġcontroller": 4625,
      "rawDescGZIP": 4626,
      "Ġcorrect": 4627,
      "Archive": 4628,
      "tcp": 4629,
      "Ġcommit": 4630,
      "Ġil": 4631,
      "ets": 4632,
      "akes": 4633,
      "hello": 4634,
      "Ġoptional": 4635,
      "pose": 4636,
      "spf": 4637,
      "Ġpointer": 4638,
      "gop": 4639,
      "arning": 4640,
      "Ġequal": 4641,
      "ares": 4642,
      "atible": 4643,
      "ays": 4644,
      "gomega": 4645,
      "backend": 4646,
      "ApplyT": 4647,
      "Atoi": 4648,
      "Opt": 4649,
      "SER": 4650,
      "rot": 4651,
      "ĠCol": 4652,
      "Ġexpect": 4653,
      "yyLOCAL": 4654,
      "wallet": 4655,
      "Ġsum": 4656,
      "Ġmo": 4657,
      "Entries": 4658,
      "ntax": 4659,
      "Ġhttptest": 4660,
      "ifications": 4661,
      "Initial": 4662,
      "Ġmarshal": 4663,
      "ulk": 4664,
      "ĠOpen": 4665,
      "ifecycle": 4666,
      "AX": 4667,
      "ni": 4668,
      "allback": 4669,
      "encies": 4670,
      "car": 4671,
      "etter": 4672,
      "logs": 4673,
      "ĠClose": 4674,
      "Sample": 4675,
      "PtrInput": 4676,
      "Termin": 4677,
      "Proof": 4678,
      "Ġensure": 4679,
      "alk": 4680,
      "ummer": 4681,
      "iment": 4682,
      "crypted": 4683,
      "ME": 4684,
      "Ġbl": 4685,
      "ĠServer": 4686,
      "ĠEqual": 4687,
      "mocks": 4688,
      "ĠHas": 4689,
      "ways": 4690,
      "SizedBuffer": 4691,
      "cryption": 4692,
      "Ġabout": 4693,
      "You": 4694,
      "Ġda": 4695,
      "Ġcontrol": 4696,
      "WithError": 4697,
      "0200": 4698,
      "AccountMessages": 4699,
      "ĠTrans": 4700,
      "eval": 4701,
      "fi": 4702,
      "Ġlink": 4703,
      "Ġ39": 4704,
      "Ġchange": 4705,
      "mbers": 4706,
      "parts": 4707,
      "ERROR": 4708,
      "allow": 4709,
      "Ġwrap": 4710,
      "sk": 4711,
      "errs": 4712,
      "control": 4713,
      "aj": 4714,
      "ĠResponse": 4715,
      "step": 4716,
      "KV": 4717,
      "ĠField": 4718,
      "pipe": 4719,
      "PrivateKey": 4720,
      "Hub": 4721,
      "Transfer": 4722,
      "Partition": 4723,
      "option": 4724,
      "Ġbetween": 4725,
      "ĠĠĠĠĠĠĠĠĠĠĠĠĠĠĠĠĠĠĠĠĠĠĠĠĠĠĠĠ": 4726,
      "Ġunique": 4727,
      "uted": 4728,
      "Ġtermin": 4729,
      "afka": 4730,
      "Av": 4731,
      "Ġcons": 4732,
      "Arguments": 4733,
      "Spe": 4734,
      "TO": 4735,
      "().(*": 4736,
      "Ġreceived": 4737,
      "regexp": 4738,
      "Priv": 4739,
      "void": 4740,
      "mask": 4741,
      "ProtoReflect": 4742,
      "Simple": 4743,
      "gu": 4744,
      "HTML": 4745,
      "Matcher": 4746,
      "module": 4747,
      "Ġpublic": 4748,
      "gorm": 4749,
      "Ġfetch": 4750,
      "Ġrand": 4751,
      "Ġjust": 4752,
      "azon": 4753,
      "gorith": 4754,
      "rieve": 4755,
      "tit": 4756,
      "Ġ70": 4757,
      "chat": 4758,
      "Ġcollection": 4759,
      "ĠencodeVarintGenerated": 4760,
      ",_": 4761,
      "ĠĠĠĠĠĠĠĠĠĠĠĠĠĠĠĠĠĠĠĠĠĠĠĠ": 4762,
      "Ġwhile": 4763,
      "lin": 4764,
      "lan": 4765,
      "Ġunmarshal": 4766,
      "voy": 4767,
      "\"})": 4768,
      "unicode": 4769,
      "Ġ202": 4770,
      "istio": 4771,
      "NO": 4772,
      "SI": 4773,
      "Ġ**": 4774,
      "Associ": 4775,
      "ĠCluster": 4776,
      "Ġillegal": 4777,
      "draw": 4778,
      "vers": 4779,
      "player": 4780,
      "Ġconstruct": 4781,
      "ĠVer": 4782,
      "LoadBalancer": 4783,
      "smithy": 4784,
      "Make": 4785,
      "Menu": 4786,
      "Pattern": 4787,
      "Times": 4788,
      "TCP": 4789,
      "Intn": 4790,
      "AclPtrOutput": 4791,
      "Ignore": 4792,
      "tree": 4793,
      "Ġremote": 4794,
      "Leader": 4795,
      "Bag": 4796,
      "Ġconstant": 4797,
      "ĠMet": 4798,
      "UTC": 4799,
      "transport": 4800,
      ".`,": 4801,
      "`.": 4802,
      "imr": 4803,
      "294967296": 4804,
      "topic": 4805,
      "bac": 4806,
      "mail": 4807,
      "pm": 4808,
      "strap": 4809,
      "Ġmy": 4810,
      "Ġdirect": 4811,
      "tended": 4812,
      "Abs": 4813,
      "ower": 4814,
      "ĠMan": 4815,
      "Big": 4816,
      "Ġ80": 4817,
      "swer": 4818,
      "Ġfollowing": 4819,
      "Pack": 4820,
      "bidden": 4821,
      "pg": 4822,
      "ĠStatus": 4823,
      "OrUpdate": 4824,
      "Ġ60": 4825,
      "327": 4826,
      "Copyright": 4827,
      "wireType": 4828,
      "aker": 4829,
      "Signal": 4830,
      "Credential": 4831,
      "pair": 4832,
      "Ġdefines": 4833,
      "adding": 4834,
      "Ġcomponent": 4835,
      "rec": 4836,
      "Strings": 4837,
      "Rune": 4838,
      "Undefined": 4839,
      "StringOf": 4840,
      "shift": 4841,
      "]))": 4842,
      "Ġwi": 4843,
      "ĠFind": 4844,
      "Word": 4845,
      "Ġ*[]": 4846,
      "Ġdetails": 4847,
      "Deli": 4848,
      "ĠMock": 4849,
      "Selection": 4850,
      "ĠBase": 4851,
      "Once": 4852,
      "Priority": 4853,
      "Ġusers": 4854,
      "Ġbased": 4855,
      "Tenant": 4856,
      "Ġrandom": 4857,
      "ĠBuild": 4858,
      "Subscriber": 4859,
      "implemented": 4860,
      "rg": 4861,
      "enter": 4862,
      "users": 4863,
      "side": 4864,
      "Ġsearch": 4865,
      "ByID": 4866,
      "SEL": 4867,
      "Off": 4868,
      "565": 4869,
      "mut": 4870,
      "Decl": 4871,
      "fully": 4872,
      "(-": 4873,
      "VP": 4874,
      "Ġdisk": 4875,
      "\"],": 4876,
      "Ġsupported": 4877,
      "Ġheight": 4878,
      "Confirm": 4879,
      "Protection": 4880,
      "Escape": 4881,
      "mode": 4882,
      "Ġdon": 4883,
      "Ġ42": 4884,
      "azure": 4885,
      "When": 4886,
      "rary": 4887,
      "Eth": 4888,
      "Ġrules": 4889,
      "Configs": 4890,
      "Printer": 4891,
      "Ġdifferent": 4892,
      "Unauthorized": 4893,
      "prop": 4894,
      "Ġ\"[": 4895,
      "ider": 4896,
      "Ġclass": 4897,
      "Ġpkg": 4898,
      "Ġ115": 4899,
      "Platform": 4900,
      "uting": 4901,
      "Destination": 4902,
      "cluded": 4903,
      "graphql": 4904,
      "allel": 4905,
      "161": 4906,
      "Util": 4907,
      "gl": 4908,
      "Ġignore": 4909,
      "lug": 4910,
      "600": 4911,
      "Fixed": 4912,
      "Ġlock": 4913,
      "Ġ99": 4914,
      "arge": 4915,
      "install": 4916,
      "TER": 4917,
      "Ġsort": 4918,
      "Ġreport": 4919,
      "Unless": 4920,
      "Ġ31": 4921,
      "could": 4922,
      "Ġchunk": 4923,
      "Ġcolumn": 4924,
      "Ġlike": 4925,
      "ULL": 4926,
      "ear": 4927,
      "Started": 4928,
      "rix": 4929,
      "Ġextension": 4930,
      "ServiceName": 4931,
      "bufio": 4932,
      "ied": 4933,
      "tools": 4934,
      "Direct": 4935,
      "Git": 4936,
      "ipv": 4937,
      "Sprint": 4938,
      "Registration": 4939,
      "Hostname": 4940,
      "soft": 4941,
      "sb": 4942,
      "Rest": 4943,
      "lid": 4944,
      "trib": 4945,
      "IPv": 4946,
      "voice": 4947,
      "ĠDeepCopyInto": 4948,
      "rel": 4949,
      "fieldNum": 4950,
      "profile": 4951,
      "ETE": 4952,
      "Scale": 4953,
      "reason": 4954,
      "Ġservices": 4955,
      "ĠEX": 4956,
      "Download": 4957,
      "CT": 4958,
      "NewInt": 4959,
      "Ġitems": 4960,
      "endor": 4961,
      "FF": 4962,
      "Ġtree": 4963,
      "otstrap": 4964,
      "ĠĠĠĠĠĠĠĠĠĠĠĠĠĠĠĠĠĠĠĠĠĠ": 4965,
      "Ġuuid": 4966,
      "ByName": 4967,
      "bose": 4968,
      "Disable": 4969,
      "RW": 4970,
      "chron": 4971,
      "Ġdone": 4972,
      "MustCompile": 4973,
      "Ġmanifest": 4974,
      "Ġrequire": 4975,
      "eek": 4976,
      "UnknownFields": 4977,
      "Ġsuite": 4978,
      "Recovery": 4979,
      "asure": 4980,
      "MethodType": 4981,
      "Txn": 4982,
      "Delay": 4983,
      "Phase": 4984,
      "BU": 4985,
      "Vault": 4986,
      "dec": 4987,
      "Keyword": 4988,
      "cpu": 4989,
      "existing": 4990,
      "Clear": 4991,
      "RD": 4992,
      "Ġns": 4993,
      "imes": 4994,
      "Ġproperties": 4995,
      "you": 4996,
      "Rect": 4997,
      "Dimens": 4998,
      "LI": 4999,
      "Ġfl": 5000,
      "SizeCache": 5001,
      "ReplaceAll": 5002,
      "Closer": 5003,
      "naire": 5004,
      "\".": 5005,
      "ĠLoad": 5006,
      "Ġco": 5007,
      "ison": 5008,
      "amily": 5009,
      "Ġdat": 5010,
      "Ġ26": 5011,
      "'\",": 5012,
      "god": 5013,
      "intStringLen": 5014,
      "ĠstringLen": 5015,
      "trace": 5016,
      "1474": 5017,
      "Ġmeans": 5018,
      "Ġargument": 5019,
      "VolumeSource": 5020,
      "eting": 5021,
      "asset": 5022,
      "logy": 5023,
      "oken": 5024,
      "Ġproxy": 5025,
      "Ġassign": 5026,
      "Ġentity": 5027,
      "Ġcommands": 5028,
      "svg": 5029,
      "Ġvia": 5030,
      "vance": 5031,
      "ĠRemove": 5032,
      "Room": 5033,
      "amples": 5034,
      "NAME": 5035,
      "ude": 5036,
      "Concrete": 5037,
      "USDTERC": 5038,
      "LS": 5039,
      "Ġpass": 5040,
      "lying": 5041,
      "ReadFile": 5042,
      "Board": 5043,
      "brary": 5044,
      "Lines": 5045,
      "Main": 5046,
      "ium": 5047,
      "incip": 5048,
      "ĠMax": 5049,
      "Ġobjects": 5050,
      "BTC": 5051,
      "Ġgithub": 5052,
      "artifact": 5053,
      "Ġmetric": 5054,
      "Ack": 5055,
      "only": 5056,
      "adline": 5057,
      "resol": 5058,
      "Ġredis": 5059,
      "Ġ40": 5060,
      "ifiers": 5061,
      "eventV": 5062,
      "Vars": 5063,
      "ynchron": 5064,
      "ITY": 5065,
      "Ġes": 5066,
      "Ġ28": 5067,
      "8364": 5068,
      "Ġinstall": 5069,
      "Team": 5070,
      "Generic": 5071,
      "gorithm": 5072,
      "CID": 5073,
      "0010": 5074,
      "NotTo": 5075,
      "MockClient": 5076,
      "RoleBinding": 5077,
      "Subscribe": 5078,
      "ĠSoftware": 5079,
      "Missing": 5080,
      "hav": 5081,
      "Ġmon": 5082,
      "Ġresol": 5083,
      "Ġuntil": 5084,
      "MethodName": 5085,
      "Ġimplementation": 5086,
      "Ġ117": 5087,
      "commit": 5088,
      "ĠresourceGroupName": 5089,
      "____": 5090,
      "ĠFROM": 5091,
      "END": 5092,
      "Ġmultiple": 5093,
      "UP": 5094,
      "pop": 5095,
      "Ġ%#": 5096,
      "late": 5097,
      "Ġ\"{": 5098,
      "Tasks": 5099,
      "ĠGenerate": 5100,
      "AND": 5101,
      "slice": 5102,
      "retype": 5103,
      "Ġmissing": 5104,
      "Sets": 5105,
      "Ready": 5106,
      "FilterNot": 5107,
      "preIndex": 5108,
      "ĠpreIndex": 5109,
      "Ġwiretype": 5110,
      "Theproto": 5111,
      "None": 5112,
      "Ġfull": 5113,
      "Ġrespon": 5114,
      "ĠPri": 5115,
      "Seed": 5116,
      "&&(": 5117,
      "distributed": 5118,
      "Ġdate": 5119,
      "ĠTask": 5120,
      "ĠĠĠĠĠĠĠĠĠĠĠĠĠĠĠĠĠĠĠĠĠĠĠĠĠĠĠ": 5121,
      "track": 5122,
      "aking": 5123,
      "Ġenvironment": 5124,
      "Called": 5125,
      "Nano": 5126,
      "Ġtmp": 5127,
      "HasPrefix": 5128,
      "help": 5129,
      "StaticSitesClient": 5130,
      "lb": 5131,
      "}).": 5132,
      "Inf": 5133,
      "Proposal": 5134,
      "MessageOf": 5135,
      "MessageStringOf": 5136,
      "ServiceClient": 5137,
      "LoadMessageInfo": 5138,
      "ĠProtoReflect": 5139,
      "Ġelements": 5140,
      "latest": 5141,
      "utf": 5142,
      "Pop": 5143,
      "Round": 5144,
      "replace": 5145,
      "Stub": 5146,
      "ypto": 5147,
      "volume": 5148,
      "engine": 5149,
      "Ġ-=": 5150,
      "Ġtimestamp": 5151,
      "Oneof": 5152,
      "Ġconnect": 5153,
      "Azure": 5154,
      "Layout": 5155,
      "contract": 5156,
      "Ġview": 5157,
      "headers": 5158,
      "NB": 5159,
      "fixed": 5160,
      "Ġthem": 5161,
      "Ġ101": 5162,
      "ĠExample": 5163,
      "Rank": 5164,
      "umb": 5165,
      "Ġ253": 5166,
      "2020": 5167,
      "Indexes": 5168,
      "Lease": 5169,
      "Ġdepend": 5170,
      "Ġcalls": 5171,
      "Dist": 5172,
      "Mail": 5173,
      "StatusBadRequest": 5174,
      "ordin": 5175,
      "worker": 5176,
      "Ġ^": 5177,
      "14748364": 5178,
      "unch": 5179,
      "Versions": 5180,
      "Reflection": 5181,
      "Ġsince": 5182,
      "cell": 5183,
      "Ġmut": 5184,
      "Ġdoesn": 5185,
      "101": 5186,
      "bes": 5187,
      "ole": 5188,
      "ContentType": 5189,
      "ServeHTTP": 5190,
      "Responder": 5191,
      "Lit": 5192,
      "Layer": 5193,
      "prom": 5194,
      "rf": 5195,
      "repository": 5196,
      "CRE": 5197,
      "Nb": 5198,
      "ĠGroup": 5199,
      "remove": 5200,
      "Ġ\":": 5201,
      "Deleted": 5202,
      "Ġhandles": 5203,
      "Ġstrfmt": 5204,
      "Weight": 5205,
      "Book": 5206,
      "]+": 5207,
      "hip": 5208,
      "platform": 5209,
      "usters": 5210,
      "Ġchecks": 5211,
      "Ġmember": 5212,
      "Rol": 5213,
      "lies": 5214,
      "Ġap": 5215,
      "Ġvi": 5216,
      "UserID": 5217,
      "display": 5218,
      "ReturnValue": 5219,
      "Points": 5220,
      "titles": 5221,
      "infra": 5222,
      "Running": 5223,
      "Ġsmithy": 5224,
      "Could": 5225,
      "RUnlock": 5226,
      "eap": 5227,
      "game": 5228,
      "iation": 5229,
      "Ġhold": 5230,
      "naly": 5231,
      "batch": 5232,
      "ically": 5233,
      "ORT": 5234,
      "Wrapf": 5235,
      "Compare": 5236,
      "Character": 5237,
      "LL": 5238,
      "Ġrepository": 5239,
      "ToLower": 5240,
      "Ġwithin": 5241,
      "manifest": 5242,
      "HealthCheck": 5243,
      "Ġtwo": 5244,
      "monitor": 5245,
      "'},": 5246,
      "Lex": 5247,
      "sq": 5248,
      "Ġ27": 5249,
      "Deleg": 5250,
      "ĠLICENSE": 5251,
      "Dec": 5252,
      "coming": 5253,
      "Bits": 5254,
      "SIG": 5255,
      "mac": 5256,
      "tw": 5257,
      "}`,": 5258,
      "Ġpredicate": 5259,
      "ountry": 5260,
      "race": 5261,
      "Mk": 5262,
      "dp": 5263,
      "Objects": 5264,
      "Refresh": 5265,
      "Drummer": 5266,
      "used": 5267,
      "ĊĊĉĉĉĉ": 5268,
      "aging": 5269,
      "fact": 5270,
      "Ġ37": 5271,
      "ĠPre": 5272,
      "Licensed": 5273,
      "512": 5274,
      "bus": 5275,
      "day": 5276,
      "document": 5277,
      "\":{\"": 5278,
      "Ġvariable": 5279,
      "Artifact": 5280,
      "counter": 5281,
      "itten": 5282,
      "force": 5283,
      "Ġprotoiface": 5284,
      "Pret": 5285,
      "range": 5286,
      "OutputWithContext": 5287,
      "ĠWork": 5288,
      "crement": 5289,
      "RegionId": 5290,
      "/\"": 5291,
      "UI": 5292,
      "cus": 5293,
      "Issue": 5294,
      "Ġlocation": 5295,
      "ĠAND": 5296,
      "Organization": 5297,
      "rea": 5298,
      "dest": 5299,
      "export": 5300,
      "Until": 5301,
      "NotExist": 5302,
      "ĠFrom": 5303,
      "Friend": 5304,
      "button": 5305,
      "hover": 5306,
      "ĠĠĠĠĠĠĠĠĠĠĠĠĠĠĠĠĠĠĠĠĠĠĠĠĠ": 5307,
      "Ġdecode": 5308,
      "IsConcrete": 5309,
      "Ports": 5310,
      "andbox": 5311,
      "Ġperform": 5312,
      "Ġstored": 5313,
      "Catalog": 5314,
      "Ġpipe": 5315,
      "keysFor": 5316,
      "Inventory": 5317,
      "Ġdef": 5318,
      "Ġunsafe": 5319,
      "Ġselect": 5320,
      "Ġasset": 5321,
      "ding": 5322,
      "road": 5323,
      "subtitles": 5324,
      "Dns": 5325,
      "mar": 5326,
      "ĠSt": 5327,
      "ely": 5328,
      "Ġdigest": 5329,
      "arden": 5330,
      "prev": 5331,
      "Ġprivate": 5332,
      "Ġcertificate": 5333,
      "duration": 5334,
      "pf": 5335,
      "ĠHandle": 5336,
      "Ġ184": 5337,
      "Ġwidth": 5338,
      "upload": 5339,
      "autorest": 5340,
      "uplicate": 5341,
      "AF": 5342,
      "Ġmark": 5343,
      "Ġprevious": 5344,
      "Received": 5345,
      "Sk": 5346,
      "Containers": 5347,
      "antity": 5348,
      "Ġtransport": 5349,
      "WITHOUT": 5350,
      "Secrets": 5351,
      "Ġimplemented": 5352,
      "icrosoft": 5353,
      "Hour": 5354,
      "ited": 5355,
      "Ġsim": 5356,
      "edge": 5357,
      "Serialization": 5358,
      "rase": 5359,
      "alib": 5360,
      "Infos": 5361,
      "Ġkv": 5362,
      "ART": 5363,
      "Ġregistry": 5364,
      "limitations": 5365,
      "Ġproperty": 5366,
      "havi": 5367,
      "922337203685477580": 5368,
      "Epoch": 5369,
      "messages": 5370,
      "sa": 5371,
      "Restore": 5372,
      "acy": 5373,
      "istrib": 5374,
      "DER": 5375,
      "Constraint": 5376,
      "QueryParams": 5377,
      "Symbol": 5378,
      "pay": 5379,
      "ĠOutput": 5380,
      "ement": 5381,
      "Chat": 5382,
      "Codec": 5383,
      "Marshaler": 5384,
      "Ġneeds": 5385,
      "Annotations": 5386,
      "flex": 5387,
      "Ġpanic": 5388,
      "Ġpresent": 5389,
      "ulated": 5390,
      "health": 5391,
      "memory": 5392,
      "Devices": 5393,
      "LB": 5394,
      "osh": 5395,
      "Ġ36": 5396,
      "Management": 5397,
      "Filters": 5398,
      "gres": 5399,
      "sen": 5400,
      "zero": 5401,
      "()}": 5402,
      "Ġmerge": 5403,
      "olute": 5404,
      "FilePath": 5405,
      "Mat": 5406,
      "verify": 5407,
      "ouse": 5408,
      "oolean": 5409,
      "Ġbufio": 5410,
      "Home": 5411,
      "owner": 5412,
      "MarshalToSizedBuffer": 5413,
      "tection": 5414,
      "Ġthrough": 5415,
      "HandleFunc": 5416,
      "Ġrest": 5417,
      "testdata": 5418,
      "Ġ}}": 5419,
      "boBox": 5420,
      "Watcher": 5421,
      "Alias": 5422,
      "ĠNumber": 5423,
      "Ġadded": 5424,
      "TTL": 5425,
      "bundle": 5426,
      "none": 5427,
      "Ġpe": 5428,
      "ĠValid": 5429,
      "Ġ97": 5430,
      "Bindings": 5431,
      "operation": 5432,
      "ABLE": 5433,
      "datat": 5434,
      "RLock": 5435,
      "Two": 5436,
      "bits": 5437,
      "ĠĠĠĠĠĠĠĠĠĠĠĠĠĠĠĠĠĠĠĠĠĠĠĠĠĠĠĠĠ": 5438,
      "Ġkube": 5439,
      "Mi": 5440,
      "ous": 5441,
      "ĠInputs": 5442,
      "Ġdocker": 5443,
      "Loop": 5444,
      "Ġ45": 5445,
      "Ġworker": 5446,
      "Ġplan": 5447,
      "conciler": 5448,
      ".%": 5449,
      "Sl": 5450,
      "append": 5451,
      "Light": 5452,
      "Ġtemp": 5453,
      "Ġtyp": 5454,
      "ĠĠĠĠĠĠĠĠĠĠĠĠĠĠĠĠĠĠĠĠĠĠĠĠĠĠ": 5455,
      "subject": 5456,
      "ensus": 5457,
      "Sig": 5458,
      "mgr": 5459,
      "Ġ68": 5460,
      "Ġhex": 5461,
      "ToNot": 5462,
      "Ġstats": 5463,
      "Complete": 5464,
      "Supply": 5465,
      "ĠToken": 5466,
      "Ġfinal": 5467,
      "Ġvc": 5468,
      "Answer": 5469,
      "sym": 5470,
      "Help": 5471,
      "._": 5472,
      "Bus": 5473,
      "Panic": 5474,
      "Review": 5475,
      "));": 5476,
      "Forbidden": 5477,
      "product": 5478,
      "ensor": 5479,
      ")+": 5480,
      "Ġ72": 5481,
      "acters": 5482,
      "aluation": 5483,
      "fhir": 5484,
      "inner": 5485,
      "Ġren": 5486,
      "GetString": 5487,
      "Providers": 5488,
      "Sequence": 5489,
      "ĠAddress": 5490,
      "-%": 5491,
      "dist": 5492,
      "mc": 5493,
      "rad": 5494,
      "amb": 5495,
      "Ġglobal": 5496,
      "ĠSec": 5497,
      "MsgClient": 5498,
      "Ġupdates": 5499,
      "Ġleft": 5500,
      "Hi": 5501,
      "Ġput": 5502,
      "Indent": 5503,
      "OM": 5504,
      "ony": 5505,
      "////////////////////////////////": 5506,
      "Questionnaire": 5507,
      "Score": 5508,
      "jo": 5509,
      "ores": 5510,
      "Ġpair": 5511,
      "Servers": 5512,
      "Alloc": 5513,
      "cat": 5514,
      "Ġ73": 5515,
      "alloc": 5516,
      "StringFor": 5517,
      "Ġhealth": 5518,
      "ridge": 5519,
      "Draw": 5520,
      "ĠPo": 5521,
      "VF": 5522,
      "external": 5523,
      "Forward": 5524,
      "condition": 5525,
      "Ġlogs": 5526,
      "Ġoriginal": 5527,
      "*=": 5528,
      "Ġpatch": 5529,
      "ificates": 5530,
      "Ġallowed": 5531,
      "SELECT": 5532,
      "Aff": 5533,
      "Ġrelease": 5534,
      "TypeMeta": 5535,
      "eeded": 5536,
      "Currency": 5537,
      "Ġmodule": 5538,
      "aliy": 5539,
      "stub": 5540,
      "eds": 5541,
      "Ġenum": 5542,
      "tenant": 5543,
      "disk": 5544,
      "bedded": 5545,
      "CD": 5546,
      "Socket": 5547,
      "riev": 5548,
      "private": 5549,
      "blob": 5550,
      "Ġdid": 5551,
      "abric": 5552,
      "ĠĠĠĠĠĠĠĠĠĠĠĠĠĠĠĠĠĠĠĠĠĠĠĠĠĠĠĠĠĠ": 5553,
      "Setting": 5554,
      "ĠParam": 5555,
      "{{.": 5556,
      "transaction": 5557,
      "Support": 5558,
      "Ġ`.`,": 5559,
      "Ġ2020": 5560,
      "Poll": 5561,
      "{&": 5562,
      "Ġ69": 5563,
      "WaitGroup": 5564,
      "rune": 5565,
      "\"}},": 5566,
      "Ġ2019": 5567,
      "ko": 5568,
      "ĠEnum": 5569,
      "pletion": 5570,
      "ĠAWS": 5571,
      "Argument": 5572,
      "Percent": 5573,
      "HERE": 5574,
      ".\\": 5575,
      "Fore": 5576,
      "tm": 5577,
      "Ġ182": 5578,
      "suer": 5579,
      "Compute": 5580,
      "ĠGoString": 5581,
      "Ping": 5582,
      "_.": 5583,
      "ĠZ": 5584,
      "Ġsent": 5585,
      "Ġpop": 5586,
      "ĠEle": 5587,
      "acked": 5588,
      "Policies": 5589,
      "ĠFlag": 5590,
      "Routing": 5591,
      "long": 5592,
      "win": 5593,
      "Ġdebug": 5594,
      "Hosts": 5595,
      "Vertex": 5596,
      "Protected": 5597,
      "BeforeEach": 5598,
      "World": 5599,
      "cep": 5600,
      "ĠRE": 5601,
      "Pods": 5602,
      "Fprintln": 5603,
      "Cookie": 5604,
      "Pur": 5605,
      "acl": 5606,
      "Unimplemented": 5607,
      "ĠFloat": 5608,
      "Ġalways": 5609,
      "Primary": 5610,
      "ICE": 5611,
      "AML": 5612,
      "PT": 5613,
      "mysql": 5614,
      "Ġsyscall": 5615,
      "aff": 5616,
      "ctl": 5617,
      "Ġspace": 5618,
      "Unable": 5619,
      "settings": 5620,
      "Executor": 5621,
      "\\\":\\\"": 5622,
      "TrimSpace": 5623,
      "535": 5624,
      "Workload": 5625,
      "tend": 5626,
      "Succe": 5627,
      "Capabilities": 5628,
      "pv": 5629,
      "IsI": 5630,
      "Ġupload": 5631,
      "Ġmethods": 5632,
      "Parallel": 5633,
      "find": 5634,
      "Conditions": 5635,
      "chunk": 5636,
      "ĠPackage": 5637,
      "Links": 5638,
      "BS": 5639,
      "cancel": 5640,
      "rate": 5641,
      "]),": 5642,
      "je": 5643,
      "Ġsl": 5644,
      "rive": 5645,
      "ĠReturns": 5646,
      "asy": 5647,
      "Ġduring": 5648,
      "tention": 5649,
      "posite": 5650,
      "Ġoperator": 5651,
      "Ġgoverned": 5652,
      "Complex": 5653,
      "Single": 5654,
      "Redirect": 5655,
      "igit": 5656,
      "idget": 5657,
      "Ġdst": 5658,
      "Ġsettings": 5659,
      "Authentic": 5660,
      "Place": 5661,
      "StartTime": 5662,
      "team": 5663,
      "NewClient": 5664,
      "show": 5665,
      "ĠMsg": 5666,
      "Collector": 5667,
      "Ġmatches": 5668,
      "Closed": 5669,
      "Convey": 5670,
      "Getter": 5671,
      "Ġgit": 5672,
      "qui": 5673,
      "DEL": 5674,
      "sd": 5675,
      "Ġbegin": 5676,
      "groups": 5677,
      "Initi": 5678,
      "\"}}": 5679,
      "Mac": 5680,
      "Bearer": 5681,
      "Tmp": 5682,
      "Video": 5683,
      "WR": 5684,
      "nb": 5685,
      "ĠAd": 5686,
      "going": 5687,
      "Ġlogging": 5688,
      "Expir": 5689,
      "Eq": 5690,
      "SV": 5691,
      "Sent": 5692,
      "enabled": 5693,
      "Ġamount": 5694,
      "login": 5695,
      "Probe": 5696,
      "Ġdeleted": 5697,
      "Master": 5698,
      "del": 5699,
      "Ġentries": 5700,
      "scope": 5701,
      "Ġusername": 5702,
      "Cast": 5703,
      "NOT": 5704,
      "native": 5705,
      "rror": 5706,
      "192": 5707,
      "Ġcompil": 5708,
      "Recv": 5709,
      "Flush": 5710,
      "(?": 5711,
      "Side": 5712,
      "else": 5713,
      "Ġrecover": 5714,
      "focus": 5715,
      "Operations": 5716,
      "Ġfailure": 5717,
      "execution": 5718,
      "Ġ,": 5719,
      "viper": 5720,
      "Sys": 5721,
      "secure": 5722,
      "ĠCommand": 5723,
      "master": 5724,
      "Ġ74": 5725,
      "ĠStorage": 5726,
      "lict": 5727,
      "imer": 5728,
      "comment": 5729,
      "ALL": 5730,
      "DateTime": 5731,
      "622": 5732,
      "Analy": 5733,
      "Drift": 5734,
      "arison": 5735,
      "Ġ\"_": 5736,
      "Ġreader": 5737,
      "709": 5738,
      "ocation": 5739,
      "full": 5740,
      "tify": 5741,
      "actor": 5742,
      "Ġloop": 5743,
      "ItemsClient": 5744,
      "Dataset": 5745,
      "Ms": 5746,
      "Ġcw": 5747,
      "Ġbit": 5748,
      "ErrorCode": 5749,
      "Extra": 5750,
      "ĠCall": 5751,
      "iteria": 5752,
      "Ġ2018": 5753,
      "Ġpublish": 5754,
      "sigs": 5755,
      "Area": 5756,
      "wall": 5757,
      "recordPosition": 5758,
      "ĠNote": 5759,
      "Prettify": 5760,
      "Roll": 5761,
      "Sql": 5762,
      "Ġ1000": 5763,
      "Ġreason": 5764,
      "paque": 5765,
      "Notify": 5766,
      "former": 5767,
      "Blocks": 5768,
      "MSG": 5769,
      "Genesis": 5770,
      "pings": 5771,
      "cho": 5772,
      "Play": 5773,
      "Adapter": 5774,
      "ynamicTemplate": 5775,
      "Dimension": 5776,
      "la": 5777,
      "txn": 5778,
      "Ġunderlying": 5779,
      "Ġboolean": 5780,
      "Ġdoc": 5781,
      "Ġ29": 5782,
      "cause": 5783,
      "Plugins": 5784,
      "Cipher": 5785,
      "Folder": 5786,
      "GE": 5787,
      "udd": 5788,
      "Ġprofile": 5789,
      "aved": 5790,
      "Ġimm": 5791,
      "Ġemail": 5792,
      "Features": 5793,
      "+\".": 5794,
      "Ġcorev": 5795,
      "Exception": 5796,
      "Ġrender": 5797,
      "Bot": 5798,
      "acon": 5799,
      "machine": 5800,
      "Ġthese": 5801,
      "Ġ111": 5802,
      "ĠPub": 5803,
      "AclOutput": 5804,
      "Ġauthor": 5805,
      "ĠVerify": 5806,
      "\")},": 5807,
      "Ġduration": 5808,
      "Ġcomment": 5809,
      "Ġfails": 5810,
      "Ġbackend": 5811,
      "Association": 5812,
      "Pkg": 5813,
      "lite": 5814,
      "ashboard": 5815,
      "workflow": 5816,
      "Deletion": 5817,
      "\"].(": 5818,
      "must": 5819,
      "Ġfilename": 5820,
      "Ġkind": 5821,
      "Ġkeep": 5822,
      "bove": 5823,
      "Prepend": 5824,
      "Other": 5825,
      "tile": 5826,
      "terraform": 5827,
      "apps": 5828,
      "security": 5829,
      "grid": 5830,
      "margin": 5831,
      "report": 5832,
      "arb": 5833,
      "Ġapply": 5834,
      "Ġtw": 5835,
      "periment": 5836,
      "Ġdev": 5837,
      "UnknownAttributes": 5838,
      "Ġsubnet": 5839,
      "Ġallows": 5840,
      "Egress": 5841,
      "QS": 5842,
      "ĠId": 5843,
      "Ġhow": 5844,
      "Double": 5845,
      "helper": 5846,
      "152": 5847,
      "Vo": 5848,
      "Ġenabled": 5849,
      "INT": 5850,
      "ĠlocalVarReturnValue": 5851,
      "Ġrepresentation": 5852,
      "STR": 5853,
      "SHA": 5854,
      "Keeper": 5855,
      "Ġpr": 5856,
      "Ġ176": 5857,
      "Ġevery": 5858,
      "ners": 5859,
      "Ġ239": 5860,
      "ips": 5861,
      "ODE": 5862,
      "Processor": 5863,
      "IsIMM": 5864,
      "\"])": 5865,
      "FT": 5866,
      "Hint": 5867,
      "Ġbal": 5868,
      "heet": 5869,
      "Regexp": 5870,
      "ights": 5871,
      "Ġatomic": 5872,
      "RecordCall": 5873,
      "uddirectory": 5874,
      "Na": 5875,
      "Pan": 5876,
      "Ġalloc": 5877,
      "Person": 5878,
      "center": 5879,
      "reply": 5880,
      "ĠPod": 5881,
      "tokens": 5882,
      ":[": 5883,
      "Ġcould": 5884,
      "abs": 5885,
      "allen": 5886,
      "Ġtrace": 5887,
      "AY": 5888,
      "GP": 5889,
      "IO": 5890,
      "fetch": 5891,
      "pk": 5892,
      "Reconciler": 5893,
      "Ġinsert": 5894,
      "parameter": 5895,
      "Ġsignature": 5896,
      "ULT": 5897,
      "Completed": 5898,
      "AST": 5899,
      "Ġprodu": 5900,
      "Defaults": 5901,
      "Ġ([]*": 5902,
      "UnaryServerInterceptor": 5903,
      "Ġsubscription": 5904,
      "Ġframe": 5905,
      "TypeString": 5906,
      "WithMethodType": 5907,
      "acing": 5908,
      "Ġusage": 5909,
      "OutputsTcp": 5910,
      "RecordCallWithMethodType": 5911,
      "rink": 5912,
      "Ġabove": 5913,
      "Ġperson": 5914,
      "LD": 5915,
      "cannot": 5916,
      "ti": 5917,
      "uintptr": 5918,
      "scan": 5919,
      "GT": 5920,
      "ose": 5921,
      "uch": 5922,
      "Ġ67": 5923,
      "OneOf": 5924,
      "py": 5925,
      "itive": 5926,
      "Revision": 5927,
      "uple": 5928,
      "ĠOr": 5929,
      "Trigger": 5930,
      "Capacity": 5931,
      "Leafs": 5932,
      ")*": 5933,
      "CI": 5934,
      "jsii": 5935,
      "ulation": 5936,
      "serialize": 5937,
      "Commun": 5938,
      "Ġsection": 5939,
      "Ġgetting": 5940,
      "Ġ82": 5941,
      "correct": 5942,
      "ĠWhen": 5943,
      "`),": 5944,
      "anch": 5945,
      "sha": 5946,
      "ĠMin": 5947,
      "Shared": 5948,
      "Ġattach": 5949,
      "signal": 5950,
      "Ordered": 5951,
      "istics": 5952,
      "Ġipv": 5953,
      "RS": 5954,
      "mn": 5955,
      "Repe": 5956,
      "Ġinclud": 5957,
      "Producer": 5958,
      "Ns": 5959,
      "Ġcop": 5960,
      "Ġcosmos": 5961,
      "constant": 5962,
      "Signing": 5963,
      "erialize": 5964,
      "Ġswagger": 5965,
      "LY": 5966,
      "Lib": 5967,
      "reater": 5968,
      "Ġps": 5969,
      "Ġwhat": 5970,
      "This": 5971,
      "GO": 5972,
      "Ppp": 5973,
      "identity": 5974,
      "ĠĠĠĠĠĠĠĠĠĠĠĠĠĠĠĠĠĠĠĠĠĠĠĠĠĠĠĠĠĠĠ": 5975,
      "Ġtrack": 5976,
      "Force": 5977,
      "CreateRequest": 5978,
      "Tests": 5979,
      "Ġretry": 5980,
      "Ġbinding": 5981,
      "incipal": 5982,
      ".$": 5983,
      "Cost": 5984,
      "ah": 5985,
      "tk": 5986,
      "shard": 5987,
      "vals": 5988,
      "fficient": 5989,
      "Ġseconds": 5990,
      "CREATE": 5991,
      "Ġ})": 5992,
      "envoy": 5993,
      "Ġcalc": 5994,
      "Ġreplace": 5995,
      "istribution": 5996,
      "Language": 5997,
      "tee": 5998,
      "tele": 5999,
      "isSh": 6000,
      "Ġour": 6001,
      "Buy": 6002,
      "WithTimeout": 6003,
      "Used": 6004,
      "XR": 6005,
      "etc": 6006,
      "ĠRPC": 6007,
      "UnaryServerInfo": 6008,
      "PRO": 6009,
      "Ġpush": 6010,
      "QueryDenom": 6011,
      "roadcast": 6012,
      "merge": 6013,
      "Ġattribute": 6014,
      "dl": 6015,
      "Ġmat": 6016,
      "ides": 6017,
      "cursor": 6018,
      "currency": 6019,
      "nown": 6020,
      "Ġmight": 6021,
      "1111": 6022,
      "BytesSlice": 6023,
      "Ġfunctions": 6024,
      "subscriber": 6025,
      "AAAAAAAA": 6026,
      "Ca": 6027,
      "Term": 6028,
      "dbtest": 6029,
      "Pagination": 6030,
      "catalog": 6031,
      "free": 6032,
      "andex": 6033,
      "ClientID": 6034,
      "cessed": 6035,
      "Ġwriter": 6036,
      "resourceGroupName": 6037,
      "Ġoperations": 6038,
      "initial": 6039,
      "UE": 6040,
      "ĊĠĠ": 6041,
      "ster": 6042,
      "Destroy": 6043,
      "collection": 6044,
      "FullMethod": 6045,
      "Acr": 6046,
      "Ġ44": 6047,
      "astic": 6048,
      "Ġchanges": 6049,
      "Ġ\"/\"": 6050,
      "inputs": 6051,
      "CreatedAt": 6052,
      "ĠElement": 6053,
      "Scheduler": 6054,
      "gateway": 6055,
      "Ġfd": 6056,
      "Ġmigr": 6057,
      "edit": 6058,
      "protos": 6059,
      "ĠCloud": 6060,
      "usecase": 6061,
      "Pb": 6062,
      "Vector": 6063,
      "ua": 6064,
      "Ġsure": 6065,
      "Ġselector": 6066,
      "ava": 6067,
      "Managed": 6068,
      "cycle": 6069,
      "orout": 6070,
      "deploy": 6071,
      "Ġlong": 6072,
      "ĠCan": 6073,
      "clus": 6074,
      "Ġplease": 6075,
      "Ġbatch": 6076,
      "Ġ##": 6077,
      "Ġidentifier": 6078,
      "Rot": 6079,
      "holder": 6080,
      "Ġ127": 6081,
      "ather": 6082,
      "Ġstructure": 6083,
      "anning": 6084,
      "AdjRibIn": 6085,
      "Ġtopic": 6086,
      "Mkdir": 6087,
      "Self": 6088,
      "Ġfin": 6089,
      "img": 6090,
      "Ġconver": 6091,
      "Changed": 6092,
      "}\"": 6093,
      "selector": 6094,
      "AdjRibOut": 6095,
      "Replica": 6096,
      "quires": 6097,
      "[%": 6098,
      "idr": 6099,
      "coin": 6100,
      "Ġunexpected": 6101,
      "validator": 6102,
      "Commands": 6103,
      "where": 6104,
      "RFC": 6105,
      "depend": 6106,
      "Ġlx": 6107,
      "Ġexpression": 6108,
      "Edit": 6109,
      "Ġformats": 6110,
      "when": 6111,
      "XML": 6112,
      "hex": 6113,
      "inity": 6114,
      "roken": 6115,
      "Ġ\"#": 6116,
      "Deposit": 6117,
      "Lister": 6118,
      "ĠPost": 6119,
      "Ġmodify": 6120,
      "ysical": 6121,
      "Free": 6122,
      "Jo": 6123,
      "Tables": 6124,
      "ring": 6125,
      "Ġcisco": 6126,
      "Red": 6127,
      "Arn": 6128,
      "3339": 6129,
      "backup": 6130,
      "Ġauthentication": 6131,
      ")\\": 6132,
      "Yang": 6133,
      "Ġsupp": 6134,
      "olt": 6135,
      "upsen": 6136,
      "irupsen": 6137,
      "KEYS": 6138,
      "Lifecycle": 6139,
      "Volumes": 6140,
      "Warning": 6141,
      "site": 6142,
      "Ġ{\"": 6143,
      "Inc": 6144,
      "Ġph": 6145,
      "Ġ46": 6146,
      "printer": 6147,
      "Ctap": 6148,
      "za": 6149,
      "Ġ\"--": 6150,
      "ĠSpec": 6151,
      "ĠSource": 6152,
      "member": 6153,
      "Eap": 6154,
      "tmpl": 6155,
      "Ġwg": 6156,
      "Deadline": 6157,
      "Ġdel": 6158,
      "Regex": 6159,
      "ObjectType": 6160,
      "Ġrequested": 6161,
      "TypesOneOf": 6162,
      "EV": 6163,
      "unnel": 6164,
      "room": 6165,
      "ggle": 6166,
      "mediate": 6167,
      "/\",": 6168,
      "El": 6169,
      "Supported": 6170,
      "sn": 6171,
      "origin": 6172,
      "Ġowner": 6173,
      "ale": 6174,
      "ros": 6175,
      "ĠBool": 6176,
      "Ġencoding": 6177,
      "xAA": 6178,
      "Ġleast": 6179,
      "Ġ2021": 6180,
      "QP": 6181,
      "]:": 6182,
      "loader": 6183,
      "GetAll": 6184,
      "ClusterId": 6185,
      "RawResponse": 6186,
      "Assets": 6187,
      "Ġboth": 6188,
      "Ġagainst": 6189,
      "567": 6190,
      "LC": 6191,
      "onsi": 6192,
      "Ġpattern": 6193,
      "elt": 6194,
      "{}{\"": 6195,
      "ĠFilter": 6196,
      "JW": 6197,
      "Letter": 6198,
      "YFilter": 6199,
      "Ġcases": 6200,
      "apply": 6201,
      "Typed": 6202,
      "ConfigMap": 6203,
      "Mapper": 6204,
      "160": 6205,
      "aft": 6206,
      "components": 6207,
      "Ġ75": 6208,
      "cons": 6209,
      "Ġ41": 6210,
      "Ġsetting": 6211,
      "Ġparts": 6212,
      "fastReflection": 6213,
      "ius": 6214,
      "seq": 6215,
      "Ġgr": 6216,
      "ĠNetwork": 6217,
      "Prepare": 6218,
      "Ġregion": 6219,
      "generate": 6220,
      "properties": 6221,
      "tleEndian": 6222,
      "WARE": 6223,
      "PrependError": 6224,
      "Nested": 6225,
      "gon": 6226,
      "snapshot": 6227,
      "Handlers": 6228,
      "Ġagent": 6229,
      "180": 6230,
      "Da": 6231,
      "FL": 6232,
      "Override": 6233,
      "glog": 6234,
      "eric": 6235,
      "revel": 6236,
      "ErrInvalid": 6237,
      "Ġwallet": 6238,
      "ĠSu": 6239,
      "Ġrune": 6240,
      "Ġadmin": 6241,
      "elem": 6242,
      "isto": 6243,
      "oss": 6244,
      "TestSuite": 6245,
      "Math": 6246,
      "xo": 6247,
      "Ġ78": 6248,
      "Reconcile": 6249,
      "Shrink": 6250,
      "OFT": 6251,
      "Streams": 6252,
      "layer": 6253,
      "roid": 6254,
      "168": 6255,
      "Ġmaximum": 6256,
      "ĠImage": 6257,
      "]]": 6258,
      "ssh": 6259,
      "release": 6260,
      "Ġcloud": 6261,
      "amount": 6262,
      "ĠPart": 6263,
      "ĠMe": 6264,
      "PHP": 6265,
      "214748364": 6266,
      "Sg": 6267,
      "span": 6268,
      "tab": 6269,
      "ĠStop": 6270,
      "ClientConn": 6271,
      "Ġdeployment": 6272,
      "ĠBenchmark": 6273,
      "hostname": 6274,
      "Mesh": 6275,
      "mg": 6276,
      "mine": 6277,
      "migr": 6278,
      "pattern": 6279,
      "formed": 6280,
      "Nonce": 6281,
      "ForCall": 6282,
      "ferred": 6283,
      "Jobs": 6284,
      "Claims": 6285,
      "OFTWARE": 6286,
      "Rat": 6287,
      "striction": 6288,
      "AllTypesOneOf": 6289,
      "Finished": 6290,
      "auge": 6291,
      "Detect": 6292,
      "Ġspecify": 6293,
      "Ġ1024": 6294,
      "pipeline": 6295,
      "pass": 6296,
      "interval": 6297,
      "Ġsnapshot": 6298,
      "GetName": 6299,
      "Ġ59": 6300,
      "mapvalue": 6301,
      "ĠNext": 6302,
      "istogram": 6303,
      "mutex": 6304,
      "rules": 6305,
      "Ġdefinition": 6306,
      "Optionals": 6307,
      "Ġremoved": 6308,
      "Keep": 6309,
      "tables": 6310,
      "xList": 6311,
      "mta": 6312,
      "pping": 6313,
      "Contents": 6314,
      "ĠDevice": 6315,
      "Models": 6316,
      "Ġhelp": 6317,
      "DELETE": 6318,
      ">*": 6319,
      "Mult": 6320,
      "iant": 6321,
      "alt": 6322,
      "angle": 6323,
      "Ġretriev": 6324,
      "\"\":": 6325,
      ")/": 6326,
      "Vpc": 6327,
      "Ġ236": 6328,
      "NewInfoElement": 6329,
      "izes": 6330,
      "Attest": 6331,
      "Ġ500": 6332,
      "PathEscape": 6333,
      "claim": 6334,
      "ĠDB": 6335,
      "ĠWait": 6336,
      "script": 6337,
      "HTTPClient": 6338,
      "Ġcompatible": 6339,
      "registerInfoElement": 6340,
      "hub": 6341,
      "pid": 6342,
      "Ġ)": 6343,
      "setup": 6344,
      "beat": 6345,
      "Failover": 6346,
      "templates": 6347,
      "Migration": 6348,
      "Ġbin": 6349,
      "Ġgu": 6350,
      "ĠMod": 6351,
      "WithField": 6352,
      "Logging": 6353,
      "StoreIam": 6354,
      "Ġlook": 6355,
      "va": 6356,
      "Ġ66": 6357,
      "Ġtheir": 6358,
      "exists": 6359,
      "IsisSh": 6360,
      "ixt": 6361,
      "Shutdown": 6362,
      "boot": 6363,
      "CIDR": 6364,
      "><": 6365,
      "ĊĠĠĠĠ": 6366,
      "Ġneeded": 6367,
      "Consume": 6368,
      "Ġwindow": 6369,
      "ĠWHERE": 6370,
      "framework": 6371,
      "diff": 6372,
      "fx": 6373,
      "ĠAct": 6374,
      "ListResponse": 6375,
      "Ġdest": 6376,
      "proc": 6377,
      "boBoxEx": 6378,
      "Card": 6379,
      "Fast": 6380,
      "Ġscal": 6381,
      "DataPoint": 6382,
      "oneof": 6383,
      "UnknownAttribute": 6384,
      "PubKey": 6385,
      "Ġreading": 6386,
      "Stdin": 6387,
      "Ġpossible": 6388,
      "kubebuilder": 6389,
      "Installer": 6390,
      "Bin": 6391,
      "WOR": 6392,
      "ng": 6393,
      "requ": 6394,
      "Ġ104": 6395,
      "Ġdns": 6396,
      "Upper": 6397,
      "Ġprotobuf": 6398,
      "filePath": 6399,
      "ById": 6400,
      "bt": 6401,
      "unit": 6402,
      "Integer": 6403,
      "gest": 6404,
      "Ġshard": 6405,
      "fee": 6406,
      "qt": 6407,
      "uest": 6408,
      "Ġtf": 6409,
      "Ġrs": 6410,
      "{}),": 6411,
      "Ġ90": 6412,
      "newErr": 6413,
      "Coins": 6414,
      "500": 6415,
      "Day": 6416,
      "Tick": 6417,
      "isor": 6418,
      "Ġ125": 6419,
      "Ġinterval": 6420,
      "ĠnewErr": 6421,
      "Ġcallback": 6422,
      "render": 6423,
      "Ġmanager": 6424,
      "FR": 6425,
      "Normal": 6426,
      "]{": 6427,
      "enar": 6428,
      "leet": 6429,
      "Ġca": 6430,
      "Ġiota": 6431,
      "term": 6432,
      "ĠSOFTWARE": 6433,
      "WithState": 6434,
      "ĠOT": 6435,
      "ĠWeb": 6436,
      "phrase": 6437,
      "csi": 6438,
      "Ġuses": 6439,
      "maining": 6440,
      "ĠFlags": 6441,
      "aly": 6442,
      "etach": 6443,
      "ading": 6444,
      "paths": 6445,
      "Testing": 6446,
      "ASK": 6447,
      "Ġ[%": 6448,
      "White": 6449,
      "kgo": 6450,
      "NewEncoder": 6451,
      "Many": 6452,
      "Ġinstances": 6453,
      "fr": 6454,
      "missing": 6455,
      "Ġlow": 6456,
      "influ": 6457,
      "Ġpacket": 6458,
      "Standard": 6459,
      "GetUser": 6460,
      "ĠAccount": 6461,
      "Ġdeploy": 6462,
      "Ġ56": 6463,
      "ATION": 6464,
      "BoolPtrOutput": 6465,
      "curity": 6466,
      "bottom": 6467,
      "Roles": 6468,
      "Perm": 6469,
      "sample": 6470,
      "ĠAt": 6471,
      "Mappings": 6472,
      "mapStringFor": 6473,
      "Async": 6474,
      "Ġrecords": 6475,
      "LittleEndian": 6476,
      "DK": 6477,
      "Family": 6478,
      "SP": 6479,
      "cmp": 6480,
      "Ġhigh": 6481,
      "Ġexpr": 6482,
      "Fund": 6483,
      "olean": 6484,
      "Appro": 6485,
      "management": 6486,
      "ront": 6487,
      "ĠAuthor": 6488,
      "\"-": 6489,
      "Draft": 6490,
      "Ticker": 6491,
      "nn": 6492,
      "pol": 6493,
      "Ġ\"*": 6494,
      "Infra": 6495,
      "library": 6496,
      "Ġreply": 6497,
      "StatePHP": 6498,
      "parameters": 6499,
      "Creator": 6500,
      "Ġ61": 6501,
      "inc": 6502,
      "Ġclean": 6503,
      "Ġbson": 6504,
      "ulse": 6505,
      "ĠAS": 6506,
      "FullName": 6507,
      "structured": 6508,
      "Codes": 6509,
      "digest": 6510,
      "oriz": 6511,
      "ginkgo": 6512,
      "myjav": 6513,
      "Annotation": 6514,
      "Evaluation": 6515,
      "ĠĊĉ": 6516,
      "Ġ[\"": 6517,
      "ResponseError": 6518,
      "before": 6519,
      "StackInstances": 6520,
      "EQ": 6521,
      "Gas": 6522,
      "PUT": 6523,
      "tv": 6524,
      "Ġoff": 6525,
      "NewDecoder": 6526,
      "ĠSto": 6527,
      "KeyAccess": 6528,
      "8080": 6529,
      "requests": 6530,
      "Added": 6531,
      "ĠMarshalJSON": 6532,
      "ĠLookup": 6533,
      "insert": 6534,
      "onical": 6535,
      "itude": 6536,
      "Ġ109": 6537,
      "Ġwould": 6538,
      "Ġtoo": 6539,
      "tempts": 6540,
      "SerializationError": 6541,
      "baz": 6542,
      "ji": 6543,
      "Ġ252": 6544,
      "KeyValue": 6545,
      "ocks": 6546,
      "Runner": 6547,
      "Ġcompile": 6548,
      "fixKeyAccess": 6549,
      "ĠElementType": 6550,
      ">>": 6551,
      "Cause": 6552,
      "DO": 6553,
      "testutil": 6554,
      "metry": 6555,
      "ETH": 6556,
      "discovery": 6557,
      "Ġsuch": 6558,
      "SERV": 6559,
      "havior": 6560,
      "vas": 6561,
      "extensions": 6562,
      "parator": 6563,
      "PollerResponse": 6564,
      "Ġimports": 6565,
      "hy": 6566,
      "Inner": 6567,
      "Ġbc": 6568,
      "arguments": 6569,
      "after": 6570,
      "Delta": 6571,
      "Ġsimple": 6572,
      "Ġextract": 6573,
      "Without": 6574,
      "mitted": 6575,
      "Ġids": 6576,
      "Ġholds": 6577,
      ":{": 6578,
      "Ġword": 6579,
      "TypeName": 6580,
      "Listing": 6581,
      "../": 6582,
      "NodeID": 6583,
      "Already": 6584,
      "Ġvariables": 6585,
      "Ġverify": 6586,
      "static": 6587,
      "Provisioner": 6588,
      "Bulk": 6589,
      "EG": 6590,
      "Mgr": 6591,
      "sirupsen": 6592,
      "ĠIndex": 6593,
      "NewServer": 6594,
      "Heap": 6595,
      "ĠOper": 6596,
      "Wrapper": 6597,
      "Parts": 6598,
      "Ġboard": 6599,
      "Ġparsing": 6600,
      "Consist": 6601,
      "Lexer": 6602,
      "SL": 6603,
      "Ġ79": 6604,
      "ĠContent": 6605,
      "inux": 6606,
      "Ġcoin": 6607,
      "Equals": 6608,
      "priv": 6609,
      "ILITY": 6610,
      "property": 6611,
      "ĠBudgetSubscription": 6612,
      "ĠBudgetResourceGroup": 6613,
      "Age": 6614,
      "High": 6615,
      "Latest": 6616,
      "ipt": 6617,
      "verter": 6618,
      "Ġhandlers": 6619,
      "Ġcaller": 6620,
      "AccessToken": 6621,
      "seconds": 6622,
      "Ġexecute": 6623,
      "websocket": 6624,
      "Swap": 6625,
      "ram": 6626,
      "any": 6627,
      "Ġmer": 6628,
      "Stage": 6629,
      "Ġ114": 6630,
      "StringPtrOutput": 6631,
      "Idle": 6632,
      "Ġexit": 6633,
      "ĠKubernetes": 6634,
      "Awsjson": 6635,
      "Creation": 6636,
      "Ethereum": 6637,
      "110": 6638,
      "AW": 6639,
      "Hyper": 6640,
      "inv": 6641,
      "ErrorMessage": 6642,
      "WriteField": 6643,
      "ĠValues": 6644,
      "Ġdesc": 6645,
      "wrapper": 6646,
      "Tp": 6647,
      "sess": 6648,
      "skip": 6649,
      "iltin": 6650,
      "Ġ\"$": 6651,
      "Ġsave": 6652,
      "Ġoprot": 6653,
      "Unique": 6654,
      "ĠMap": 6655,
      "Ġlisten": 6656,
      "lastic": 6657,
      "ĠLease": 6658,
      ")\")": 6659,
      "132": 6660,
      "Opaque": 6661,
      "ented": 6662,
      "aring": 6663,
      "Relation": 6664,
      "Ġ84": 6665,
      "Tokens": 6666,
      "cepted": 6667,
      "Direction": 6668,
      "](": 6669,
      "usage": 6670,
      "ĠMo": 6671,
      "ĠMust": 6672,
      "ArgsForCall": 6673,
      "AGE": 6674,
      "DQ": 6675,
      "alert": 6676,
      "Example": 6677,
      "PageSize": 6678,
      "Edges": 6679,
      "Ġcorrespon": 6680,
      "ĠOTHER": 6681,
      "220": 6682,
      "Gauge": 6683,
      "enk": 6684,
      "enable": 6685,
      "Ġdist": 6686,
      "Ġexternal": 6687,
      "Shift": 6688,
      "Ġ''},": 6689,
      "ĠReference": 6690,
      "ĠEd": 6691,
      "Ġplayer": 6692,
      "Ġ327": 6693,
      "ĠSearch": 6694,
      "ĠvcUndefined": 6695,
      "orizon": 6696,
      "213": 6697,
      "Md": 6698,
      "packet": 6699,
      "oration": 6700,
      "Ġsorted": 6701,
      "Extract": 6702,
      "ĠTable": 6703,
      "States": 6704,
      "ARCH": 6705,
      "reads": 6706,
      "Audit": 6707,
      "Ġfill": 6708,
      "Ġspan": 6709,
      "Ġacce": 6710,
      "Ġonce": 6711,
      "UserId": 6712,
      "Ġ'\\": 6713,
      "ACK": 6714,
      "ethereum": 6715,
      "Dependency": 6716,
      "Dst": 6717,
      "ving": 6718,
      "Integration": 6719,
      "pter": 6720,
      "Ġ116": 6721,
      "amazon": 6722,
      "ĠTag": 6723,
      "ConfigFile": 6724,
      "ĠDE": 6725,
      "ĠRaw": 6726,
      "CMsgClient": 6727,
      "atory": 6728,
      "aries": 6729,
      "retry": 6730,
      "Ġclear": 6731,
      "Ġrec": 6732,
      "ĠFOR": 6733,
      "ĠNULL": 6734,
      "ATA": 6735,
      "Transactions": 6736,
      "unfolder": 6737,
      "Wnd": 6738,
      "644": 6739,
      "Ġincluded": 6740,
      "ASS": 6741,
      "Ġlistener": 6742,
      "Scheduled": 6743,
      "FAULT": 6744,
      "Ġviper": 6745,
      "></": 6746,
      "PK": 6747,
      "Ġ=>": 6748,
      "members": 6749,
      "()},": 6750,
      "Ġfree": 6751,
      "Ġscope": 6752,
      "ĠPacked": 6753,
      "anceled": 6754,
      "Ġ}).(": 6755,
      "Ġbuilder": 6756,
      "Matches": 6757,
      "Ġcontents": 6758,
      "Receiver": 6759,
      "Multiple": 6760,
      "received": 6761,
      "Nh": 6762,
      "eve": 6763,
      "ĠPos": 6764,
      "Ġhead": 6765,
      "verrides": 6766,
      "AccountMessagesTotal": 6767,
      "NT": 6768,
      "RT": 6769,
      "ervisor": 6770,
      "StringOutput": 6771,
      "Requested": 6772,
      "Tool": 6773,
      "EventType": 6774,
      "ledger": 6775,
      "ChangeSet": 6776,
      "Ġedit": 6777,
      "Am": 6778,
      "eq": 6779,
      "pw": 6780,
      "Ġprom": 6781,
      "ailability": 6782,
      "Quantity": 6783,
      "pires": 6784,
      "Ġsubject": 6785,
      "ĠlocalVarHttp": 6786,
      "modified": 6787,
      "scale": 6788,
      "Ġstatic": 6789,
      "Cell": 6790,
      "attributes": 6791,
      "irmed": 6792,
      "scanner": 6793,
      "Permissions": 6794,
      "Power": 6795,
      "Vpn": 6796,
      "folder": 6797,
      "wf": 6798,
      "ĠOption": 6799,
      "Ġfi": 6800,
      "ListMeta": 6801,
      ").(*": 6802,
      "ough": 6803,
      "positories": 6804,
      "Ġplace": 6805,
      "RWMutex": 6806,
      "di": 6807,
      "wn": 6808,
      "Rev": 6809,
      "Ġabs": 6810,
      "andid": 6811,
      "ĠFail": 6812,
      "Plans": 6813,
      "Ġcurrently": 6814,
      "Factor": 6815,
      "ĠIPv": 6816,
      "Receive": 6817,
      "ĠOrder": 6818,
      "210": 6819,
      "Foo": 6820,
      "Tod": 6821,
      "Vi": 6822,
      "stone": 6823,
      "ades": 6824,
      "Ġtool": 6825,
      "vars": 6826,
      "015": 6827,
      "Ġyet": 6828,
      "Expectations": 6829,
      "aaaa": 6830,
      "UnixNano": 6831,
      "children": 6832,
      "myjavalib": 6833,
      "Native": 6834,
      "Ġctrl": 6835,
      "Detection": 6836,
      "irewall": 6837,
      "aren": 6838,
      "ĠGET": 6839,
      "Ġtokens": 6840,
      "RGB": 6841,
      "Stringer": 6842,
      "Outbound": 6843,
      "swagger": 6844,
      "ResourceName": 6845,
      "ĠFe": 6846,
      "Accounts": 6847,
      "Ġplatform": 6848,
      "binding": 6849,
      "ambda": 6850,
      "allenge": 6851,
      "DDo": 6852,
      "bee": 6853,
      "tf": 6854,
      "RequestID": 6855,
      "Ġexce": 6856,
      "ĠLen": 6857,
      "UnmarshalOutput": 6858,
      "Workspace": 6859,
      "cape": 6860,
      "Ġpartition": 6861,
      "-+-+-+-+": 6862,
      "hi": 6863,
      "mag": 6864,
      "ĊĠĠĠĠĠĠĠĠĠĠĠĠĠĠĠĠĠĠĠ": 6865,
      "ars": 6866,
      "arri": 6867,
      "FileInfo": 6868,
      "openconfig": 6869,
      "Software": 6870,
      "VirtualMachine": 6871,
      "Old": 6872,
      "language": 6873,
      "loaded": 6874,
      "buff": 6875,
      "Ġdestination": 6876,
      "Ġunit": 6877,
      "CreateOrUpdate": 6878,
      "Ġsecurity": 6879,
      "Ġspecifies": 6880,
      "Ġloc": 6881,
      "Steps": 6882,
      "Ġprovide": 6883,
      "Ġdescriptor": 6884,
      "serializeOp": 6885,
      "lp": 6886,
      "sr": 6887,
      "dep": 6888,
      "ĠLI": 6889,
      "GroupVersion": 6890,
      "Ġteam": 6891,
      "labs": 6892,
      "Black": 6893,
      "Clean": 6894,
      "qdn": 6895,
      "decode": 6896,
      "Ġpoller": 6897,
      "Conds": 6898,
      "Ġ170": 6899,
      "Ġ123": 6900,
      "Ġrpc": 6901,
      "Ġadditional": 6902,
      "SET": 6903,
      "Ġvalidator": 6904,
      "Modified": 6905,
      "Slug": 6906,
      "ito": 6907,
      "ĠHash": 6908,
      "urnal": 6909,
      "\")))": 6910,
      "\")),": 6911,
      "aken": 6912,
      "Ġ4294967296": 6913,
      "STAT": 6914,
      "sues": 6915,
      "curs": 6916,
      "Ġactive": 6917,
      "include": 6918,
      "Restart": 6919,
      "Ġinclude": 6920,
      "ĠTem": 6921,
      "ĠPath": 6922,
      "Filesystem": 6923,
      "jection": 6924,
      "``": 6925,
      "ulator": 6926,
      "asource": 6927,
      "NewError": 6928,
      "verity": 6929,
      "Ġprometheus": 6930,
      "Note": 6931,
      "LocRib": 6932,
      "TempDir": 6933,
      "Credit": 6934,
      "'re": 6935,
      ")?": 6936,
      "SC": 6937,
      "Ġbits": 6938,
      "Ġlines": 6939,
      "Ġreset": 6940,
      "ListOptions": 6941,
      "MethodGet": 6942,
      "Ġconfigured": 6943,
      "Elements": 6944,
      "execute": 6945,
      "Ġcrypto": 6946,
      "Ġdescribes": 6947,
      "subscriptionID": 6948,
      "DC": 6949,
      "gative": 6950,
      "Ġfoo": 6951,
      "Ġsk": 6952,
      "icip": 6953,
      "imate": 6954,
      "Caller": 6955,
      "ĠRequired": 6956,
      "Speech": 6957,
      "()[": 6958,
      "Ġpay": 6959,
      "reset": 6960,
      "Ġdial": 6961,
      "Ġ%[": 6962,
      "archive": 6963,
      "Txs": 6964,
      "openshift": 6965,
      "Ġassertion": 6966,
      "Dependencies": 6967,
      "requency": 6968,
      "GC": 6969,
      "Nop": 6970,
      "SM": 6971,
      "]},": 6972,
      "bine": 6973,
      "Ġcmp": 6974,
      "Ġtdex": 6975,
      "person": 6976,
      "ĠSw": 6977,
      "Alpha": 6978,
      "Clause": 6979,
      "AccessKey": 6980,
      "Ġdesired": 6981,
      "clouddirectory": 6982,
      "aunch": 6983,
      "drop": 6984,
      "filters": 6985,
      "quare": 6986,
      "WriteFile": 6987,
      "pany": 6988,
      "Targets": 6989,
      "Ġparser": 6990,
      "Emit": 6991,
      "RF": 6992,
      "ven": 6993,
      "Ġ{},": 6994,
      "Ġsup": 6995,
      "Ġ180": 6996,
      "Ġwere": 6997,
      "providers": 6998,
      "background": 6999,
      "handlers": 7000,
      "packer": 7001,
      "Ġsuccessfully": 7002,
      "MAC": 7003,
      "TB": 7004,
      "mk": 7005,
      "Ġer": 7006,
      "Ġut": 7007,
      "utable": 7008,
      "Ġmd": 7009,
      "StringPtrInput": 7010,
      "listener": 7011,
      "udio": 7012,
      "ĠComp": 7013,
      "{`&": 7014,
      "Delivery": 7015,
      "enkins": 7016,
      "Tab": 7017,
      "sim": 7018,
      "Ġnormal": 7019,
      "verage": 7020,
      "Ġ400": 7021,
      "AddCommand": 7022,
      "Ġshort": 7023,
      "Ġunknown": 7024,
      "Ġmapping": 7025,
      "BlockHeight": 7026,
      "xFE": 7027,
      "400": 7028,
      "Eval": 7029,
      "Mul": 7030,
      "Tap": 7031,
      "returns": 7032,
      "Ġmachine": 7033,
      "Ġav": 7034,
      "Nullable": 7035,
      "PersistentVolume": 7036,
      "Wide": 7037,
      "schedule": 7038,
      "tch": 7039,
      "ĠExecute": 7040,
      "Ġpb": 7041,
      "Named": 7042,
      "Ġlatest": 7043,
      "fileName": 7044,
      "acer": 7045,
      "Channels": 7046,
      "ABILITY": 7047,
      "Ġclosed": 7048,
      "Ġ62": 7049,
      "uncs": 7050,
      "chk": 7051,
      "Ġterm": 7052,
      "plain": 7053,
      "illing": 7054,
      "Ġ98": 7055,
      "Scalar": 7056,
      "unfold": 7057,
      "Cron": 7058,
      "IE": 7059,
      "lc": 7060,
      "mq": 7061,
      "virtual": 7062,
      "---": 7063,
      "613": 7064,
      "ĠDynamicTemplate": 7065,
      "Disabled": 7066,
      "Namespaces": 7067,
      "Ġ65535": 7068,
      "asurement": 7069,
      "Vendor": 7070,
      "gments": 7071,
      "warf": 7072,
      "gopkg": 7073,
      "Felt": 7074,
      "Ġ58": 7075,
      "Ġproduct": 7076,
      "Ġlogin": 7077,
      "Forecast": 7078,
      "DD": 7079,
      "Kubernetes": 7080,
      "Svc": 7081,
      "bson": 7082,
      "rome": 7083,
      "Console": 7084,
      "TypeId": 7085,
      "ResourceId": 7086,
      "ival": 7087,
      "ĠBe": 7088,
      "Ġexplicit": 7089,
      "Traffic": 7090,
      "+\"/": 7091,
      "Ġconditions": 7092,
      "Rad": 7093,
      "blog": 7094,
      "ology": 7095,
      "Ġdriver": 7096,
      "Prom": 7097,
      "ĠSH": 7098,
      "Ġui": 7099,
      "UserName": 7100,
      "Processors": 7101,
      "aliyuncs": 7102,
      "ek": 7103,
      "Include": 7104,
      "(\".": 7105,
      "ĠMon": 7106,
      "Initialize": 7107,
      "Ġpods": 7108,
      "Ġregistered": 7109,
      "Corp": 7110,
      "Est": 7111,
      "sent": 7112,
      "tech": 7113,
      "ingress": 7114,
      "odb": 7115,
      "clientset": 7116,
      "xDA": 7117,
      "xCA": 7118,
      "DeviceInfo": 7119,
      "Mediation": 7120,
      "Switch": 7121,
      "604": 7122,
      "Div": 7123,
      "dwarf": 7124,
      "attach": 7125,
      "Ġ179": 7126,
      "Ġ204": 7127,
      "{}(": 7128,
      "Too": 7129,
      "2021": 7130,
      "RemoveAll": 7131,
      "Ġcontaining": 7132,
      "entries": 7133,
      "progress": 7134,
      "Ġ94": 7135,
      "Month": 7136,
      "0000000000000000": 7137,
      "Ġcomplete": 7138,
      "Preparer": 7139,
      "Mutate": 7140,
      "!\")": 7141,
      "Slot": 7142,
      "bare": 7143,
      "Ġ]": 7144,
      "stmt": 7145,
      "Ġfuture": 7146,
      "Conversion": 7147,
      "NewMock": 7148,
      "balance": 7149,
      "\\\",\\\"": 7150,
      "Mirror": 7151,
      "Fmt": 7152,
      "MB": 7153,
      "OB": 7154,
      "Ġhapp": 7155,
      "irp": 7156,
      "Ġrouter": 7157,
      "UTH": 7158,
      "Ġreads": 7159,
      "statusCode": 7160,
      "ĠConvert": 7161,
      "Affinity": 7162,
      "AU": 7163,
      "TX": 7164,
      "ĠOp": 7165,
      "Recover": 7166,
      "Unavailable": 7167,
      "Ġstandard": 7168,
      "Algorithm": 7169,
      "Peers": 7170,
      "Ġterminal": 7171,
      "Got": 7172,
      "IF": 7173,
      "ness": 7174,
      "ov": 7175,
      "Ġcredentials": 7176,
      "Ġpermission": 7177,
      "Extensions": 7178,
      "Loader": 7179,
      "Ġforward": 7180,
      "ĠWr": 7181,
      "syntax": 7182,
      "hooks": 7183,
      "MkdirAll": 7184,
      "Lat": 7185,
      "dump": 7186,
      "oy": 7187,
      "Ġvis": 7188,
      "Ġgorout": 7189,
      "Ġstill": 7190,
      "Ġshow": 7191,
      "ĠMulti": 7192,
      "atabases": 7193,
      "RateLimit": 7194,
      "ProtectedItemsClient": 7195,
      "Daemon": 7196,
      "enario": 7197,
      "Uri": 7198,
      "dial": 7199,
      "ha": 7200,
      "home": 7201,
      "Ġbound": 7202,
      "Ġtls": 7203,
      "StringIndex": 7204,
      "Rollback": 7205,
      "Wfs": 7206,
      "gle": 7207,
      "oauth": 7208,
      "Ġsending": 7209,
      "Ġbranch": 7210,
      "Changes": 7211,
      "Upstream": 7212,
      "ĠĠĠĠĠĠĠĠĠĠĠĠĠĠĠĠĠĠĠĠĠĠĠĠĠĠĠĠĠĠĠĠĠĠ": 7213,
      "pending": 7214,
      "Finish": 7215,
      "aces": 7216,
      "exit": 7217,
      "Ġiprot": 7218,
      "Ġhook": 7219,
      "610": 7220,
      "Spot": 7221,
      "mongo": 7222,
      "cdc": 7223,
      "TH": 7224,
      "ĠHandler": 7225,
      "Ġstores": 7226,
      "datastore": 7227,
      "EndTime": 7228,
      "Ġidentity": 7229,
      "Signed": 7230,
      "4073": 7231,
      "Connections": 7232,
      "Aggregate": 7233,
      "='": 7234,
      "EP": 7235,
      "descri": 7236,
      "oto": 7237,
      "sup": 7238,
      "{`,": 7239,
      "retty": 7240,
      "Ġptr": 7241,
      "ĠLast": 7242,
      "107": 7243,
      "configuration": 7244,
      "FromString": 7245,
      "subnet": 7246,
      "APIVersion": 7247,
      "Ġzone": 7248,
      "creen": 7249,
      "EncodeToString": 7250,
      "fp": 7251,
      "tected": 7252,
      "Ġtakes": 7253,
      "enda": 7254,
      "raf": 7255,
      "Imple": 7256,
      "ĠDecode": 7257,
      "Ġdisplay": 7258,
      "120": 7259,
      "Clock": 7260,
      "`}`,": 7261,
      "itter": 7262,
      "ismatch": 7263,
      "Ġ164": 7264,
      "\"];": 7265,
      "googleads": 7266,
      "Scanner": 7267,
      "Cal": 7268,
      "Ġ\"<": 7269,
      "Ġ205": 7270,
      "FieldError": 7271,
      "755": 7272,
      "Shape": 7273,
      "0505": 7274,
      "Ġpaths": 7275,
      "Ġready": 7276,
      "BoolValue": 7277,
      "Ġdetermine": 7278,
      "Physical": 7279,
      "Privile": 7280,
      "PORT": 7281,
      "ience": 7282,
      "Ġcapt": 7283,
      "Reward": 7284,
      "Ġrc": 7285,
      "ird": 7286,
      "Ġshared": 7287,
      "ĠBSD": 7288,
      "xAB": 7289,
      "Namespaced": 7290,
      "Ġstarting": 7291,
      "60200": 7292,
      "]=": 7293,
      "klog": 7294,
      "real": 7295,
      "serial": 7296,
      "xFD": 7297,
      "xDB": 7298,
      "xBA": 7299,
      "compute": 7300,
      "Ġendpoints": 7301,
      "CV": 7302,
      "Center": 7303,
      "dummy": 7304,
      "iq": 7305,
      "pq": 7306,
      "world": 7307,
      "Ġpack": 7308,
      "NewRecorder": 7309,
      "2019": 7310,
      "ObjectReference": 7311,
      "xDF": 7312,
      "xEA": 7313,
      "Comparison": 7314,
      "Ġblocks": 7315,
      "JsonString": 7316,
      "extra": 7317,
      "Ġins": 7318,
      "htt": 7319,
      "codec": 7320,
      "GroupBox": 7321,
      "columns": 7322,
      "531": 7323,
      "Ġ76": 7324,
      "ereg": 7325,
      "Ġali": 7326,
      "Preference": 7327,
      "border": 7328,
      "did": 7329,
      "ĠEnv": 7330,
      "stract": 7331,
      "Resume": 7332,
      "short": 7333,
      "Props": 7334,
      "ConfigSource": 7335,
      "Ġdecl": 7336,
      "Actions": 7337,
      "Edm": 7338,
      "Ġencoded": 7339,
      "Replicas": 7340,
      ">.": 7341,
      "dating": 7342,
      "save": 7343,
      "ernel": 7344,
      "Ġpan": 7345,
      "isk": 7346,
      "Ġrate": 7347,
      "TableName": 7348,
      "RawQuery": 7349,
      "Feed": 7350,
      "complex": 7351,
      "Succeed": 7352,
      "ĠcwWide": 7353,
      "CF": 7354,
      "LR": 7355,
      "join": 7356,
      "tdex": 7357,
      "vl": 7358,
      "aration": 7359,
      "Ġscript": 7360,
      "Ġissue": 7361,
      "anti": 7362,
      "EventId": 7363,
      "YLeaf": 7364,
      "ene": 7365,
      "uncate": 7366,
      "Ġds": 7367,
      "{}).": 7368,
      "ĠSync": 7369,
      "ĠApi": 7370,
      "Ġbelow": 7371,
      "Ġruns": 7372,
      "vided": 7373,
      "Checker": 7374,
      "Ġsymbol": 7375,
      "cheduling": 7376,
      "munization": 7377,
      "Migrate": 7378,
      "Bounds": 7379,
      "ixture": 7380,
      "DDoS": 7381,
      "jwt": 7382,
      "{[]": 7383,
      "attribute": 7384,
      "lev": 7385,
      "icorp": 7386,
      "Ġgzip": 7387,
      "ResponseDeviceOnboardingPnp": 7388,
      "ressions": 7389,
      "EqualValues": 7390,
      "Ġcreation": 7391,
      "ĠXML": 7392,
      "icipant": 7393,
      "Rand": 7394,
      "eam": 7395,
      "Ġ],": 7396,
      "Extended": 7397,
      "Ġln": 7398,
      "Encryption": 7399,
      "Withdraw": 7400,
      "ĠItem": 7401,
      "listen": 7402,
      "ĠNe": 7403,
      "Ġretrieve": 7404,
      "xBD": 7405,
      "Align": 7406,
      "png": 7407,
      "ĠSubscri": 7408,
      "####": 7409,
      "Kana": 7410,
      "aid": 7411,
      "rbac": 7412,
      "Const": 7413,
      "Ġinteger": 7414,
      "xFC": 7415,
      "Hashes": 7416,
      "Ġaddresses": 7417,
      "partition": 7418,
      "Ġscanner": 7419,
      "Guild": 7420,
      "hu": 7421,
      "tl": 7422,
      "vol": 7423,
      "zer": 7424,
      "Recycle": 7425,
      "elong": 7426,
      "Clone": 7427,
      "Ġknow": 7428,
      "Ġsequence": 7429,
      "interfaces": 7430,
      "Ġmatching": 7431,
      "hashicorp": 7432,
      "Ġconstants": 7433,
      "Lightning": 7434,
      "());": 7435,
      "Ġcounter": 7436,
      "ĠInstance": 7437,
      "Ġ\"/\")": 7438,
      "price": 7439,
      "tchttp": 7440,
      "LT": 7441,
      "cred": 7442,
      "dm": 7443,
      "Ġschedule": 7444,
      "References": 7445,
      "Ġ166": 7446,
      "putil": 7447,
      "ListStack": 7448,
      "actions": 7449,
      "Ġupgrade": 7450,
      "Ġ108": 7451,
      "Observ": 7452,
      "ĠShouldEqual": 7453,
      "Cpu": 7454,
      "ised": 7455,
      "ellow": 7456,
      "Ġtimes": 7457,
      "Ġ238": 7458,
      "Ġgateway": 7459,
      "appers": 7460,
      "publish": 7461,
      "DA": 7462,
      "Grpc": 7463,
      "KNO": 7464,
      "Pk": 7465,
      "Ġexport": 7466,
      "Ġprotoc": 7467,
      "ĠBody": 7468,
      "Meeting": 7469,
      "Ġdownload": 7470,
      "404": 7471,
      "Et": 7472,
      "gers": 7473,
      "aten": 7474,
      "iso": 7475,
      "Ġlayer": 7476,
      "Precision": 7477,
      "pressed": 7478,
      "BoolVar": 7479,
      "ApiGateway": 7480,
      "Phone": 7481,
      "foundry": 7482,
      "Diag": 7483,
      "PU": 7484,
      "bi": 7485,
      "aps": 7486,
      "Ġld": 7487,
      "artbeat": 7488,
      "Ġ92": 7489,
      "Identifiers": 7490,
      "RibEdm": 7491,
      "Ġtxn": 7492,
      "Ġbackup": 7493,
      "ictionary": 7494,
      "split": 7495,
      "ues": 7496,
      "upt": 7497,
      "vr": 7498,
      "Ġbar": 7499,
      "Ġ133": 7500,
      "ĠAccess": 7501,
      "Qual": 7502,
      "Unmarshaler": 7503,
      "999": 7504,
      "failure": 7505,
      "ĠOnly": 7506,
      "blem": 7507,
      "nipp": 7508,
      "KeywordPlan": 7509,
      "300": 7510,
      "tid": 7511,
      "Ġfast": 7512,
      "Revoke": 7513,
      "Ġ112": 7514,
      "containers": 7515,
      "Ġanother": 7516,
      "Ġattributes": 7517,
      "xBB": 7518,
      "ĠIsNil": 7519,
      "CampaignDraft": 7520,
      "Library": 7521,
      "Cisco": 7522,
      "GR": 7523,
      "Li": 7524,
      "uff": 7525,
      "amr": 7526,
      "Ġmembers": 7527,
      "ATH": 7528,
      "Ġwrites": 7529,
      "294967295": 7530,
      "ĠDouble": 7531,
      "mutation": 7532,
      "ĠStore": 7533,
      "Kit": 7534,
      "Os": 7535,
      "sel": 7536,
      "Ġbroker": 7537,
      "Ġ118": 7538,
      "Ġreal": 7539,
      "Ġgl": 7540,
      "ĠMIT": 7541,
      "ocations": 7542,
      "xCD": 7543,
      "ACT": 7544,
      "dater": 7545,
      "Ġtasks": 7546,
      "datatypes": 7547,
      "/:": 7548,
      "AK": 7549,
      "NM": 7550,
      "SSH": 7551,
      "aiter": 7552,
      "scheme": 7553,
      "Ġnotice": 7554,
      "ouch": 7555,
      "Ġchanged": 7556,
      "Ġattr": 7557,
      "symbol": 7558,
      "plane": 7559,
      "SignerSet": 7560,
      "Ts": 7561,
      "kms": 7562,
      "sender": 7563,
      "tail": 7564,
      "Ġapplies": 7565,
      "OfSpeech": 7566,
      "xED": 7567,
      "xCC": 7568,
      "xBE": 7569,
      "Ġ2017": 7570,
      "FAIL": 7571,
      "1615": 7572,
      "mult": 7573,
      "sProvisioner": 7574,
      "ĠJob": 7575,
      "Ġconst": 7576,
      "Addon": 7577,
      "Ġwritten": 7578,
      "note": 7579,
      "Ġexecution": 7580,
      "bitrary": 7581,
      "ĠUnmarshalJSON": 7582,
      "Bg": 7583,
      "Tls": 7584,
      "category": 7585,
      "Ġmux": 7586,
      "lip": 7587,
      "lier": 7588,
      "ĠClear": 7589,
      "ĠAR": 7590,
      "UDP": 7591,
      "Ġchildren": 7592,
      "Click": 7593,
      "NewBufferString": 7594,
      "Attestation": 7595,
      "=\",": 7596,
      "gre": 7597,
      "thon": 7598,
      "Ġ209": 7599,
      "arama": 7600,
      "cls": 7601,
      "Delegate": 7602,
      "Den": 7603,
      "Pol": 7604,
      "history": 7605,
      "pin": 7606,
      "qr": 7607,
      "random": 7608,
      "Ġsplit": 7609,
      "uman": 7610,
      "Ġjoin": 7611,
      "xDD": 7612,
      "ĠInst": 7613,
      "NetworkServer": 7614,
      "ĠApplication": 7615,
      "Ġaccept": 7616,
      "Dump": 7617,
      "Fill": 7618,
      "PG": 7619,
      "UST": 7620,
      "Uuid": 7621,
      "cu": 7622,
      "micro": 7623,
      "oi": 7624,
      "rans": 7625,
      "olint": 7626,
      "ĠMatch": 7627,
      "ĠĠĠĠĠĠĠĠĠĠĠĠĠĠĠĠĠĠĠĠĠĠĠĠĠĠĠĠĠĠĠĠĠĠĠ": 7628,
      "vide": 7629,
      "Ġcalling": 7630,
      "recorder": 7631,
      "ĠTemplate": 7632,
      "Present": 7633,
      "ray": 7634,
      "()\",": 7635,
      "Ġcleanup": 7636,
      "Ġmost": 7637,
      "Ġ135": 7638,
      "erver": 7639,
      "chemas": 7640,
      "Ġround": 7641,
      "xDE": 7642,
      "ORS": 7643,
      "ĠExpected": 7644,
      "Warnf": 7645,
      "Ġdocumentation": 7646,
      "BigEndian": 7647,
      "!==": 7648,
      "Dynamic": 7649,
      "ZZ": 7650,
      "timer": 7651,
      "Ġ211": 7652,
      "Ġ</": 7653,
      "ĠtestCases": 7654,
      "666": 7655,
      "Ġ103": 7656,
      "final": 7657,
      "xEF": 7658,
      "Ġauthentic": 7659,
      "gitlab": 7660,
      "Mux": 7661,
      "Sandbox": 7662,
      "Uid": 7663,
      "GetTemplate": 7664,
      "NewLogger": 7665,
      "))}": 7666,
      "StringPtr": 7667,
      "ĠSave": 7668,
      "ClientResponse": 7669,
      "ONLY": 7670,
      "oute": 7671,
      "Ġprogram": 7672,
      "Ġ106": 7673,
      "serviceName": 7674,
      "REST": 7675,
      "IGHT": 7676,
      "walletrpc": 7677,
      "4294967296": 7678,
      "Ap": 7679,
      "lr": 7680,
      "ĠInput": 7681,
      "Ġfilters": 7682,
      "apsed": 7683,
      "Constant": 7684,
      "Ġ`{\"": 7685,
      "ListBy": 7686,
      "Notifications": 7687,
      "ReadOnly": 7688,
      "Ġ71": 7689,
      "------------": 7690,
      "Templates": 7691,
      "ĠlocalVarOptionals": 7692,
      "Ġeven": 7693,
      "ĠMethod": 7694,
      "ĠlocalVarHttpResponse": 7695,
      "?(": 7696,
      "BC": 7697,
      "IOS": 7698,
      "Zip": 7699,
      "kub": 7700,
      "}).(": 7701,
      "ĠContainer": 7702,
      "stripe": 7703,
      "shared": 7704,
      "EventHandler": 7705,
      "ĠTestGet": 7706,
      "mitive": 7707,
      "xAC": 7708,
      "xEC": 7709,
      "Sug": 7710,
      "Ġprev": 7711,
      "USER": 7712,
      "Principal": 7713,
      "ĠSecret": 7714,
      "KNOWN": 7715,
      "Cleanup": 7716,
      "Dict": 7717,
      "FOR": 7718,
      "rank": 7719,
      "Ġsat": 7720,
      "Ġblob": 7721,
      "Depth": 7722,
      "Upsert": 7723,
      "xBF": 7724,
      "Addrs": 7725,
      "LOW": 7726,
      "Topology": 7727,
      "PackageIs": 7728,
      "Small": 7729,
      "]|": 7730,
      "gc": 7731,
      "ĠContext": 7732,
      "Ġserial": 7733,
      "Ġworld": 7734,
      "aba": 7735,
      "Ġgopt": 7736,
      "ixel": 7737,
      "].(*": 7738,
      "ĠNull": 7739,
      "UTF": 7740,
      "RouteTable": 7741,
      "Thing": 7742,
      "Ġdirectly": 7743,
      "Icon": 7744,
      "SUB": 7745,
      "leases": 7746,
      "Ġfact": 7747,
      "agin": 7748,
      "Ġ250": 7749,
      "Ġless": 7750,
      "perature": 7751,
      "acp": 7752,
      "Ġattempt": 7753,
      "Certificates": 7754,
      "merged": 7755,
      "Ġparsed": 7756,
      "cisionTask": 7757,
      "DisplayName": 7758,
      "PackageIsVersion": 7759,
      ":#": 7760,
      "VPS": 7761,
      "tar": 7762,
      "encoded": 7763,
      "elet": 7764,
      "Enter": 7765,
      "Ġsha": 7766,
      "[:],": 7767,
      "Owners": 7768,
      "CLI": 7769,
      "Anything": 7770,
      "Components": 7771,
      "echo": 7772,
      "Ġcompiled": 7773,
      "Ġgopter": 7774,
      "Fold": 7775,
      "ky": 7776,
      "simple": 7777,
      "tn": 7778,
      "shake": 7779,
      "Ġ\"\"},": 7780,
      "ĠĠĠĠĠĠĠĠĠĠĠĠĠĠĠĠĠĠĠĠĠĠĠĠĠĠĠĠĠĠĠĠĠ": 7781,
      "ĠInvalid": 7782,
      "Ġcompleted": 7783,
      "70955": 7784,
      "Ġcopies": 7785,
      "AccountMessagesTotalView": 7786,
      "575": 7787,
      "HL": 7788,
      "Say": 7789,
      "Syn": 7790,
      "Sources": 7791,
      "miter": 7792,
      "nost": 7793,
      "xs": 7794,
      "ĠDescription": 7795,
      "allowed": 7796,
      "Ġnone": 7797,
      "ctor": 7798,
      "ĉĉĉ": 7799,
      "oprot": 7800,
      "Quote": 7801,
      "illa": 7802,
      "ĠNamespace": 7803,
      "Ġ922337203685477580": 7804,
      "ACE": 7805,
      "Ġversions": 7806,
      "matches": 7807,
      "BudgetSubscription": 7808,
      "BudgetResourceGroup": 7809,
      "Ġtransactions": 7810,
      "ĠctKana": 7811,
      "Constraints": 7812,
      "NE": 7813,
      "YR": 7814,
      "une": 7815,
      "Ġway": 7816,
      "Ġ251": 7817,
      "ĠLex": 7818,
      "744073": 7819,
      "WithOptions": 7820,
      "roles": 7821,
      "xFA": 7822,
      "xCB": 7823,
      "startTime": 7824,
      "Scaler": 7825,
      "Ġfeature": 7826,
      "Absolute": 7827,
      ":-": 7828,
      "Github": 7829,
      "Ml": 7830,
      "NC": 7831,
      "credentials": 7832,
      "Ġtitle": 7833,
      "Unsupported": 7834,
      "ship": 7835,
      "ĠAction": 7836,
      "ClientStream": 7837,
      "IsZero": 7838,
      "INFO": 7839,
      "ĠSetup": 7840,
      "Domains": 7841,
      "YangName": 7842,
      "\"/": 7843,
      "Capt": 7844,
      "Typ": 7845,
      "XB": 7846,
      "ĊĠĠĠĠĠĠĠĠĠĠĠĠĠĠĠĠĠĠĠĠĠĠĠ": 7847,
      "ĠEnd": 7848,
      "ĠStream": 7849,
      "Retention": 7850,
      "Ġprep": 7851,
      "Ġpoll": 7852,
      "Ġmount": 7853,
      "))))": 7854,
      "aybe": 7855,
      "Ġkubernetes": 7856,
      "AndServe": 7857,
      "Sim": 7858,
      "bp": 7859,
      "fy": 7860,
      "sid": 7861,
      "rott": 7862,
      "Ġcatalog": 7863,
      "lout": 7864,
      "TypeEnum": 7865,
      "Ġuid": 7866,
      "2016": 7867,
      "Issuer": 7868,
      "ONE": 7869,
      "checks": 7870,
      "Capability": 7871,
      "Ġcharacter": 7872,
      "Blue": 7873,
      "254": 7874,
      "384": 7875,
      "Ve": 7876,
      "Ġ__": 7877,
      "ĠPoll": 7878,
      "ĠLabel": 7879,
      "UpdateRequest": 7880,
      "LOG": 7881,
      "Accepted": 7882,
      "MustParse": 7883,
      "Functions": 7884,
      "tasks": 7885,
      "Tele": 7886,
      "Ġsends": 7887,
      "Ġmove": 7888,
      "74407370955": 7889,
      "2000": 7890,
      "Ui": 7891,
      "tst": 7892,
      "...\")": 7893,
      "Apps": 7894,
      "ClusterName": 7895,
      "notify": 7896,
      "Previous": 7897,
      "Ġincluding": 7898,
      "012": 7899,
      "Atom": 7900,
      "EY": 7901,
      "Ġarr": 7902,
      "ĠOutputsTcp": 7903,
      "()]": 7904,
      "deployment": 7905,
      "Ġ113": 7906,
      "Ġ126": 7907,
      "Choice": 7908,
      "xCE": 7909,
      "BUG": 7910,
      ">\",": 7911,
      "Sn": 7912,
      "padding": 7913,
      "vv": 7914,
      "ĠExpr": 7915,
      "Ġsample": 7916,
      "Invoice": 7917,
      "Contain": 7918,
      "Ġ154": 7919,
      "share": 7920,
      "ClientConfig": 7921,
      "Logical": 7922,
      "CreateTime": 7923,
      "Ġenable": 7924,
      "Ord": 7925,
      "Ġroom": 7926,
      "EnvVar": 7927,
      "Ġlookup": 7928,
      "Structure": 7929,
      "hcpv": 7930,
      "Hooks": 7931,
      "800": 7932,
      "pes": 7933,
      "zA": 7934,
      "NewString": 7935,
      "144": 7936,
      "disable": 7937,
      "Ġgeneric": 7938,
      "Conflict": 7939,
      "java": 7940,
      "Ġsuppress": 7941,
      "VPM": 7942,
      "sorted": 7943,
      "orer": 7944,
      "Ġ215": 7945,
      "Ġlater": 7946,
      "ĠSystem": 7947,
      "arshall": 7948,
      "area": 7949,
      "ServerStream": 7950,
      "clients": 7951,
      "xDC": 7952,
      "connected": 7953,
      "wrong": 7954,
      "HasSuffix": 7955,
      "IST": 7956,
      "Matter": 7957,
      "dot": 7958,
      "gt": 7959,
      "Converter": 7960,
      "Disru": 7961,
      "modules": 7962,
      "Bufio": 7963,
      "Ġpipeline": 7964,
      "Todo": 7965,
      "KF": 7966,
      "RC": 7967,
      "Sint": 7968,
      "Sheet": 7969,
      "vk": 7970,
      "ywrapper": 7971,
      "ĠOptions": 7972,
      "ĠFormat": 7973,
      "ond": 7974,
      "lis": 7975,
      "Comments": 7976,
      "xFB": 7977,
      "xAE": 7978,
      "Boolean": 7979,
      "25519": 7980,
      "subscriptionId": 7981,
      "Ġwatcher": 7982,
      "pd": 7983,
      "Ġscheme": 7984,
      "Ġavoid": 7985,
      "Ġ150": 7986,
      "Ġdrop": 7987,
      "Ġred": 7988,
      "ĠPrint": 7989,
      "ardware": 7990,
      "106": 7991,
      "aluate": 7992,
      "ĠNow": 7993,
      "xBC": 7994,
      "Ġnothing": 7995,
      "Ġmatched": 7996,
      "Limits": 7997,
      "Trade": 7998,
      "Ġprimary": 7999,
      "Seek": 8000,
      "Chunks": 8001,
      "DN": 8002,
      "cid": 8003,
      "rat": 8004,
      "tb": 8005,
      "ĠLocal": 8006,
      "roach": 8007,
      "question": 8008,
      "ĠSession": 8009,
      "Ġproper": 8010,
      "MapOutput": 8011,
      "ĠtestCase": 8012,
      "Calls": 8013,
      "Ġ95": 8014,
      "Statistics": 8015,
      "xEB": 8016,
      "FormatInt": 8017,
      "slack": 8018,
      "Buyer": 8019,
      "unfoldCtx": 8020,
      "uz": 8021,
      "erier": 8022,
      "inger": 8023,
      "Ġpg": 8024,
      "cha": 8025,
      "abe": 8026,
      "Ġinvok": 8027,
      "Ġgame": 8028,
      "129": 8029,
      "Ġclients": 8030,
      "Ġalert": 8031,
      "serverpb": 8032,
      "ĠstatusCode": 8033,
      "CHAN": 8034,
      "SegmentPath": 8035,
      "vanced": 8036,
      "IX": 8037,
      "Sink": 8038,
      "yl": 8039,
      "Ġbelong": 8040,
      "plunk": 8041,
      "IsNotExist": 8042,
      "Ġengine": 8043,
      "ERS": 8044,
      "Ġcopyright": 8045,
      "Than": 8046,
      "IMIT": 8047,
      "Sid": 8048,
      "čĊĉĉĉ": 8049,
      "Ġmgr": 8050,
      "6101": 8051,
      "cols": 8052,
      "Discover": 8053,
      "signature": 8054,
      "canvas": 8055,
      "branch": 8056,
      "UNKNOWN": 8057,
      "Ġiterator": 8058,
      "UpdatedAt": 8059,
      "Ġflush": 8060,
      "Bridge": 8061,
      "Rgb": 8062,
      "YAML": 8063,
      "diag": 8064,
      "Ġerrs": 8065,
      "Ġcs": 8066,
      "Ġ120": 8067,
      "Reserv": 8068,
      "Ġinv": 8069,
      "testCases": 8070,
      "Ġ300": 8071,
      "usted": 8072,
      "iteral": 8073,
      "ĠtestAcc": 8074,
      "Interfaces": 8075,
      "Submit": 8076,
      "TestCheck": 8077,
      "xEE": 8078,
      "Ġprinter": 8079,
      "Coordin": 8080,
      "744073709551615": 8081,
      "/**": 8082,
      "Fs": 8083,
      "wi": 8084,
      "chase": 8085,
      "ĠMem": 8086,
      "ĠInsert": 8087,
      "cloudfoundry": 8088,
      "SgNB": 8089,
      "ĠMove": 8090,
      "155": 8091,
      "Kafka": 8092,
      "SY": 8093,
      "Yaml": 8094,
      "font": 8095,
      "hn": 8096,
      "pic": 8097,
      "etype": 8098,
      "destination": 8099,
      "Ġsafe": 8100,
      "added": 8101,
      "Ġ168": 8102,
      "Ġapplied": 8103,
      "Planning": 8104,
      "ARY": 8105,
      "388": 8106,
      "xCF": 8107,
      "Bootstrap": 8108,
      "Ġentities": 8109,
      "curr": 8110,
      "WaitFor": 8111,
      "Ġhelper": 8112,
      "ĠEquals": 8113,
      "Cor": 8114,
      "Fac": 8115,
      "Oc": 8116,
      "PP": 8117,
      "Sfixed": 8118,
      "basic": 8119,
      "oid": 8120,
      "vg": 8121,
      "}})": 8122,
      "Ġetc": 8123,
      "relation": 8124,
      "Ġ***": 8125,
      "Ġpt": 8126,
      "{}},": 8127,
      "Ġ404": 8128,
      "Ġannot": 8129,
      "149": 8130,
      "Stored": 8131,
      "ITH": 8132,
      "UBE": 8133,
      "Respond": 8134,
      "Ġinitialized": 8135,
      "================================": 8136,
      "CoreV": 8137,
      "Ġtrigger": 8138,
      "prompt": 8139,
      "sqlite": 8140,
      "901": 8141,
      "Best": 8142,
      "Cross": 8143,
      "Sampl": 8144,
      "tu": 8145,
      "zk": 8146,
      "}`": 8147,
      "loop": 8148,
      "Ġscan": 8149,
      "Ġ163": 8150,
      "Ġ223": 8151,
      "forward": 8152,
      "Program": 8153,
      "ĠSy": 8154,
      "cook": 8155,
      "xAF": 8156,
      "tsdbtest": 8157,
      "blue": 8158,
      "ĠGoogle": 8159,
      "Ġedge": 8160,
      "Attachment": 8161,
      "ĠResponseDeviceOnboardingPnp": 8162,
      "NECT": 8163,
      "Rx": 8164,
      "ĠQueue": 8165,
      "ĠConnect": 8166,
      "Ġsite": 8167,
      "utions": 8168,
      "Indic": 8169,
      "oting": 8170,
      "Ġstarted": 8171,
      "Completion": 8172,
      "Ops": 8173,
      "anned": 8174,
      "begin": 8175,
      "Ġ83": 8176,
      "TxHash": 8177,
      "ISC": 8178,
      "Ġsucce": 8179,
      "Customer": 8180,
      "ĠDisplay": 8181,
      "InstallerAPI": 8182,
      "Effect": 8183,
      "FD": 8184,
      "GUID": 8185,
      "SW": 8186,
      "TASK": 8187,
      "Vec": 8188,
      "cross": 8189,
      "ih": 8190,
      "kely": 8191,
      "mant": 8192,
      "wer": 8193,
      "\"))))": 8194,
      "ĠTO": 8195,
      "httptest": 8196,
      "ĠGetName": 8197,
      "Alarm": 8198,
      "Clusters": 8199,
      "Ġaggreg": 8200,
      "Ġmany": 8201,
      "StackGroupOperation": 8202,
      "IsisShIpv": 8203,
      "descriptor": 8204,
      "NING": 8205,
      "Ġthread": 8206,
      "elastic": 8207,
      "Ġge": 8208,
      "ĠCurrent": 8209,
      "ĠPer": 8210,
      "ĠnewTest": 8211,
      "EqualError": 8212,
      "mov": 8213,
      "150": 8214,
      "ĠRecord": 8215,
      "APIKey": 8216,
      "Prev": 8217,
      "ĠlocalVarBody": 8218,
      "ersistence": 8219,
      "callback": 8220,
      "Datum": 8221,
      "andidate": 8222,
      "231": 8223,
      "601": 8224,
      "Iface": 8225,
      "green": 8226,
      "gacy": 8227,
      "lang": 8228,
      "ĠResult": 8229,
      "ĠBuffer": 8230,
      "reference": 8231,
      "(\"$": 8232,
      "GetResponse": 8233,
      "IsSet": 8234,
      "swarm": 8235,
      "Article": 8236,
      "Confirmations": 8237,
      "Cnt": 8238,
      "Font": 8239,
      "Microsoft": 8240,
      "Year": 8241,
      "ngot": 8242,
      "tics": 8243,
      "trail": 8244,
      "194": 8245,
      "ĠWatch": 8246,
      "crt": 8247,
      "Ġ\",\")": 8248,
      "Pairs": 8249,
      "watcher": 8250,
      "Tip": 8251,
      "effect": 8252,
      "normal": 8253,
      "pur": 8254,
      "toggle": 8255,
      "Ġ129": 8256,
      "asis": 8257,
      "Ġgin": 8258,
      "pls": 8259,
      "quote": 8260,
      "accept": 8261,
      "MockInstallerAPI": 8262,
      "Ġautomat": 8263,
      "Ġwebhook": 8264,
      "velop": 8265,
      "ĠReserved": 8266,
      "Ġcorresponding": 8267,
      "STATUS": 8268,
      "KS": 8269,
      "friend": 8270,
      "ug": 8271,
      "vt": 8272,
      "inline": 8273,
      "started": 8274,
      "rotocol": 8275,
      "comm": 8276,
      "Ġ88": 8277,
      "}}},": 8278,
      "Ġworkload": 8279,
      "duce": 8280,
      "ContractAddr": 8281,
      "closed": 8282,
      "GRPC": 8283,
      "XY": 8284,
      "Ġcpu": 8285,
      "Stri": 8286,
      "Ġazure": 8287,
      "Ġ213": 8288,
      "Ġ240": 8289,
      "Decrypt": 8290,
      "MessageType": 8291,
      "(&_": 8292,
      "Ġseq": 8293,
      "Ġsmall": 8294,
      "Ġignored": 8295,
      "Expiry": 8296,
      "Bid": 8297,
      "Hide": 8298,
      "VG": 8299,
      "VPC": 8300,
      "score": 8301,
      "Ġcause": 8302,
      "Ġssh": 8303,
      "images": 8304,
      "emer": 8305,
      "ptionBudget": 8306,
      "StatusGenerator": 8307,
      "ĠnewInt": 8308,
      "Counters": 8309,
      "Views": 8310,
      "Ġsys": 8311,
      "Ġaround": 8312,
      "velope": 8313,
      "Ġaccepts": 8314,
      "eregister": 8315,
      "DisruptionBudget": 8316,
      "Ht": 8317,
      "ZE": 8318,
      "bab": 8319,
      "broker": 8320,
      "mgo": 8321,
      "inion": 8322,
      "///": 8323,
      "definition": 8324,
      "tok": 8325,
      "Ġbasic": 8326,
      "opes": 8327,
      "Ġstmt": 8328,
      "208": 8329,
      "Regions": 8330,
      "formatter": 8331,
      "Ġinterfaces": 8332,
      "Geo": 8333,
      "Criteria": 8334,
      "Finder": 8335,
      "OrderedMap": 8336,
      "unfolderArr": 8337,
      "373": 8338,
      "Foot": 8339,
      "Voice": 8340,
      "deleted": 8341,
      "Ġpending": 8342,
      "Ġwell": 8343,
      "otion": 8344,
      "TimeSeries": 8345,
      "ĠDNS": 8346,
      "Ġknown": 8347,
      "Ġcolumns": 8348,
      "OrderBy": 8349,
      "download": 8350,
      "postgres": 8351,
      "RGBA": 8352,
      "SignerSetTx": 8353,
      "+/": 8354,
      ".*": 8355,
      "rb": 8356,
      "unix": 8357,
      "Continue": 8358,
      "QueryFragment": 8359,
      "Ġwhite": 8360,
      "Dispatch": 8361,
      "Ġgroups": 8362,
      "contents": 8363,
      "IamMember": 8364,
      "1234567": 8365,
      "233": 8366,
      "Fib": 8367,
      "iprot": 8368,
      "pem": 8369,
      "Ġ186": 8370,
      "GetStack": 8371,
      "Ġeasy": 8372,
      "notification": 8373,
      "Does": 8374,
      "ĠErrIntOverflowTypes": 8375,
      "9223372036854775807": 8376,
      "cisco": 8377,
      "fil": 8378,
      "keep": 8379,
      "ĠEncode": 8380,
      "rev": 8381,
      "roke": 8382,
      "0001": 8383,
      "Ġstyle": 8384,
      "Updates": 8385,
      "MatchString": 8386,
      "VolumeMount": 8387,
      "Balances": 8388,
      "Ġelem": 8389,
      "Ġcharacters": 8390,
      "original": 8391,
      "nats": 8392,
      "virt": 8393,
      "Ġmaster": 8394,
      "Ġgreater": 8395,
      "Ġconversion": 8396,
      "Additional": 8397,
      "StatusNotFound": 8398,
      "ĠBgp": 8399,
      "NoContent": 8400,
      "111": 8401,
      "Beacon": 8402,
      "Ġreceive": 8403,
      "Ġvars": 8404,
      "routes": 8405,
      "\";": 8406,
      "(!": 8407,
      "More": 8408,
      "MIB": 8409,
      "RB": 8410,
      "SU": 8411,
      "ĠEntry": 8412,
      "Ġdiag": 8413,
      "structs": 8414,
      "Ġstub": 8415,
      "ĠFirst": 8416,
      "MethodPost": 8417,
      "TProtocol": 8418,
      "InternalError": 8419,
      "Ġnever": 8420,
      "ĠAsset": 8421,
      "Fragmenter": 8422,
      "Community": 8423,
      "309": 8424,
      "mint": 8425,
      "rm": 8426,
      "{\\\"": 8427,
      "ĠConfiguration": 8428,
      "erms": 8429,
      "seed": 8430,
      "Ġaff": 8431,
      "Ġ248": 8432,
      "Exchange": 8433,
      "Ġvs": 8434,
      "ĠCmp": 8435,
      "aving": 8436,
      "Ġ86": 8437,
      "Ġ96": 8438,
      "Backoff": 8439,
      "Ġ\"/\",": 8440,
      "Thread": 8441,
      "PutUint": 8442,
      "Ġminimum": 8443,
      "dnative": 8444,
      "ĠEventType": 8445,
      "Ġcorrectly": 8446,
      "rn": 8447,
      "agg": 8448,
      "Rep": 8449,
      "Construct": 8450,
      "Ġ183": 8451,
      "Ġ233": 8452,
      "Ġrt": 8453,
      "Ġind": 8454,
      "ĠTLS": 8455,
      "article": 8456,
      "Ġappro": 8457,
      "Applied": 8458,
      "Immunization": 8459,
      "CallTx": 8460,
      "NumberOf": 8461,
      "Ġstarts": 8462,
      "Trip": 8463,
      "weight": 8464,
      "white": 8465,
      "VALID": 8466,
      "ListenAndServe": 8467,
      "Ġorigin": 8468,
      "Bare": 8469,
      "Dot": 8470,
      "Dashboard": 8471,
      "MA": 8472,
      "oted": 8473,
      "errupt": 8474,
      "Stake": 8475,
      "Composite": 8476,
      "...))": 8477,
      "BaseResponse": 8478,
      "REL": 8479,
      "Ġpriv": 8480,
      "rootCmd": 8481,
      "Fi": 8482,
      "mes": 8483,
      "}(": 8484,
      "Ġ()": 8485,
      "Ġgorm": 8486,
      "Ġeth": 8487,
      "readResponse": 8488,
      "ESC": 8489,
      "EntrySize": 8490,
      "Ġinitialize": 8491,
      "Classification": 8492,
      "subscriptions": 8493,
      "Calc": 8494,
      "Gy": 8495,
      "ĠQ": 8496,
      "star": 8497,
      "strument": 8498,
      "Ġbot": 8499,
      "aper": 8500,
      "olar": 8501,
      "Ġ162": 8502,
      "Ġreached": 8503,
      "varargs": 8504,
      "Ġselected": 8505,
      "ĠErrIntOverflowRpc": 8506,
      "Ġmanaged": 8507,
      "rowser": 8508,
      "ExecutionReport": 8509,
      "layout": 8510,
      "rawDescData": 8511,
      "cipher": 8512,
      "FILE": 8513,
      "Finalizer": 8514,
      "Ġ18446": 8515,
      "gz": 8516,
      "ofs": 8517,
      "uc": 8518,
      "etag": 8519,
      "Ġ\"@": 8520,
      "Increment": 8521,
      "Ġunix": 8522,
      "805": 8523,
      "188": 8524,
      "Removed": 8525,
      "Ġformatter": 8526,
      "Locations": 8527,
      "influxdb": 8528,
      "Hyperflex": 8529,
      "httputil": 8530,
      "BL": 8531,
      "VID": 8532,
      "ĠInterface": 8533,
      "Ġcy": 8534,
      "NewOrderedMap": 8535,
      "ĠAc": 8536,
      "Chart": 8537,
      "GroupID": 8538,
      "GroupId": 8539,
      "Expand": 8540,
      "ĠEC": 8541,
      "APIClient": 8542,
      "previous": 8543,
      "Ġperiod": 8544,
      "Buckets": 8545,
      "generator": 8546,
      "EXT": 8547,
      "CommonEntityData": 8548,
      "element": 8549,
      "Ġpoints": 8550,
      "ĠMetadata": 8551,
      "DnsRecord": 8552,
      "Break": 8553,
      "GV": 8554,
      "Io": 8555,
      "Live": 8556,
      "ever": 8557,
      "gens": 8558,
      "vpc": 8559,
      "toSerialize": 8560,
      "chor": 8561,
      "eder": 8562,
      "lices": 8563,
      "Ġnotification": 8564,
      "104": 8565,
      "xxxx": 8566,
      "xAD": 8567,
      "Preview": 8568,
      "SendTo": 8569,
      "Ġqueries": 8570,
      "Ġcursor": 8571,
      "complete": 8572,
      "Mer": 8573,
      "gtx": 8574,
      "hyper": 8575,
      "rp": 8576,
      "Ġbus": 8577,
      "Ġreplic": 8578,
      "Ġgomock": 8579,
      "Ġconcurrent": 8580,
      "ĠTra": 8581,
      "ĠMark": 8582,
      "WithFields": 8583,
      "userID": 8584,
      "190": 8585,
      "obra": 8586,
      "MsgVpn": 8587,
      "MetadataResponse": 8588,
      "StructField": 8589,
      "ategories": 8590,
      "links": 8591,
      "Attrs": 8592,
      "PacketFilter": 8593,
      "Exceeded": 8594,
      "ĠTransaction": 8595,
      "Declaration": 8596,
      "ĠWorkflow": 8597,
      "STRING": 8598,
      "Repeat": 8599,
      "CB": 8600,
      "Mu": 8601,
      "detail": 8602,
      "unmarshal": 8603,
      "Ġpull": 8604,
      "Ġrequires": 8605,
      "Provided": 8606,
      "Ġextra": 8607,
      "ĠMac": 8608,
      "Checksum": 8609,
      "Tracer": 8610,
      "projects": 8611,
      "HistoryEvent": 8612,
      "ĠChannel": 8613,
      "stdout": 8614,
      "ĠImport": 8615,
      "Pgw": 8616,
      "TT": 8617,
      "nh": 8618,
      "//}": 8619,
      "Ġ172": 8620,
      "Ġ122": 8621,
      "Ġ190": 8622,
      "oter": 8623,
      "Ġ207": 8624,
      "Ġvals": 8625,
      "ained": 8626,
      "Separator": 8627,
      "050": 8628,
      "304": 8629,
      "Expressions": 8630,
      "Ċĉĉĉĉĉĉĉĉĉĉĉĉĉĉ": 8631,
      "MSUB": 8632,
      "----------------------------------------------------------------": 8633,
      "alias": 8634,
      "Ġdaemon": 8635,
      "ĠPublic": 8636,
      "!\",": 8637,
      "BO": 8638,
      "Drive": 8639,
      "Fh": 8640,
      "NG": 8641,
      "SN": 8642,
      "dt": 8643,
      "anc": 8644,
      "aran": 8645,
      "Relay": 8646,
      "Ġ149": 8647,
      "Ġ199": 8648,
      "ayers": 8649,
      "outer": 8650,
      "Ġshutdown": 8651,
      "configs": 8652,
      "Specification": 8653,
      "Sym": 8654,
      "transform": 8655,
      "ĠApply": 8656,
      "market": 8657,
      "webhook": 8658,
      "COMM": 8659,
      "033": 8660,
      "Sensor": 8661,
      "vh": 8662,
      "ĠStaticSitesClient": 8663,
      "0014": 8664,
      "Ġextensions": 8665,
      "Ġlikely": 8666,
      "resourceName": 8667,
      "pods": 8668,
      "PDATE": 8669,
      "leton": 8670,
      "linux": 8671,
      "ExecutionReportModify": 8672,
      "yandex": 8673,
      "urer": 8674,
      "ErrNo": 8675,
      "Ġtcp": 8676,
      "testCase": 8677,
      "ĠText": 8678,
      "ĠScal": 8679,
      "ĠCert": 8680,
      "ira": 8681,
      "Attempt": 8682,
      "Desired": 8683,
      "Compression": 8684,
      "nums": 8685,
      "sessions": 8686,
      "black": 8687,
      "records": 8688,
      "payment": 8689,
      "Matrix": 8690,
      "NaN": 8691,
      "Pages": 8692,
      "kle": 8693,
      "};": 8694,
      "tel": 8695,
      "Ġada": 8696,
      "126": 8697,
      "808": 8698,
      "Eventually": 8699,
      "chestr": 8700,
      "ParseInt": 8701,
      "methods": 8702,
      "Crud": 8703,
      "Millis": 8704,
      "windows": 8705,
      "Ġstdout": 8706,
      "ĠResume": 8707,
      "helpers": 8708,
      "vault": 8709,
      "delay": 8710,
      "Ġcred": 8711,
      "Ġconstraint": 8712,
      "typeof": 8713,
      "ĠMy": 8714,
      "apping": 8715,
      "HeaderParams": 8716,
      "respType": 8717,
      "StackId": 8718,
      "Activ": 8719,
      "parsed": 8720,
      "compress": 8721,
      "Ġswag": 8722,
      "offcanvas": 8723,
      "Abort": 8724,
      "Ġ{{.": 8725,
      "ajor": 8726,
      "Fd": 8727,
      "Hy": 8728,
      "qq": 8729,
      "wares": 8730,
      "Ġseries": 8731,
      "icult": 8732,
      "Ġ219": 8733,
      "trl": 8734,
      "SetHeader": 8735,
      "ĠBack": 8736,
      "ĠBatch": 8737,
      "Ġ85": 8738,
      "Ġroutes": 8739,
      "DomainName": 8740,
      "Ġmanagement": 8741,
      "Alive": 8742,
      "MediaType": 8743,
      "Ġsupports": 8744,
      "BBBB": 8745,
      "Assignment": 8746,
      "Ġhappen": 8747,
      "301": 8748,
      "DP": 8749,
      "Safe": 8750,
      "WI": 8751,
      "garden": 8752,
      "nexpected": 8753,
      "ĠProcess": 8754,
      "Ġfolder": 8755,
      "Ġbundle": 8756,
      "mlink": 8757,
      "Ġ2016": 8758,
      "instances": 8759,
      "clusion": 8760,
      "NamespacedName": 8761,
      "BP": 8762,
      "LV": 8763,
      "rx": 8764,
      "escape": 8765,
      "ara": 8766,
      "arrow": 8767,
      "Insecure": 8768,
      "Ġoc": 8769,
      "Ġ119": 8770,
      "Reserved": 8771,
      "ErrorResponse": 8772,
      "ircle": 8773,
      "Ġprogress": 8774,
      "(`{\"": 8775,
      "HOST": 8776,
      "overlay": 8777,
      "ĠAny": 8778,
      "Inspect": 8779,
      "dependent": 8780,
      "Ratio": 8781,
      "ĠBgpRib": 8782,
      "Front": 8783,
      "Hl": 8784,
      "gzip": 8785,
      "ĠInfo": 8786,
      "Ġside": 8787,
      "Ġlon": 8788,
      "Unsigned": 8789,
      "endar": 8790,
      "Prometheus": 8791,
      "Ġtra": 8792,
      "ĠGetInstance": 8793,
      "ĠNewGet": 8794,
      "Ġtestutil": 8795,
      "RunE": 8796,
      "hosts": 8797,
      "ĠuserID": 8798,
      "Embed": 8799,
      "Ġlib": 8800,
      "iddlewares": 8801,
      "Editor": 8802,
      "Ġsignal": 8803,
      "Cannot": 8804,
      "Canceled": 8805,
      "Ġfix": 8806,
      "Errs": 8807,
      "idual": 8808,
      "Ġinside": 8809,
      "SetText": 8810,
      "Outgoing": 8811,
      "Allocation": 8812,
      "IPs": 8813,
      "Minimum": 8814,
      "SDK": 8815,
      "UND": 8816,
      "FormValue": 8817,
      "ĠChange": 8818,
      "Requirements": 8819,
      "Ġcapacity": 8820,
      "ĠMetric": 8821,
      "Distance": 8822,
      "iculty": 8823,
      ")})": 8824,
      "MT": 8825,
      "Pulse": 8826,
      "bg": 8827,
      "jected": 8828,
      "yml": 8829,
      "Ġartifact": 8830,
      "inp": 8831,
      "routing": 8832,
      "\",\\": 8833,
      "Ġops": 8834,
      "extension": 8835,
      "Ġreconcile": 8836,
      "Ġ`&": 8837,
      "GetService": 8838,
      "ĠArr": 8839,
      "keyword": 8840,
      "cles": 8841,
      "ĠDate": 8842,
      "DeleteResponse": 8843,
      "Ġ77": 8844,
      "ClusterRole": 8845,
      "Computed": 8846,
      "Verification": 8847,
      "LOCK": 8848,
      "RemoteAddr": 8849,
      "agenta": 8850,
      "PersistentFlags": 8851,
      "identifier": 8852,
      "QR": 8853,
      "Raft": 8854,
      "});": 8855,
      "ilt": 8856,
      "Ġ203": 8857,
      "Encrypt": 8858,
      "servers": 8859,
      "EndError": 8860,
      "Ġ81": 8861,
      "Expire": 8862,
      "LabelSelector": 8863,
      "Characters": 8864,
      "BeginError": 8865,
      "FAILED": 8866,
      "MIN": 8867,
      "OAuth": 8868,
      "Same": 8869,
      "Tax": 8870,
      "UNS": 8871,
      "mw": 8872,
      "qw": 8873,
      "ĠLogger": 8874,
      "steam": 8875,
      "rib": 8876,
      "protoc": 8877,
      "Ġsepar": 8878,
      "phere": 8879,
      "tenance": 8880,
      "Thumb": 8881,
      "CSV": 8882,
      "[:])": 8883,
      "versioned": 8884,
      "Ġlex": 8885,
      "ĠErrInvalidLengthQuery": 8886,
      "Marker": 8887,
      "writeError": 8888,
      "StaticSiteBuild": 8889,
      "Consent": 8890,
      "balancer": 8891,
      "Invocation": 8892,
      "Decimal": 8893,
      "Ġdefine": 8894,
      "conditions": 8895,
      "Ġconverts": 8896,
      "ShrinkRequest": 8897,
      "Fallback": 8898,
      "KG": 8899,
      "kl": 8900,
      "Ġetcd": 8901,
      "Incoming": 8902,
      "Ġpid": 8903,
      "Ġ167": 8904,
      "Ġ178": 8905,
      "ĠCache": 8906,
      "ToS": 8907,
      "Ġ4294967295": 8908,
      "1024": 8909,
      "Ship": 8910,
      "ĠRights": 8911,
      "9999": 8912,
      "AllOf": 8913,
      "expression": 8914,
      "Sessions": 8915,
      "OTAP": 8916,
      "feature": 8917,
      "Actor": 8918,
      "Ġdisabled": 8919,
      "ChildWorkflowExecution": 8920,
      "secrets": 8921,
      "Availability": 8922,
      "ISCOTAP": 8923,
      "ASE": 8924,
      "Ded": 8925,
      "Ġ\"\\\"": 8926,
      "Ġrecy": 8927,
      "Ġvirtual": 8928,
      "ĠGetBytesSlice": 8929,
      "rac": 8930,
      "ĠBytes": 8931,
      "ĠDocker": 8932,
      "assign": 8933,
      "sumed": 8934,
      "ClusterRoleBinding": 8935,
      "Ġlists": 8936,
      "Ġclaim": 8937,
      "disabled": 8938,
      "Ġsigner": 8939,
      "Ġcontainers": 8940,
      "ĠManager": 8941,
      "175": 8942,
      "AI": 8943,
      "Hop": 8944,
      "ZMetric": 8945,
      "gos": 8946,
      "ox": 8947,
      "uck": 8948,
      "ĠEndpoint": 8949,
      "004": 8950,
      "Ġrestriction": 8951,
      "upgrade": 8952,
      "termin": 8953,
      "ecess": 8954,
      "Severity": 8955,
      "Ġprop": 8956,
      "mapstructure": 8957,
      "TestCase": 8958,
      "139": 8959,
      "Wrong": 8960,
      "Ġ93": 8961,
      "ParseIP": 8962,
      "Ġconnections": 8963,
      "Ġrelated": 8964,
      "Ġremoves": 8965,
      "Fg": 8966,
      "HR": 8967,
      "OST": 8968,
      "USE": 8969,
      "WD": 8970,
      "egress": 8971,
      "ingVersion": 8972,
      "Conns": 8973,
      "Units": 8974,
      "Look": 8975,
      "ĠCount": 8976,
      "Ġstroke": 8977,
      "FieldName": 8978,
      "need": 8979,
      "ĠFound": 8980,
      "689": 8981,
      "Funcs": 8982,
      "ACL": 8983,
      "Curve": 8984,
      "networking": 8985,
      "Packets": 8986,
      "authorization": 8987,
      "Ġrelative": 8988,
      "ĠFloating": 8989,
      "executionContext": 8990,
      "DelegateKeys": 8991,
      "374": 8992,
      "FIG": 8993,
      "Nick": 8994,
      "Ġsocket": 8995,
      "Ġ156": 8996,
      "Ġ147": 8997,
      "uses": 8998,
      "isters": 8999,
      "IsDir": 9000,
      "ServiceAccount": 9001,
      "Shares": 9002,
      "Ġassigned": 9003,
      "Ġimg": 9004,
      "INSER": 9005,
      "pective": 9006,
      "FlagSet": 9007,
      "OpenFile": 9008,
      "Subscribers": 9009,
      "Generators": 9010,
      "CACert": 9011,
      "AVE": 9012,
      "AccountMessagesView": 9013,
      "ĠPolicy": 9014,
      "Ġfactory": 9015,
      "nc": 9016,
      "Ġoccur": 9017,
      "Ġ210": 9018,
      "ectl": 9019,
      "iration": 9020,
      "ĠLim": 9021,
      "Maps": 9022,
      "Variables": 9023,
      "Ġseed": 9024,
      "Ġchat": 9025,
      "Ġserve": 9026,
      "Cols": 9027,
      "(\"%#": 9028,
      "Ġtemplates": 9029,
      "Ġ?\",": 9030,
      "Ġ18446744073709551615": 9031,
      "612": 9032,
      "Broker": 9033,
      "Detach": 9034,
      "Pred": 9035,
      "clock": 9036,
      "pagination": 9037,
      "uge": 9038,
      "ĠExec": 9039,
      "Ġ131": 9040,
      "Ġ`\"": 9041,
      "Encrypted": 9042,
      "ĠAzure": 9043,
      "([][]": 9044,
      "acle": 9045,
      "159": 9046,
      "FromFile": 9047,
      "ĠreadResponse": 9048,
      "PublicCrud": 9049,
      "environment": 9050,
      "leting": 9051,
      "Consistency": 9052,
      "Ġpanics": 9053,
      "BM": 9054,
      "Fixture": 9055,
      "Spaces": 9056,
      "otes": 9057,
      "ilar": 9058,
      "alf": 9059,
      "alive": 9060,
      "Ġbook": 9061,
      "ounce": 9062,
      "Ġecho": 9063,
      "611": 9064,
      "ĠNewMock": 9065,
      "mous": 9066,
      "ĠBy": 9067,
      "CallCount": 9068,
      "nowled": 9069,
      "ĠawsAwsjson": 9070,
      "onymous": 9071,
      "BE": 9072,
      "Country": 9073,
      "Hsl": 9074,
      "RX": 9075,
      "RES": 9076,
      "Si": 9077,
      "support": 9078,
      "att": 9079,
      "Reverse": 9080,
      "ada": 9081,
      "\").(": 9082,
      "GetItem": 9083,
      "Ġinfra": 9084,
      "gestion": 9085,
      "SetItem": 9086,
      "posed": 9087,
      "Ġsel": 9088,
      "Verbose": 9089,
      "addrs": 9090,
      "][%": 9091,
      "BindingEncoder": 9092,
      "accounts": 9093,
      "plugins": 9094,
      "Ġwaiting": 9095,
      "ĠMakeCode": 9096,
      "ĠColor": 9097,
      "Facet": 9098,
      "PublicCrudapi": 9099,
      "Sur": 9100,
      "Sens": 9101,
      "bz": 9102,
      "Ġuri": 9103,
      "etime": 9104,
      "Ġsol": 9105,
      "Informer": 9106,
      "Ġ225": 9107,
      "ecs": 9108,
      "VersionRequest": 9109,
      "Ġimages": 9110,
      "ĠRef": 9111,
      "MethodArg": 9112,
      "Using": 9113,
      "Ġgenerates": 9114,
      "googleapis": 9115,
      "Fees": 9116,
      "ĠNOTE": 9117,
      "ĠLevel": 9118,
      "Rotate": 9119,
      "Ġgoroutine": 9120,
      "ĠArray": 9121,
      "172": 9122,
      "Lag": 9123,
      "ZX": 9124,
      "hh": 9125,
      "mv": 9126,
      "single": 9127,
      "ticker": 9128,
      "toml": 9129,
      "ErrCode": 9130,
      "Ġequ": 9131,
      "Ġcompare": 9132,
      "ĠDomain": 9133,
      "AccAddress": 9134,
      "DeleteOptions": 9135,
      "ĠRgb": 9136,
      "ĠEm": 9137,
      "runner": 9138,
      "authz": 9139,
      "ĠHsl": 9140,
      "Scroll": 9141,
      "********************************": 9142,
      "Ġmerged": 9143,
      "Ġalias": 9144,
      "!=": 9145,
      "high": 9146,
      "sz": 9147,
      "ĠON": 9148,
      "cepts": 9149,
      "Ġcached": 9150,
      "Ġfee": 9151,
      "ĊĊĊ": 9152,
      "Ġ121": 9153,
      "usr": 9154,
      "ResourceQuota": 9155,
      "URLs": 9156,
      "Ġcompute": 9157,
      "Ġinstanti": 9158,
      "Authority": 9159,
      "Ġprice": 9160,
      "processor": 9161,
      "ModuleName": 9162,
      "mplx": 9163,
      "Passphrase": 9164,
      "controllers": 9165,
      "Ġconsider": 9166,
      "ĠParams": 9167,
      "BW": 9168,
      "Large": 9169,
      "Ra": 9170,
      "cases": 9171,
      "ĊĉĠ": 9172,
      "stor": 9173,
      "encoder": 9174,
      "depth": 9175,
      "Ġmask": 9176,
      "[]*": 9177,
      "Ġ192": 9178,
      "Ġws": 9179,
      "Ġ256": 9180,
      "GetRequest": 9181,
      "ListRequest": 9182,
      "102": 9183,
      "addon": 9184,
      "Ġmed": 9185,
      "attrs": 9186,
      "dividual": 9187,
      "Ġtwirp": 9188,
      "ĠAccept": 9189,
      "Oid": 9190,
      "gate": 9191,
      "more": 9192,
      "mazon": 9193,
      "sf": 9194,
      "ĠHeader": 9195,
      "inel": 9196,
      "Ġmac": 9197,
      "amer": 9198,
      "Ġ218": 9199,
      "Ġ227": 9200,
      "GetDevice": 9201,
      "ddb": 9202,
      "Workers": 9203,
      "Ġuseful": 9204,
      "authentic": 9205,
      "SecretName": 9206,
      "Ġstatement": 9207,
      "Ġcodec": 9208,
      "TIME": 9209,
      "dsa": 9210,
      "datasource": 9211,
      "BatchTx": 9212,
      "Ġresponses": 9213,
      "ĠctKanaLetter": 9214,
      "409": 9215,
      "Digit": 9216,
      "Ser": 9217,
      "two": 9218,
      "topo": 9219,
      "Ġ188": 9220,
      "Ġ244": 9221,
      "659": 9222,
      "ĠLink": 9223,
      "ĠGen": 9224,
      "PDX": 9225,
      "Ġsuccessful": 9226,
      "ImagesRequest": 9227,
      "Forwarding": 9228,
      "Ġsatis": 9229,
      "'\")": 9230,
      "Gl": 9231,
      "[{\"": 9232,
      "gold": 9233,
      "zy": 9234,
      "ĊĉĊ": 9235,
      "Ġdue": 9236,
      "Profiles": 9237,
      "ĠCustom": 9238,
      "Configure": 9239,
      "ĠPl": 9240,
      "clone": 9241,
      "activ": 9242,
      "points": 9243,
      "ĠDebug": 9244,
      "crease": 9245,
      "ContractCallTx": 9246,
      "Existing": 9247,
      "Seqno": 9248,
      "FibSh": 9249,
      "=!": 9250,
      "CY": 9251,
      "FB": 9252,
      "KL": 9253,
      "Micro": 9254,
      "lit": 9255,
      "pull": 9256,
      "ĠHost": 9257,
      "cel": 9258,
      "Ġ175": 9259,
      "Ġ196": 9260,
      "Ġ193": 9261,
      "Ġ229": 9262,
      "Ġ221": 9263,
      "Ġlayout": 9264,
      "Ġgb": 9265,
      "ĠST": 9266,
      "ĠOne": 9267,
      "Trail": 9268,
      "Ġdatastore": 9269,
      "Ġ/>": 9270,
      "blocks": 9271,
      "ĠSelect": 9272,
      "Consensus": 9273,
      "32767": 9274,
      "telemetry": 9275,
      "169": 9276,
      "Broken": 9277,
      "Elastic": 9278,
      "Pc": 9279,
      "fill": 9280,
      "nail": 9281,
      "inf": 9282,
      "Ġflow": 9283,
      "adenn": 9284,
      "advance": 9285,
      "Ġ139": 9286,
      "Ġ160": 9287,
      "Ġ198": 9288,
      "Ġtuple": 9289,
      "Ġ217": 9290,
      "Ġ231": 9291,
      "GetOptions": 9292,
      "quit": 9293,
      "ĠMore": 9294,
      "LogLevel": 9295,
      "777": 9296,
      "Refs": 9297,
      "BuildEvent": 9298,
      "Verifier": 9299,
      "Customize": 9300,
      "SSL": 9301,
      "Utilities": 9302,
      "AdjRibInPost": 9303,
      "orizontal": 9304,
      "Cach": 9305,
      "Lb": 9306,
      "Ġpres": 9307,
      "Ġ152": 9308,
      "assets": 9309,
      "Ġ214": 9310,
      "Ġrad": 9311,
      "alln": 9312,
      "ĠresTmp": 9313,
      "achable": 9314,
      "ĠPort": 9315,
      "ardener": 9316,
      "Logic": 9317,
      "BlockHash": 9318,
      "AMP": 9319,
      "annerpb": 9320,
      "vmware": 9321,
      "responses": 9322,
      "Ġaccord": 9323,
      "133": 9324,
      "AQ": 9325,
      "Frequency": 9326,
      "MI": 9327,
      "Qos": 9328,
      "bj": 9329,
      "ĉĉĉĉ": 9330,
      "Ġbreak": 9331,
      "Ġ145": 9332,
      "fff": 9333,
      "{}.": 9334,
      "Ġreturning": 9335,
      "ServiceInfo": 9336,
      "FileMode": 9337,
      "Shell": 9338,
      "ReadCloser": 9339,
      "OnCall": 9340,
      "Transform": 9341,
      "serviceDesc": 9342,
      "Locked": 9343,
      "managed": 9344,
      "clear": 9345,
      "ServicesEdge": 9346,
      "ynchronization": 9347,
      "ynchronous": 9348,
      "________": 9349,
      "Initiated": 9350,
      "AdjRibInPre": 9351,
      "AdjRibOutPre": 9352,
      "AdjRibOutPost": 9353,
      "mtaPath": 9354,
      "Nhinfo": 9355,
      "cursive": 9356,
      "ServicesEdgeCache": 9357,
      "118": 9358,
      "MY": 9359,
      "sTo": 9360,
      "}:": 9361,
      "Ġthose": 9362,
      "Ġ153": 9363,
      "204": 9364,
      "workload": 9365,
      "Ġitself": 9366,
      "replic": 9367,
      "RefExpr": 9368,
      "Ġsuffix": 9369,
      ",,,,": 9370,
      "calls": 9371,
      "BalanceResponse": 9372,
      "Monitoring": 9373,
      "ĠskipGenerated": 9374,
      "Visit": 9375,
      "Membership": 9376,
      "resolver": 9377,
      "Ġautomatically": 9378,
      "Ġ`&`,": 9379,
      "165": 9380,
      "909": 9381,
      "Fat": 9382,
      "HI": 9383,
      "SB": 9384,
      "east": 9385,
      "lator": 9386,
      "ora": 9387,
      "encode": 9388,
      "Ġ140": 9389,
      "mtp": 9390,
      "refresh": 9391,
      "Retries": 9392,
      "lobals": 9393,
      "Ġoutputs": 9394,
[...]
