{
  "version": "1.0",
  "truncation": null,
  "padding": null,
  "added_tokens": [
    {
      "id": 0,
      "content": "[UNK]",
      "single_word": false,
      "lstrip": false,
      "rstrip": false,
      "normalized": false,
      "special": true
    },
    {
      "id": 1,
      "content": "[SEP]",
      "single_word": false,
      "lstrip": false,
      "rstrip": false,
      "normalized": false,
      "special": true
    },
    {
      "id": 2,
      "content": "[PAD]",
      "single_word": false,
      "lstrip": false,
      "rstrip": false,
      "normalized": false,
      "special": true
    }
  ],
  "normalizer": null,
  "pre_tokenizer": {
    "type": "Whitespace"
  },
  "post_processor": {
    "type": "TemplateProcessing",
    "single": [
      {
        "SpecialToken": {
          "id": "[SEP]",
          "type_id": 0
        }
      },
      {
        "Sequence": {
          "id": "A",
          "type_id": 0
        }
      },
      {
        "SpecialToken": {
          "id": "[SEP]",
          "type_id": 0
        }
      }
    ],
    "pair": [
      {
        "SpecialToken": {
          "id": "[SEP]",
          "type_id": 0
        }
      },
      {
        "Sequence": {
          "id": "A",
          "type_id": 0
        }
      },
      {
        "SpecialToken": {
          "id": "[SEP]",
          "type_id": 0
        }
      },
      {
        "Sequence": {
          "id": "B",
          "type_id": 0
        }
      },
      {
        "SpecialToken": {
          "id": "[SEP]",
          "type_id": 0
        }
      }
    ],
    "special_tokens": {
      "[SEP]": {
        "id": "[SEP]",
        "ids": [
          1
        ],
        "tokens": [
          "[SEP]"
        ]
      }
    }
  },
  "decoder": null,
  "model": {
    "type": "BPE",
    "dropout": null,
    "unk_token": "[UNK]",
    "continuing_subword_prefix": null,
    "end_of_word_suffix": null,
    "fuse_unk": false,
    "byte_fallback": false,
    "vocab": {
      "[UNK]": 0,
      "[SEP]": 1,
      "[PAD]": 2,
      "\b": 3,
      "\u001a": 4,
      "!": 5,
      "\"": 6,
      "#": 7,
      "$": 8,
      "%": 9,
      "&": 10,
      "'": 11,
      "(": 12,
      ")": 13,
      "*": 14,
      "+": 15,
      ",": 16,
      "-": 17,
      ".": 18,
      "/": 19,
      "0": 20,
      "1": 21,
      "2": 22,
      "3": 23,
      "4": 24,
      "5": 25,
      "6": 26,
      "7": 27,
      "8": 28,
      "9": 29,
      ":": 30,
      ";": 31,
      "<": 32,
      "=": 33,
      ">": 34,
      "?": 35,
      "@": 36,
      "A": 37,
      "B": 38,
      "C": 39,
      "D": 40,
      "E": 41,
      "F": 42,
      "G": 43,
      "H": 44,
      "I": 45,
      "J": 46,
      "K": 47,
      "L": 48,
      "M": 49,
      "N": 50,
      "O": 51,
      "P": 52,
      "Q": 53,
      "R": 54,
      "S": 55,
      "T": 56,
      "U": 57,
      "V": 58,
      "W": 59,
      "X": 60,
      "Y": 61,
      "Z": 62,
      "[": 63,
      "\\": 64,
      "]": 65,
      "^": 66,
      "_": 67,
      "`": 68,
      "a": 69,
      "b": 70,
      "c": 71,
      "d": 72,
      "e": 73,
      "f": 74,
      "g": 75,
      "h": 76,
      "i": 77,
      "j": 78,
      "k": 79,
      "l": 80,
      "m": 81,
      "n": 82,
      "o": 83,
      "p": 84,
      "q": 85,
      "r": 86,
      "s": 87,
      "t": 88,
      "u": 89,
      "v": 90,
      "w": 91,
      "x": 92,
      "y": 93,
      "z": 94,
      "{": 95,
      "|": 96,
      "}": 97,
      "~": 98,
      "er": 99,
      "in": 100,
      "re": 101,
      "on": 102,
      "st": 103,
      "or": 104,
      "at": 105,
      "en": 106,
      "err": 107,
      "il": 108,
      "th": 109,
      "es": 110,
      "ing": 111,
      "al": 112,
      "ur": 113,
      "un": 114,
      "an": 115,
      "te": 116,
      "se": 117,
      "//": 118,
      "me": 119,
      "ar": 120,
      ":=": 121,
      "str": 122,
      "ret": 123,
      "ion": 124,
      "ct": 125,
      "if": 126,
      "urn": 127,
      "et": 128,
      "()": 129,
      "return": 130,
      "co": 131,
      "ic": 132,
      "de": 133,
      "le": 134,
      "ro": 135,
      "lo": 136,
      "ac": 137,
      "unc": 138,
      "ent": 139,
      "\",": 140,
      "ag": 141,
      "it": 142,
      "nil": 143,
      "func": 144,
      "int": 145,
      "string": 146,
      "pe": 147,
      "(\"": 148,
      "con": 149,
      "ap": 150,
      "ate": 151,
      "ut": 152,
      "the": 153,
      "ue": 154,
      "mp": 155,
      "St": 156,
      "is": 157,
      "Re": 158,
      "ad": 159,
      "ame": 160,
      "ig": 161,
      "to": 162,
      "ch": 163,
      "res": 164,
      "li": 165,
      "as": 166,
      "Con": 167,
      "ser": 168,
      "ul": 169,
      "ub": 170,
      "age": 171,
      "ith": 172,
      "In": 173,
      "id": 174,
      "--": 175,
      "!=": 176,
      "rr": 177,
      "ew": 178,
      "error": 179,
      "el": 180,
      "\")": 181,
      "Err": 182,
      "ype": 183,
      "ed": 184,
      "ol": 185,
      "and": 186,
      "for": 187,
      "xt": 188,
      "ck": 189,
      "com": 190,
      "ce": 191,
      "ot": 192,
      "ation": 193,
      "[]": 194,
      "ver": 195,
      "Error": 196,
      "ri": 197,
      "Co": 198,
      "ack": 199,
      "ht": 200,
      "ime": 201,
      "ab": 202,
      "pt": 203,
      "ess": 204,
      "am": 205,
      "ile": 206,
      "ort": 207,
      "New": 208,
      "ma": 209,
      "fig": 210,
      "Name": 211,
      "ey": 212,
      "us": 213,
      "test": 214,
      "ult": 215,
      "ex": 216,
      "Get": 217,
      "log": 218,
      "mo": 219,
      "tr": 220,
      "lient": 221,
      "mt": 222,
      "val": 223,
      "ithub": 224,
      "ata": 225,
      "text": 226,
      "son": 227,
      "github": 228,
      "Res": 229,
      "pro": 230,
      "De": 231,
      "um": 232,
      "go": 233,
      "ace": 234,
      "},": 235,
      "ist": 236,
      "0x": 237,
      "fmt": 238,
      "tp": 239,
      "qu": 240,
      "of": 241,
      "ID": 242,
      "he": 243,
      "ase": 244,
      "up": 245,
      "ath": 246,
      "by": 247,
      "ter": 248,
      "od": 249,
      "json": 250,
      ":\"": 251,
      "que": 252,
      "type": 253,
      "http": 254,
      "uct": 255,
      "end": 256,
      "ok": 257,
      "Lo": 258,
      "os": 259,
      "==": 260,
      "out": 261,
      "ice": 262,
      "time": 263,
      "ect": 264,
      "))": 265,
      "ers": 266,
      "Str": 267,
      "ang": 268,
      "bu": 269,
      "ted": 270,
      "quest": 271,
      "imp": 272,
      "fa": 273,
      "name": 274,
      "00": 275,
      "Type": 276,
      "rint": 277,
      "ve": 278,
      "var": 279,
      "Ser": 280,
      "pl": 281,
      "struct": 282,
      "\"`": 283,
      "der": 284,
      "Te": 285,
      "En": 286,
      "fo": 287,
      "our": 288,
      "pon": 289,
      "sh": 290,
      "ir": 291,
      "inter": 292,
      "ay": 293,
      "file": 294,
      "per": 295,
      "String": 296,
      "Val": 297,
      "pack": 298,
      "{}": 299,
      "icen": 300,
      "pec": 301,
      "Pro": 302,
      "all": 303,
      "ponse": 304,
      "Ad": 305,
      "),": 306,
      "Ex": 307,
      "vice": 308,
      "ions": 309,
      "ctx": 310,
      "able": 311,
      "Config": 312,
      "iz": 313,
      "Set": 314,
      "ty": 315,
      "bo": 316,
      "atus": 317,
      "ow": 318,
      "..": 319,
      "package": 320,
      "icense": 321,
      "Key": 322,
      "64": 323,
      "ment": 324,
      "---": 325,
      "be": 326,
      "ire": 327,
      "Add": 328,
      "put": 329,
      "ta": 330,
      "Client": 331,
      "Un": 332,
      "ource": 333,
      "ode": 334,
      "License": 335,
      "po": 336,
      "import": 337,
      "Se": 338,
      "ange": 339,
      "are": 340,
      "fer": 341,
      "ke": 342,
      "app": 343,
      "face": 344,
      "Request": 345,
      "arg": 346,
      "im": 347,
      "act": 348,
      "config": 349,
      "set": 350,
      "not": 351,
      "ject": 352,
      "ust": 353,
      "len": 354,
      "par": 355,
      "ite": 356,
      "key": 357,
      "unt": 358,
      "reate": 359,
      "Id": 360,
      "Par": 361,
      "data": 362,
      "ler": 363,
      "client": 364,
      "io": 365,
      "ader": 366,
      "om": 367,
      "Test": 368,
      "To": 369,
      "sert": 370,
      "ob": 371,
      "\":": 372,
      "List": 373,
      "context": 374,
      ").": 375,
      "wor": 376,
      "ger": 377,
      "interface": 378,
      "essage": 379,
      "byte": 380,
      "Context": 381,
      "md": 382,
      "path": 383,
      "Status": 384,
      "fi": 385,
      "fault": 386,
      "new": 387,
      "ress": 388,
      "Log": 389,
      "ds": 390,
      "Ch": 391,
      "rom": 392,
      "map": 393,
      "testing": 394,
      "Time": 395,
      "ine": 396,
      "range": 397,
      "File": 398,
      "Response": 399,
      "rintf": 400,
      "ON": 401,
      "uth": 402,
      "ind": 403,
      "und": 404,
      "true": 405,
      "net": 406,
      "lock": 407,
      "mat": 408,
      "code": 409,
      "aw": 410,
      "op": 411,
      "ms": 412,
      "lag": 413,
      "})": 414,
      "Data": 415,
      "ize": 416,
      "Path": 417,
      "vent": 418,
      "(*": 419,
      "ity": 420,
      "bool": 421,
      "case": 422,
      "che": 423,
      "())": 424,
      "date": 425,
      "User": 426,
      "lect": 427,
      "user": 428,
      "api": 429,
      "ip": 430,
      "ost": 431,
      "Errorf": 432,
      "with": 433,
      "v1": 434,
      ");": 435,
      "art": 436,
      "mand": 437,
      "ore": 438,
      "Ap": 439,
      "(),": 440,
      "get": 441,
      "ec": 442,
      "ure": 443,
      "this": 444,
      "errors": 445,
      "value": 446,
      "cl": 447,
      "cri": 448,
      "Value": 449,
      "cess": 450,
      "ory": 451,
      "assert": 452,
      "().": 453,
      "tain": 454,
      "do": 455,
      "With": 456,
      "ery": 457,
      "By": 458,
      "alse": 459,
      "ache": 460,
      "Sp": 461,
      "Tr": 462,
      "db": 463,
      "rit": 464,
      "port": 465,
      "py": 466,
      "rite": 467,
      "ight": 468,
      "result": 469,
      "Hand": 470,
      "ener": 471,
      "opt": 472,
      "Opt": 473,
      "Info": 474,
      "use": 475,
      "Com": 476,
      "tes": 477,
      "quire": 478,
      "ass": 479,
      "mpty": 480,
      "Service": 481,
      "ans": 482,
      "add": 483,
      "gr": 484,
      "Up": 485,
      "For": 486,
      "false": 487,
      "Bu": 488,
      "qual": 489,
      "ial": 490,
      "ance": 491,
      "del": 492,
      "pk": 493,
      "valid": 494,
      "32": 495,
      "ator": 496,
      "strings": 497,
      "load": 498,
      "ail": 499,
      "ames": 500,
      "roup": 501,
      "ign": 502,
      "He": 503,
      "([]": 504,
      "Server": 505,
      "Create": 506,
      "can": 507,
      "Equal": 508,
      "Al": 509,
      "ant": 510,
      "cur": 511,
      "ams": 512,
      "Vers": 513,
      "run": 514,
      "dex": 515,
      "UR": 516,
      "pected": 517,
      "istr": 518,
      "mar": 519,
      "pkg": 520,
      "sy": 521,
      "ody": 522,
      "ash": 523,
      "cont": 524,
      "atch": 525,
      "main": 526,
      "----": 527,
      "Version": 528,
      "...": 529,
      "make": 530,
      "int64": 531,
      "Message": 532,
      "mit": 533,
      "Code": 534,
      "work": 535,
      "ast": 536,
      "cor": 537,
      "one": 538,
      "lete": 539,
      "require": 540,
      "20": 541,
      "ute": 542,
      "col": 543,
      "model": 544,
      "append": 545,
      "lose": 546,
      "Not": 547,
      "buf": 548,
      "(&": 549,
      "list": 550,
      "comp": 551,
      "ry": 552,
      "Is": 553,
      "proto": 554,
      "req": 555,
      "Run": 556,
      "Met": 557,
      "count": 558,
      "request": 559,
      "nt": 560,
      "eld": 561,
      "Write": 562,
      "Print": 563,
      "ction": 564,
      "ock": 565,
      "conn": 566,
      "IN": 567,
      "atal": 568,
      "ild": 569,
      "ln": 570,
      "mpl": 571,
      "Sh": 572,
      "ies": 573,
      "Ac": 574,
      "iv": 575,
      "shal": 576,
      "Read": 577,
      "pes": 578,
      "default": 579,
      "ext": 580,
      "mon": 581,
      "else": 582,
      "Reg": 583,
      "**": 584,
      "args": 585,
      "IT": 586,
      "expected": 587,
      "cript": 588,
      "cal": 589,
      "ly": 590,
      "fil": 591,
      "AP": 592,
      "uld": 593,
      "Me": 594,
      "cmd": 595,
      "Qu": 596,
      "util": 597,
      "Cont": 598,
      "wh": 599,
      "low": 600,
      "response": 601,
      "reg": 602,
      "ach": 603,
      "server": 604,
      "sion": 605,
      "Ob": 606,
      "URL": 607,
      "we": 608,
      "ber": 609,
      "uster": 610,
      "Ar": 611,
      "pace": 612,
      "ask": 613,
      "uration": 614,
      "Sprintf": 615,
      "defer": 616,
      "Fi": 617,
      "\"\"": 618,
      "read": 619,
      "plic": 620,
      "from": 621,
      "red": 622,
      "rol": 623,
      "form": 624,
      "own": 625,
      "Handler": 626,
      "thod": 627,
      "gin": 628,
      "exp": 629,
      "ific": 630,
      "An": 631,
      "Conn": 632,
      "ive": 633,
      "Fatal": 634,
      "Map": 635,
      "under": 636,
      "mock": 637,
      "AN": 638,
      "riter": 639,
      "Command": 640,
      "Cl": 641,
      "ou": 642,
      "Ro": 643,
      "Int": 644,
      "that": 645,
      "af": 646,
      "Node": 647,
      "Update": 648,
      "pos": 649,
      "loat": 650,
      "://": 651,
      "ud": 652,
      "nc": 653,
      "service": 654,
      "ations": 655,
      "ware": 656,
      "ard": 657,
      "State": 658,
      "Event": 659,
      "Out": 660,
      "ues": 661,
      "amp": 662,
      "spec": 663,
      "Inter": 664,
      "oken": 665,
      "itempty": 666,
      "Auth": 667,
      "omitempty": 668,
      "ates": 669,
      "Des": 670,
      "OR": 671,
      "ref": 672,
      "Token": 673,
      "No": 674,
      "10": 675,
      "{\"": 676,
      "SE": 677,
      "fix": 678,
      "Println": 679,
      "min": 680,
      "point": 681,
      "vi": 682,
      "{})": 683,
      "ated": 684,
      "chan": 685,
      "ule": 686,
      "org": 687,
      "nal": 688,
      "returns": 689,
      "{},": 690,
      "API": 691,
      "Group": 692,
      "auth": 693,
      "create": 694,
      "ain": 695,
      "Close": 696,
      "sw": 697,
      "Flag": 698,
      "ition": 699,
      "Result": 700,
      "flag": 701,
      "At": 702,
      "Col": 703,
      "msg": 704,
      "resp": 705,
      "AS": 706,
      "From": 707,
      "].": 708,
      "ould": 709,
      "pc": 710,
      "ify": 711,
      "hand": 712,
      "Header": 713,
      "ken": 714,
      "Comp": 715,
      "ill": 716,
      "line": 717,
      "Default": 718,
      "fail": 719,
      "IS": 720,
      "Valid": 721,
      "vid": 722,
      "fg": 723,
      "Size": 724,
      "Func": 725,
      "Resource": 726,
      "bytes": 727,
      "ep": 728,
      "Or": 729,
      "url": 730,
      "uint": 731,
      "sub": 732,
      "amespace": 733,
      "ert": 734,
      "tx": 735,
      "The": 736,
      "Do": 737,
      "ql": 738,
      "token": 739,
      "All": 740,
      "right": 741,
      "vel": 742,
      "Th": 743,
      "Object": 744,
      "const": 745,
      "types": 746,
      "message": 747,
      "\"\",": 748,
      "abel": 749,
      "ge": 750,
      "ave": 751,
      "mis": 752,
      "Po": 753,
      "ER": 754,
      "AR": 755,
      "ES": 756,
      "gener": 757,
      "EN": 758,
      "su": 759,
      "ession": 760,
      "nel": 761,
      "pre": 762,
      "DB": 763,
      "Query": 764,
      "check": 765,
      "core": 766,
      "Copy": 767,
      "Of": 768,
      "Delete": 769,
      "Pre": 770,
      "Pl": 771,
      "ww": 772,
      "Options": 773,
      "ary": 774,
      "JS": 775,
      "Le": 776,
      "On": 777,
      "Dir": 778,
      "env": 779,
      "cond": 780,
      "ifi": 781,
      "logger": 782,
      "node": 783,
      "Che": 784,
      "As": 785,
      "store": 786,
      "pect": 787,
      "Sub": 788,
      "ded": 789,
      "Check": 790,
      "Body": 791,
      "float": 792,
      "&&": 793,
      "stance": 794,
      "JSON": 795,
      "Writer": 796,
      "cret": 797,
      "ull": 798,
      "rent": 799,
      "ph": 800,
      "ml": 801,
      "Arg": 802,
      "Fil": 803,
      "so": 804,
      "Spec": 805,
      "status": 806,
      "<-": 807,
      "no": 808,
      "rap": 809,
      "call": 810,
      "12": 811,
      "br": 812,
      "Ma": 813,
      "istri": 814,
      "ink": 815,
      "Cmd": 816,
      "IP": 817,
      "event": 818,
      "input": 819,
      "ics": 820,
      "ther": 821,
      "End": 822,
      "des": 823,
      "Man": 824,
      "Trans": 825,
      "start": 826,
      "may": 827,
      "lement": 828,
      "Op": 829,
      "cept": 830,
      "ning": 831,
      "back": 832,
      "App": 833,
      "ubl": 834,
      "umber": 835,
      "ager": 836,
      "resource": 837,
      "Bo": 838,
      "cre": 839,
      "mplate": 840,
      "init": 841,
      "word": 842,
      "base": 843,
      "action": 844,
      "Mode": 845,
      "Parse": 846,
      "arget": 847,
      "HT": 848,
      "Address": 849,
      "ayload": 850,
      "sr": 851,
      "\"),": 852,
      "0000": 853,
      "UT": 854,
      "ces": 855,
      "distri": 856,
      "aws": 857,
      "Printf": 858,
      "Mar": 859,
      "Logger": 860,
      "sp": 861,
      "elds": 862,
      "orage": 863,
      "copy": 864,
      "got": 865,
      "Bytes": 866,
      "version": 867,
      "ding": 868,
      "dis": 869,
      "Index": 870,
      "Mock": 871,
      "state": 872,
      "sd": 873,
      "],": 874,
      "host": 875,
      "Chan": 876,
      "cription": 877,
      "[\"": 878,
      "LI": 879,
      "command": 880,
      "chema": 881,
      "ns": 882,
      "Output": 883,
      "index": 884,
      "format": 885,
      "ents": 886,
      "Ret": 887,
      "ister": 888,
      "Len": 889,
      "8s": 890,
      "Var": 891,
      "Tag": 892,
      "Params": 893,
      "TP": 894,
      "marshal": 895,
      "distribu": 896,
      "man": 897,
      "Ite": 898,
      "bug": 899,
      "contain": 900,
      "Sy": 901,
      "16": 902,
      "cfg": 903,
      "ner": 904,
      "fin": 905,
      "failed": 906,
      "vider": 907,
      "TI": 908,
      "sql": 909,
      "ream": 910,
      "Back": 911,
      "dat": 912,
      "distributed": 913,
      "conv": 914,
      "Field": 915,
      "Call": 916,
      "query": 917,
      "Ms": 918,
      "Start": 919,
      "OF": 920,
      "reflect": 921,
      "\"/": 922,
      "applic": 923,
      "Method": 924,
      "Im": 925,
      "Count": 926,
      "Store": 927,
      "Exec": 928,
      "rl": 929,
      "0x6": 930,
      "want": 931,
      "])": 932,
      "output": 933,
      "Fail": 934,
      "Block": 935,
      "Host": 936,
      "ection": 937,
      "cry": 938,
      "Port": 939,
      "em": 940,
      "Contain": 941,
      "--------": 942,
      "ence": 943,
      "av": 944,
      "cs": 945,
      "loud": 946,
      "limit": 947,
      "update": 948,
      "ages": 949,
      "k8s": 950,
      "ts": 951,
      "but": 952,
      "////": 953,
      "float64": 954,
      "ker": 955,
      "++": 956,
      "roller": 957,
      "params": 958,
      "Su": 959,
      "assword": 960,
      "Per": 961,
      "ait": 962,
      "anic": 963,
      "olic": 964,
      "tag": 965,
      "sync": 966,
      "idd": 967,
      "og": 968,
      "coding": 969,
      "Msg": 970,
      "found": 971,
      "ree": 972,
      "(\"%": 973,
      "kub": 974,
      "Reader": 975,
      "oft": 976,
      "abase": 977,
      "adata": 978,
      "try": 979,
      "you": 980,
      "tc": 981,
      "required": 982,
      "body": 983,
      "Wor": 984,
      "Dis": 985,
      "arch": 986,
      "will": 987,
      "runtime": 988,
      "unction": 989,
      "should": 990,
      "ilder": 991,
      "common": 992,
      "HTTP": 993,
      "ugin": 994,
      "models": 995,
      "irect": 996,
      "field": 997,
      "||": 998,
      "cluster": 999,
      "cord": 1000,
      "ting": 1001,
      "tri": 1002,
      "ET": 1003,
      "*/": 1004,
      "Args": 1005,
      "sions": 1006,
      "ual": 1007,
      "sdk": 1008,
      "sign": 1009,
      "open": 1010,
      "opts": 1011,
      "Buf": 1012,
      "trans": 1013,
      "ample": 1014,
      "oin": 1015,
      "Nil": 1016,
      "sum": 1017,
      "Cluster": 1018,
      "ish": 1019,
      "exec": 1020,
      "current": 1021,
      "dir": 1022,
      "Hash": 1023,
      "values": 1024,
      "lice": 1025,
      "posit": 1026,
      "Input": 1027,
      "match": 1028,
      "itch": 1029,
      "Env": 1030,
      "Content": 1031,
      "Lock": 1032,
      "Addr": 1033,
      "DO": 1034,
      "Format": 1035,
      "ses": 1036,
      "25": 1037,
      "block": 1038,
      "mail": 1039,
      "TO": 1040,
      "row": 1041,
      "Pack": 1042,
      "group": 1043,
      "Sign": 1044,
      "move": 1045,
      "Be": 1046,
      "olicy": 1047,
      "ak": 1048,
      "exist": 1049,
      "strconv": 1050,
      "\"))": 1051,
      "gth": 1052,
      "oftware": 1053,
      "max": 1054,
      "Copyright": 1055,
      "ere": 1056,
      "fs": 1057,
      "/*": 1058,
      "Max": 1059,
      "Marshal": 1060,
      "sing": 1061,
      "\"},": 1062,
      "parse": 1063,
      "meta": 1064,
      "options": 1065,
      "hel": 1066,
      "source": 1067,
      "object": 1068,
      "ho": 1069,
      "tt": 1070,
      "Image": 1071,
      "info": 1072,
      "lob": 1073,
      "Unmarshal": 1074,
      "panic": 1075,
      "[]*": 1076,
      "Fo": 1077,
      "hash": 1078,
      "Net": 1079,
      "Text": 1080,
      "cache": 1081,
      "We": 1082,
      "fr": 1083,
      "Level": 1084,
      "Gener": 1085,
      "led": 1086,
      "Exp": 1087,
      "outil": 1088,
      "ne": 1089,
      "writ": 1090,
      "ioutil": 1091,
      "Flags": 1092,
      "Init": 1093,
      "ply": 1094,
      "https": 1095,
      "Account": 1096,
      "loy": 1097,
      "...)": 1098,
      "a1": 1099,
      "Task": 1100,
      "ublic": 1101,
      "****": 1102,
      "Base": 1103,
      "Source": 1104,
      "pri": 1105,
      "Namespace": 1106,
      "used": 1107,
      "Option": 1108,
      "Label": 1109,
      "Duration": 1110,
      "ff": 1111,
      "bin": 1112,
      "orm": 1113,
      "size": 1114,
      "cli": 1115,
      "\"]": 1116,
      "Join": 1117,
      "item": 1118,
      "raw": 1119,
      "filepath": 1120,
      "istry": 1121,
      "internal": 1122,
      "mod": 1123,
      "WAR": 1124,
      "root": 1125,
      "Table": 1126,
      "AT": 1127,
      "switch": 1128,
      "_id": 1129,
      "xy": 1130,
      "utils": 1131,
      "Fatalf": 1132,
      "iddle": 1133,
      "ong": 1134,
      "build": 1135,
      "Use": 1136,
      "Open": 1137,
      "Expect": 1138,
      "old": 1139,
      "address": 1140,
      "ices": 1141,
      "See": 1142,
      "ux": 1143,
      "OK": 1144,
      "method": 1145,
      "ploy": 1146,
      "est": 1147,
      "fset": 1148,
      "CON": 1149,
      "image": 1150,
      "ST": 1151,
      "Filter": 1152,
      "0x7": 1153,
      "Timeout": 1154,
      "my": 1155,
      "enc": 1156,
      "Register": 1157,
      "Manager": 1158,
      "LIC": 1159,
      "Send": 1160,
      "angu": 1161,
      "NoError": 1162,
      "cket": 1163,
      "ameter": 1164,
      "Ext": 1165,
      "ors": 1166,
      "encoding": 1167,
      "cel": 1168,
      "project": 1169,
      "cation": 1170,
      "Item": 1171,
      "round": 1172,
      "Debug": 1173,
      "irst": 1174,
      "aml": 1175,
      "Prefix": 1176,
      "DIT": 1177,
      "has": 1178,
      "(\"/": 1179,
      "Meta": 1180,
      "iven": 1181,
      "Stat": 1182,
      "handler": 1183,
      "Buffer": 1184,
      "Cache": 1185,
      "ccess": 1186,
      "stem": 1187,
      "HO": 1188,
      "metr": 1189,
      "oper": 1190,
      "addr": 1191,
      "anguage": 1192,
      "ls": 1193,
      "And": 1194,
      "Metr": 1195,
      "Wrap": 1196,
      "\").": 1197,
      "pository": 1198,
      "obj": 1199,
      "schema": 1200,
      "task": 1201,
      "ix": 1202,
      "EC": 1203,
      "src": 1204,
      "less": 1205,
      "Secret": 1206,
      "Go": 1207,
      "This": 1208,
      "LICEN": 1209,
      "LICENSE": 1210,
      "Mem": 1211,
      "ush": 1212,
      "les": 1213,
      "its": 1214,
      "target": 1215,
      "Handle": 1216,
      "ument": 1217,
      "ci": 1218,
      "ved": 1219,
      "mem": 1220,
      "session": 1221,
      "Payload": 1222,
      "Cert": 1223,
      "conf": 1224,
      "specific": 1225,
      "uint64": 1226,
      "0x0": 1227,
      "local": 1228,
      "Std": 1229,
      "print": 1230,
      "Session": 1231,
      "ps": 1232,
      "permis": 1233,
      "OT": 1234,
      "pres": 1235,
      "\");": 1236,
      "lease": 1237,
      "iddleware": 1238,
      "when": 1239,
      "Now": 1240,
      "cr": 1241,
      "Post": 1242,
      "bs": 1243,
      "201": 1244,
      "last": 1245,
      "Provider": 1246,
      "Load": 1247,
      "gover": 1248,
      "filter": 1249,
      "given": 1250,
      "Found": 1251,
      "ume": 1252,
      "function": 1253,
      "If": 1254,
      "Hel": 1255,
      "www": 1256,
      "send": 1257,
      "Mod": 1258,
      "coder": 1259,
      "etail": 1260,
      "Instance": 1261,
      "Return": 1262,
      "kn": 1263,
      "fake": 1264,
      "Pri": 1265,
      "ca": 1266,
      "yaml": 1267,
      "Min": 1268,
      "ide": 1269,
      "namespace": 1270,
      "RAN": 1271,
      "11": 1272,
      "table": 1273,
      "int32": 1274,
      "Pool": 1275,
      "Ref": 1276,
      "ayer": 1277,
      "AC": 1278,
      "rand": 1279,
      "Action": 1280,
      "inue": 1281,
      "files": 1282,
      "ustom": 1283,
      "Endpoint": 1284,
      "instance": 1285,
      "stat": 1286,
      "ified": 1287,
      "99": 1288,
      "Apache": 1289,
      "ground": 1290,
      "bra": 1291,
      "You": 1292,
      "write": 1293,
      "v2": 1294,
      "uid": 1295,
      "grpc": 1296,
      "Tx": 1297,
      "alph": 1298,
      "Oper": 1299,
      "();": 1300,
      "Channel": 1301,
      "gol": 1302,
      "Job": 1303,
      "next": 1304,
      "Template": 1305,
      "ources": 1306,
      "software": 1307,
      "entity": 1308,
      "100": 1309,
      "pod": 1310,
      "Second": 1311,
      "any": 1312,
      "language": 1313,
      "Values": 1314,
      "Cur": 1315,
      ".(": 1316,
      "content": 1317,
      "sup": 1318,
      "express": 1319,
      "lection": 1320,
      "inst": 1321,
      "ION": 1322,
      "lied": 1323,
      "ANY": 1324,
      "WIT": 1325,
      "ib": 1326,
      "ss": 1327,
      "Validate": 1328,
      "pul": 1329,
      "\"}": 1330,
      "mote": 1331,
      "oriz": 1332,
      "pb": 1333,
      "label": 1334,
      "cobra": 1335,
      "vices": 1336,
      "ither": 1337,
      "Match": 1338,
      "plit": 1339,
      "E_": 1340,
      "number": 1341,
      "storage": 1342,
      "ched": 1343,
      "Project": 1344,
      "generated": 1345,
      "itle": 1346,
      "Policy": 1347,
      "Act": 1348,
      "Unlock": 1349,
      "continue": 1350,
      "rout": 1351,
      "ature": 1352,
      "writing": 1353,
      "invalid": 1354,
      "====": 1355,
      "database": 1356,
      "Number": 1357,
      "Fields": 1358,
      "ename": 1359,
      "obtain": 1360,
      "channel": 1361,
      "WARRAN": 1362,
      "uint32": 1363,
      "either": 1364,
      "olume": 1365,
      "licen": 1366,
      "Has": 1367,
      "repo": 1368,
      "secret": 1369,
      "ogle": 1370,
      "Wait": 1371,
      "stack": 1372,
      "ifier": 1373,
      "way": 1374,
      "Network": 1375,
      "vis": 1376,
      "Pod": 1377,
      "num": 1378,
      "IND": 1379,
      "direct": 1380,
      "cloud": 1381,
      "except": 1382,
      "licenses": 1383,
      "di": 1384,
      "fl": 1385,
      "golang": 1386,
      "header": 1387,
      "ick": 1388,
      "permissions": 1389,
      "template": 1390,
      "close": 1391,
      "Date": 1392,
      "Model": 1393,
      "stamp": 1394,
      "gen": 1395,
      "fields": 1396,
      "Build": 1397,
      "ential": 1398,
      "Ver": 1399,
      "down": 1400,
      "Access": 1401,
      "account": 1402,
      "Role": 1403,
      "sed": 1404,
      "logr": 1405,
      "process": 1406,
      "delete": 1407,
      "Lim": 1408,
      "cryp": 1409,
      "Storage": 1410,
      "ens": 1411,
      "cert": 1412,
      "Num": 1413,
      "Entry": 1414,
      "Order": 1415,
      "ake": 1416,
      "Builder": 1417,
      "orted": 1418,
      "implement": 1419,
      "Description": 1420,
      "ResponseWriter": 1421,
      "doc": 1422,
      "Failed": 1423,
      "fore": 1424,
      "vc": 1425,
      "lib": 1426,
      "Slice": 1427,
      "apache": 1428,
      "other": 1429,
      "plugin": 1430,
      "liance": 1431,
      "Find": 1432,
      "cle": 1433,
      "Exist": 1434,
      "Background": 1435,
      "Ag": 1436,
      "TIES": 1437,
      "RE": 1438,
      "WARRANTIES": 1439,
      "Bool": 1440,
      "200": 1441,
      "Dat": 1442,
      "Controller": 1443,
      "az": 1444,
      "cribe": 1445,
      "HOUT": 1446,
      "WITHOUT": 1447,
      "stream": 1448,
      "13": 1449,
      "ich": 1450,
      "pare": 1451,
      "pic": 1452,
      "Rout": 1453,
      "+=": 1454,
      "Row": 1455,
      "order": 1456,
      "KIND": 1457,
      "vate": 1458,
      "Page": 1459,
      "ee": 1460,
      "Interface": 1461,
      "Work": 1462,
      "was": 1463,
      "ren": 1464,
      "container": 1465,
      "cover": 1466,
      "must": 1467,
      "ments": 1468,
      "Licensed": 1469,
      "river": 1470,
      "It": 1471,
      "sys": 1472,
      "Remove": 1473,
      "endpoint": 1474,
      "Next": 1475,
      "TODO": 1476,
      "air": 1477,
      "umi": 1478,
      "ateg": 1479,
      "odes": 1480,
      "utex": 1481,
      "Process": 1482,
      "Metadata": 1483,
      "cp": 1484,
      "\\\"": 1485,
      "ference": 1486,
      "level": 1487,
      "sel": 1488,
      "Exit": 1489,
      "network": 1490,
      "lector": 1491,
      "met": 1492,
      "AM": 1493,
      "compliance": 1494,
      "du": 1495,
      "reed": 1496,
      "Line": 1497,
      "Password": 1498,
      "Arr": 1499,
      "validate": 1500,
      "Stream": 1501,
      "ipe": 1502,
      "igin": 1503,
      "Internal": 1504,
      "BAS": 1505,
      "have": 1506,
      "`,": 1507,
      "50": 1508,
      "ft": 1509,
      "chain": 1510,
      "Unless": 1511,
      "Kind": 1512,
      "empty": 1513,
      "kube": 1514,
      "Encode": 1515,
      "ero": 1516,
      "24": 1517,
      "limitations": 1518,
      "sumer": 1519,
      "logrus": 1520,
      "80": 1521,
      "redential": 1522,
      "applicable": 1523,
      "job": 1524,
      "pulumi": 1525,
      "math": 1526,
      "Proto": 1527,
      "BASIS": 1528,
      "rece": 1529,
      "ules": 1530,
      "law": 1531,
      "Must": 1532,
      "governing": 1533,
      "git": 1534,
      "implied": 1535,
      "AL": 1536,
      "Container": 1537,
      "tal": 1538,
      "umn": 1539,
      "agreed": 1540,
      "IONS": 1541,
      "sc": 1542,
      "abled": 1543,
      "Invalid": 1544,
      "ines": 1545,
      "CONDIT": 1546,
      "GET": 1547,
      "mark": 1548,
      "known": 1549,
      "payload": 1550,
      "Pos": 1551,
      "CONDITIONS": 1552,
      "}}": 1553,
      "ases": 1554,
      ".(*": 1555,
      "essages": 1556,
      "ie": 1557,
      "Limit": 1558,
      "NotFound": 1559,
      "Should": 1560,
      "domain": 1561,
      "Public": 1562,
      "Root": 1563,
      "DE": 1564,
      "Target": 1565,
      "Connection": 1566,
      "Us": 1567,
      "only": 1568,
      "Registry": 1569,
      "ernet": 1570,
      "Que": 1571,
      "ctrl": 1572,
      "application": 1573,
      "duct": 1574,
      "flow": 1575,
      "etch": 1576,
      "methe": 1577,
      "RO": 1578,
      "metheus": 1579,
      "ating": 1580,
      "tings": 1581,
      "unter": 1582,
      "Decode": 1583,
      "part": 1584,
      "ernetes": 1585,
      "place": 1586,
      "\".": 1587,
      "da": 1588,
      "33": 1589,
      "(`": 1590,
      "lem": 1591,
      "Tri": 1592,
      "page": 1593,
      "UID": 1594,
      "first": 1595,
      "v1alph": 1596,
      "foo": 1597,
      "Names": 1598,
      "temp": 1599,
      "Mo": 1600,
      "password": 1601,
      "ocket": 1602,
      "link": 1603,
      "bre": 1604,
      "connect": 1605,
      "0x2": 1606,
      "Wh": 1607,
      "15": 1608,
      "head": 1609,
      "Rule": 1610,
      "buffer": 1611,
      "post": 1612,
      "itor": 1613,
      "prefix": 1614,
      "resh": 1615,
      "nap": 1616,
      "Can": 1617,
      "repres": 1618,
      "play": 1619,
      "CP": 1620,
      "xml": 1621,
      "pr": 1622,
      "creates": 1623,
      "Record": 1624,
      "lobal": 1625,
      "mary": 1626,
      "ful": 1627,
      "Length": 1628,
      "{{": 1629,
      "Repository": 1630,
      "////////": 1631,
      "crypt": 1632,
      "ification": 1633,
      "kip": 1634,
      "PO": 1635,
      "[:": 1636,
      "Raw": 1637,
      "afe": 1638,
      "fe": 1639,
      "ypes": 1640,
      "Url": 1641,
      "swag": 1642,
      "ia": 1643,
      "Repo": 1644,
      "Link": 1645,
      "TL": 1646,
      "std": 1647,
      "0x4": 1648,
      "google": 1649,
      "actual": 1650,
      "Ent": 1651,
      "which": 1652,
      "NOT": 1653,
      "Usage": 1654,
      "timeout": 1655,
      "sets": 1656,
      "view": 1657,
      "gine": 1658,
      "Ctx": 1659,
      "ally": 1660,
      "Empty": 1661,
      "ployment": 1662,
      "html": 1663,
      "iron": 1664,
      "mb": 1665,
      "pend": 1666,
      "defin": 1667,
      "chr": 1668,
      "ialize": 1669,
      "}()": 1670,
      "cd": 1671,
      "tests": 1672,
      "controller": 1673,
      "connection": 1674,
      ":\",": 1675,
      "Package": 1676,
      "total": 1677,
      "Bad": 1678,
      "Put": 1679,
      "Inf": 1680,
      "now": 1681,
      "break": 1682,
      "Mon": 1683,
      "keys": 1684,
      "aces": 1685,
      "plication": 1686,
      "queue": 1687,
      "metadata": 1688,
      "Point": 1689,
      "Connect": 1690,
      "indow": 1691,
      "Param": 1692,
      "EX": 1693,
      "does": 1694,
      "onent": 1695,
      "dev": 1696,
      "ED": 1697,
      "iter": 1698,
      "configuration": 1699,
      "Assert": 1700,
      "Transaction": 1701,
      "cer": 1702,
      "char": 1703,
      "Split": 1704,
      "cc": 1705,
      "grap": 1706,
      "alth": 1707,
      "Configuration": 1708,
      "uto": 1709,
      "----------------": 1710,
      "PC": 1711,
      "corder": 1712,
      "xx": 1713,
      "zap": 1714,
      ")(": 1715,
      "hook": 1716,
      "crypto": 1717,
      "metrics": 1718,
      "01": 1719,
      "graph": 1720,
      "web": 1721,
      "atter": 1722,
      "Schema": 1723,
      "War": 1724,
      "Bind": 1725,
      "Detail": 1726,
      "So": 1727,
      "thing": 1728,
      "ins": 1729,
      "ped": 1730,
      "Sum": 1731,
      "entry": 1732,
      "into": 1733,
      "Array": 1734,
      "ulti": 1735,
      "formation": 1736,
      "ificate": 1737,
      "Color": 1738,
      "prometheus": 1739,
      "Kub": 1740,
      "self": 1741,
      "Last": 1742,
      "v1alpha1": 1743,
      "V1": 1744,
      "allow": 1745,
      "Float": 1746,
      "binary": 1747,
      "34": 1748,
      "provider": 1749,
      "ging": 1750,
      "shot": 1751,
      "okup": 1752,
      "Require": 1753,
      "Scan": 1754,
      "arr": 1755,
      "Attri": 1756,
      "ude": 1757,
      "pool": 1758,
      "Vi": 1759,
      "vert": 1760,
      "Af": 1761,
      "Conf": 1762,
      "bet": 1763,
      "Device": 1764,
      "access": 1765,
      "Inst": 1766,
      "Domain": 1767,
      "Serve": 1768,
      "ative": 1769,
      "select": 1770,
      "sm": 1771,
      "aim": 1772,
      "example": 1773,
      "napshot": 1774,
      "handle": 1775,
      "XX": 1776,
      "cap": 1777,
      "Plugin": 1778,
      "Stop": 1779,
      "flags": 1780,
      "256": 1781,
      "tmp": 1782,
      "Local": 1783,
      "curity": 1784,
      "fn": 1785,
      "rel": 1786,
      "rc": 1787,
      "dest": 1788,
      "sl": 1789,
      "Volume": 1790,
      "ublish": 1791,
      "30": 1792,
      "cent": 1793,
      "builder": 1794,
      "tool": 1795,
      "Mutex": 1796,
      "color": 1797,
      "ializ": 1798,
      "metav1": 1799,
      "ables": 1800,
      "ING": 1801,
      "ameters": 1802,
      "loc": 1803,
      "generate": 1804,
      "length": 1805,
      "redis": 1806,
      "formats": 1807,
      "SH": 1808,
      "ready": 1809,
      "Bucket": 1810,
      "names": 1811,
      "option": 1812,
      "idth": 1813,
      "rpc": 1814,
      "older": 1815,
      "apis": 1816,
      "igr": 1817,
      "Api": 1818,
      "ev": 1819,
      "sort": 1820,
      "Contains": 1821,
      "ell": 1822,
      "Route": 1823,
      "Queue": 1824,
      "Ptr": 1825,
      "stop": 1826,
      "writer": 1827,
      "0x00": 1828,
      "cancel": 1829,
      "AB": 1830,
      "Req": 1831,
      "Doc": 1832,
      "ender": 1833,
      "Database": 1834,
      "entic": 1835,
      "Fact": 1836,
      "cope": 1837,
      "bit": 1838,
      "rs": 1839,
      "second": 1840,
      "Del": 1841,
      "Types": 1842,
      "achine": 1843,
      "Bin": 1844,
      "Imp": 1845,
      "exists": 1846,
      "manager": 1847,
      "erved": 1848,
      "non": 1849,
      "=\"": 1850,
      "ution": 1851,
      "offset": 1852,
      "ade": 1853,
      "Fr": 1854,
      "********": 1855,
      "ironment": 1856,
      "created": 1857,
      "ian": 1858,
      "router": 1859,
      "find": 1860,
      "ties": 1861,
      "Proper": 1862,
      "safe": 1863,
      "Search": 1864,
      "vision": 1865,
      "=%": 1866,
      "vo": 1867,
      "_name": 1868,
      "expect": 1869,
      "ination": 1870,
      "NS": 1871,
      "Success": 1872,
      "Items": 1873,
      "iff": 1874,
      "some": 1875,
      "Offset": 1876,
      "proxy": 1877,
      "mount": 1878,
      "provi": 1879,
      "middleware": 1880,
      "Enum": 1881,
      "StatusCode": 1882,
      "Opts": 1883,
      "Web": 1884,
      "QL": 1885,
      "filename": 1886,
      "ug": 1887,
      "ateway": 1888,
      ":%": 1889,
      "returned": 1890,
      "Email": 1891,
      "search": 1892,
      "Struct": 1893,
      "Ident": 1894,
      "Metric": 1895,
      "wait": 1896,
      "Resol": 1897,
      "structure": 1898,
      "results": 1899,
      "wg": 1900,
      "success": 1901,
      ".\")": 1902,
      "Commit": 1903,
      "Keys": 1904,
      "Pr": 1905,
      "incl": 1906,
      "Subs": 1907,
      "rest": 1908,
      "Form": 1909,
      ")))": 1910,
      "bl": 1911,
      "protocol": 1912,
      "vm": 1913,
      "Router": 1914,
      "big": 1915,
      "Describe": 1916,
      "Report": 1917,
      "Tags": 1918,
      "Ed": 1919,
      "iver": 1920,
      "proper": 1921,
      "TH": 1922,
      "redentials": 1923,
      "using": 1924,
      "Cond": 1925,
      "Ho": 1926,
      "record": 1927,
      "Created": 1928,
      "Metrics": 1929,
      "40": 1930,
      "lers": 1931,
      "Chain": 1932,
      "register": 1933,
      "rows": 1934,
      "21": 1935,
      "Ste": 1936,
      "dr": 1937,
      "Files": 1938,
      "scan": 1939,
      "0x5": 1940,
      "IL": 1941,
      "tract": 1942,
      "Expected": 1943,
      "Cloud": 1944,
      "origin": 1945,
      "cheme": 1946,
      "ures": 1947,
      "testify": 1948,
      "Proxy": 1949,
      "Entity": 1950,
      "her": 1951,
      "change": 1952,
      "email": 1953,
      "param": 1954,
      "username": 1955,
      "WriteString": 1956,
      "]*": 1957,
      "ency": 1958,
      "mer": 1959,
      "unk": 1960,
      "Deep": 1961,
      "cho": 1962,
      "Location": 1963,
      "Operation": 1964,
      "ifest": 1965,
      "ailable": 1966,
      "Pe": 1967,
      "users": 1968,
      "stret": 1969,
      "slice": 1970,
      "anch": 1971,
      "bucket": 1972,
      "After": 1973,
      "True": 1974,
      "space": 1975,
      "ui": 1976,
      "dock": 1977,
      "Case": 1978,
      "description": 1979,
      "help": 1980,
      "bot": 1981,
      "ECT": 1982,
      "ived": 1983,
      "mux": 1984,
      "there": 1985,
      "gorm": 1986,
      "19": 1987,
      "leted": 1988,
      "stretchr": 1989,
      "license": 1990,
      "Class": 1991,
      "gress": 1992,
      "ServerError": 1993,
      "parent": 1994,
      "Current": 1995,
      "Application": 1996,
      "Short": 1997,
      "otal": 1998,
      "gram": 1999,
      "system": 2000,
      "Stack": 2001,
      "ws": 2002,
      "bar": 2003,
      "gor": 2004,
      "asic": 2005,
      "items": 2006,
      "authoriz": 2007,
      "driver": 2008,
      "bers": 2009,
      "(%": 2010,
      ")),": 2011,
      "'%": 2012,
      "Dial": 2013,
      "tags": 2014,
      "reader": 2015,
      "docker": 2016,
      "tls": 2017,
      "\"\\": 2018,
      "uuid": 2019,
      "ont": 2020,
      "route": 2021,
      "Space": 2022,
      "subs": 2023,
      "ld": 2024,
      "ities": 2025,
      "Sync": 2026,
      "swagger": 2027,
      "vari": 2028,
      "admin": 2029,
      "war": 2030,
      "bute": 2031,
      "idx": 2032,
      "00000000": 2033,
      "sig": 2034,
      "BadRequest": 2035,
      "\"+": 2036,
      "ported": 2037,
      "ank": 2038,
      "Title": 2039,
      "Timestamp": 2040,
      "ility": 2041,
      "InternalServerError": 2042,
      "Watch": 2043,
      "Trim": 2044,
      "CH": 2045,
      "irt": 2046,
      "Generate": 2047,
      "specified": 2048,
      "Profile": 2049,
      "Range": 2050,
      "Head": 2051,
      "svc": 2052,
      ">=": 2053,
      "need": 2054,
      "debug": 2055,
      "Fe": 2056,
      "box": 2057,
      "\"-": 2058,
      "ared": 2059,
      "corev1": 2060,
      "attern": 2061,
      "messages": 2062,
      "events": 2063,
      "CS": 2064,
      "Middleware": 2065,
      "regexp": 2066,
      "__": 2067,
      "yn": 2068,
      "Down": 2069,
      "/%": 2070,
      "Labels": 2071,
      "conds": 2072,
      "View": 2073,
      "StatusOK": 2074,
      "Lookup": 2075,
      "Done": 2076,
      "conc": 2077,
      "mission": 2078,
      "ersist": 2079,
      "lean": 2080,
      "imple": 2081,
      "CO": 2082,
      "</": 2083,
      "Null": 2084,
      "kubernetes": 2085,
      "remote": 2086,
      "Rece": 2087,
      "AD": 2088,
      "0x8": 2089,
      "child": 2090,
      "control": 2091,
      "represents": 2092,
      "Execute": 2093,
      "ift": 2094,
      "role": 2095,
      "SQL": 2096,
      "Agent": 2097,
      "TLS": 2098,
      "let": 2099,
      "Part": 2100,
      "RPC": 2101,
      "pass": 2102,
      "device": 2103,
      "leep": 2104,
      "directory": 2105,
      "public": 2106,
      "custom": 2107,
      "ible": 2108,
      "location": 2109,
      "',": 2110,
      "T_": 2111,
      "watch": 2112,
      "22": 2113,
      "Desc": 2114,
      "Change": 2115,
      "information": 2116,
      "Sched": 2117,
      "mode": 2118,
      "syscall": 2119,
      "14": 2120,
      "tw": 2121,
      "ra": 2122,
      "Batch": 2123,
      "POST": 2124,
      "ason": 2125,
      "Custom": 2126,
      "criptor": 2127,
      "Infof": 2128,
      "consumer": 2129,
      "metric": 2130,
      "impl": 2131,
      "SD": 2132,
      "Total": 2133,
      "Cap": 2134,
      "resources": 2135,
      "srv": 2136,
      "def": 2137,
      "System": 2138,
      "Stats": 2139,
      "Any": 2140,
      "agent": 2141,
      "Interval": 2142,
      "mu": 2143,
      "IG": 2144,
      "UL": 2145,
      "UUID": 2146,
      "atform": 2147,
      "aly": 2148,
      "backend": 2149,
      "Recorder": 2150,
      "WS": 2151,
      "v3": 2152,
      "achin": 2153,
      "wrap": 2154,
      "services": 2155,
      "prev": 2156,
      "ML": 2157,
      "Tim": 2158,
      "element": 2159,
      "ping": 2160,
      "apim": 2161,
      "Listen": 2162,
      "operation": 2163,
      "Byte": 2164,
      "Required": 2165,
      "HER": 2166,
      "provided": 2167,
      "yle": 2168,
      "v4": 2169,
      "mr": 2170,
      "cip": 2171,
      "achinery": 2172,
      "done": 2173,
      "after": 2174,
      "uments": 2175,
      "frame": 2176,
      "Save": 2177,
      "registry": 2178,
      "Obj": 2179,
      "contains": 2180,
      "atest": 2181,
      "ccur": 2182,
      "Allow": 2183,
      "Inc": 2184,
      "\"\")": 2185,
      "(\"[": 2186,
      "parser": 2187,
      "viper": 2188,
      "##": 2189,
      "Ht": 2190,
      "sue": 2191,
      "ical": 2192,
      "Ali": 2193,
      "Exists": 2194,
      "Db": 2195,
      "over": 2196,
      "\":\"": 2197,
      "<=": 2198,
      "gn": 2199,
      "wer": 2200,
      "ategory": 2201,
      "apimachinery": 2202,
      "Reference": 2203,
      "off": 2204,
      "Binary": 2205,
      "abs": 2206,
      "Private": 2207,
      "sec": 2208,
      "Factory": 2209,
      "Push": 2210,
      "pub": 2211,
      "18": 2212,
      "Function": 2213,
      "Fin": 2214,
      "report": 2215,
      "more": 2216,
      "Iter": 2217,
      "encode": 2218,
      "LO": 2219,
      "bind": 2220,
      "module": 2221,
      "Direct": 2222,
      "ten": 2223,
      ")\",": 2224,
      "dst": 2225,
      "Control": 2226,
      "Settings": 2227,
      "vok": 2228,
      "Release": 2229,
      "pg": 2230,
      "Collection": 2231,
      "title": 2232,
      "strfmt": 2233,
      "ster": 2234,
      "nodes": 2235,
      "ension": 2236,
      "0x9": 2237,
      "Replace": 2238,
      "Username": 2239,
      "tcp": 2240,
      "Certificate": 2241,
      "tach": 2242,
      "Rate": 2243,
      "Unix": 2244,
      "Json": 2245,
      "_P": 2246,
      "ise": 2247,
      "Reset": 2248,
      "rule": 2249,
      "Deployment": 2250,
      "Admin": 2251,
      "Packet": 2252,
      "AG": 2253,
      "policy": 2254,
      "}{": 2255,
      "oll": 2256,
      "peer": 2257,
      "anges": 2258,
      "Remote": 2259,
      "Fl": 2260,
      "igger": 2261,
      "ernal": 2262,
      "updated": 2263,
      ".\",": 2264,
      "Column": 2265,
      "implements": 2266,
      "rect": 2267,
      "itions": 2268,
      "labels": 2269,
      "()))": 2270,
      "Product": 2271,
      "========": 2272,
      "Step": 2273,
      "Users": 2274,
      "class": 2275,
      "Insert": 2276,
      "Pointer": 2277,
      "];": 2278,
      "56": 2279,
      "Resp": 2280,
      "One": 2281,
      "board": 2282,
      "covery": 2283,
      "ract": 2284,
      "Skip": 2285,
      "ids": 2286,
      "protobuf": 2287,
      "IM": 2288,
      "could": 2289,
      "Transport": 2290,
      "Bal": 2291,
      "rights": 2292,
      "ward": 2293,
      "packet": 2294,
      "Fake": 2295,
      "ident": 2296,
      "Sup": 2297,
      "Int64": 2298,
      "headers": 2299,
      "ffix": 2300,
      "Counter": 2301,
      "butes": 2302,
      "book": 2303,
      "operator": 2304,
      "Verify": 2305,
      "wt": 2306,
      "UN": 2307,
      "rie": 2308,
      "ique": 2309,
      "lot": 2310,
      "000": 2311,
      "Tree": 2312,
      "ObjectMeta": 2313,
      "ater": 2314,
      "Gr": 2315,
      "EM": 2316,
      "step": 2317,
      "Before": 2318,
      "resol": 2319,
      "Getenv": 2320,
      "Make": 2321,
      "iod": 2322,
      "Details": 2323,
      "ected": 2324,
      "transaction": 2325,
      "reserved": 2326,
      "ptr": 2327,
      "Errors": 2328,
      "irtual": 2329,
      "topic": 2330,
      "apping": 2331,
      "suite": 2332,
      "Module": 2333,
      "patch": 2334,
      "commit": 2335,
      "([]*": 2336,
      "Cal": 2337,
      "tree": 2338,
      "ka": 2339,
      "Height": 2340,
      "global": 2341,
      "zero": 2342,
      "Descriptor": 2343,
      "roker": 2344,
      "First": 2345,
      "Uint": 2346,
      "cted": 2347,
      "].(": 2348,
      "logging": 2349,
      "array": 2350,
      "Gen": 2351,
      "provid": 2352,
      "ority": 2353,
      "CR": 2354,
      "uint8": 2355,
      "Ow": 2356,
      "Region": 2357,
      "private": 2358,
      "Cre": 2359,
      "Element": 2360,
      "plan": 2361,
      "very": 2362,
      "Ph": 2363,
      "tim": 2364,
      "):": 2365,
      "TION": 2366,
      "respon": 2367,
      "ollow": 2368,
      "Memory": 2369,
      "exit": 2370,
      "mongo": 2371,
      "inte": 2372,
      "ances": 2373,
      "repository": 2374,
      "Unknown": 2375,
      "remove": 2376,
      "lines": 2377,
      "wd": 2378,
      "engine": 2379,
      "Redis": 2380,
      "Pipe": 2381,
      "Snapshot": 2382,
      "Sleep": 2383,
      "printf": 2384,
      "THE": 2385,
      "Condition": 2386,
      "cons": 2387,
      "cb": 2388,
      "Enabled": 2389,
      "Cfg": 2390,
      "OS": 2391,
      "ries": 2392,
      "Rand": 2393,
      "gl": 2394,
      "sched": 2395,
      "Nodes": 2396,
      "My": 2397,
      "ota": 2398,
      "Events": 2399,
      "Stderr": 2400,
      "Topic": 2401,
      "null": 2402,
      "istory": 2403,
      "Security": 2404,
      "Http": 2405,
      "IC": 2406,
      "Authors": 2407,
      "cf": 2408,
      "illi": 2409,
      "Suite": 2410,
      "lay": 2411,
      "78": 2412,
      "`)": 2413,
      "Validator": 2414,
      "55": 2415,
      ")).": 2416,
      "][": 2417,
      "Long": 2418,
      "lex": 2419,
      "60": 2420,
      "trace": 2421,
      "ote": 2422,
      "Encoder": 2423,
      "stats": 2424,
      "Identifier": 2425,
      "Plan": 2426,
      "Software": 2427,
      "Org": 2428,
      "available": 2429,
      "Git": 2430,
      "ented": 2431,
      "Right": 2432,
      "before": 2433,
      "ired": 2434,
      "detail": 2435,
      "fetch": 2436,
      "Peer": 2437,
      "Multi": 2438,
      "aa": 2439,
      "tact": 2440,
      "Char": 2441,
      "erra": 2442,
      "dec": 2443,
      "icro": 2444,
      "column": 2445,
      "Sort": 2446,
      "ord": 2447,
      "39": 2448,
      "ek": 2449,
      "Warn": 2450,
      "NewReader": 2451,
      "Example": 2452,
      "top": 2453,
      "Child": 2454,
      "Av": 2455,
      "Br": 2456,
      "URI": 2457,
      "38": 2458,
      "requests": 2459,
      "full": 2460,
      "oy": 2461,
      "sor": 2462,
      "IDs": 2463,
      "document": 2464,
      "each": 2465,
      "openapi": 2466,
      "decode": 2467,
      "signal": 2468,
      "day": 2469,
      ")-": 2470,
      "ench": 2471,
      "Render": 2472,
      "_proto": 2473,
      "_test": 2474,
      "Pair": 2475,
      "been": 2476,
      "Vari": 2477,
      "kind": 2478,
      "ector": 2479,
      "Stdout": 2480,
      "Ip": 2481,
      "Login": 2482,
      "cannot": 2483,
      "0xb": 2484,
      "Temp": 2485,
      "memory": 2486,
      "timestamp": 2487,
      "ae": 2488,
      "mi": 2489,
      "ERR": 2490,
      "Fetch": 2491,
      "pair": 2492,
      "sha": 2493,
      "supported": 2494,
      "Helper": 2495,
      "renc": 2496,
      "zip": 2497,
      "actions": 2498,
      "active": 2499,
      "Results": 2500,
      "where": 2501,
      "rw": 2502,
      "Annot": 2503,
      "bson": 2504,
      "then": 2505,
      "ince": 2506,
      "Rows": 2507,
      "aims": 2508,
      "si": 2509,
      "Component": 2510,
      "Sw": 2511,
      "LE": 2512,
      "TY": 2513,
      "Protocol": 2514,
      "ll": 2515,
      "already": 2516,
      "Append": 2517,
      "StringVar": 2518,
      "ATE": 2519,
      "Price": 2520,
      "ault": 2521,
      "ability": 2522,
      "without": 2523,
      "Worker": 2524,
      "icker": 2525,
      "36": 2526,
      "RES": 2527,
      "card": 2528,
      "HandlerFunc": 2529,
      "erm": 2530,
      "aff": 2531,
      "logs": 2532,
      "EDIT": 2533,
      "2020": 2534,
      "gomock": 2535,
      "batch": 2536,
      "igh": 2537,
      "X_": 2538,
      "Selector": 2539,
      "clean": 2540,
      "%+": 2541,
      "commands": 2542,
      "Have": 2543,
      "Mark": 2544,
      "region": 2545,
      "Amount": 2546,
      "ali": 2547,
      "here": 2548,
      "unsafe": 2549,
      "ned": 2550,
      "0xe": 2551,
      "setup": 2552,
      "cords": 2553,
      "window": 2554,
      "Decoder": 2555,
      "PublicKey": 2556,
      "authorized": 2557,
      "vs": 2558,
      "Trace": 2559,
      "WriteHeader": 2560,
      "Fprintf": 2561,
      "same": 2562,
      "Health": 2563,
      "17": 2564,
      "NewRequest": 2565,
      "erraform": 2566,
      "ization": 2567,
      "Attr": 2568,
      "UD": 2569,
      "existing": 2570,
      "Listener": 2571,
      "AWS": 2572,
      "hex": 2573,
      "amo": 2574,
      "StatusInternalServerError": 2575,
      "Milli": 2576,
      "leg": 2577,
      "Full": 2578,
      "img": 2579,
      "icate": 2580,
      "correct": 2581,
      "fact": 2582,
      "AA": 2583,
      "ious": 2584,
      "wall": 2585,
      "ories": 2586,
      "ormal": 2587,
      "Owner": 2588,
      "game": 2589,
      "Reply": 2590,
      "worker": 2591,
      "ose": 2592,
      "NewClient": 2593,
      "Publish": 2594,
      "spf": 2595,
      "Mer": 2596,
      "your": 2597,
      "errs": 2598,
      "Authoriz": 2599,
      "NO": 2600,
      "Select": 2601,
      "Validation": 2602,
      "Import": 2603,
      "product": 2604,
      "ression": 2605,
      "Returns": 2606,
      "Attribute": 2607,
      "Acc": 2608,
      "Window": 2609,
      "Scheme": 2610,
      "Consumer": 2611,
      "0xd": 2612,
      "ups": 2613,
      "float32": 2614,
      "Execut": 2615,
      "ultip": 2616,
      "uint16": 2617,
      "ton": 2618,
      "okie": 2619,
      "Global": 2620,
      "DeepCopy": 2621,
      "greg": 2622,
      "mbol": 2623,
      "former": 2624,
      "Resources": 2625,
      "echo": 2626,
      "settings": 2627,
      "cm": 2628,
      "umns": 2629,
      "Only": 2630,
      "0xf": 2631,
      "ctions": 2632,
      "Pare": 2633,
      "Persist": 2634,
      "Document": 2635,
      "Fn": 2636,
      "dates": 2637,
      "{}{": 2638,
      "ants": 2639,
      "original": 2640,
      "auto": 2641,
      "position": 2642,
      "medi": 2643,
      "diff": 2644,
      "render": 2645,
      "Clo": 2646,
      "listen": 2647,
      "Summary": 2648,
      "quence": 2649,
      "\",\"": 2650,
      "file_": 2651,
      "running": 2652,
      "aint": 2653,
      "grade": 2654,
      "Parser": 2655,
      "left": 2656,
      "Span": 2657,
      "Scal": 2658,
      "apter": 2659,
      "ccurred": 2660,
      "Engine": 2661,
      "EXP": 2662,
      "ga": 2663,
      "spf13": 2664,
      "component": 2665,
      "called": 2666,
      "idden": 2667,
      "MIT": 2668,
      ":]": 2669,
      "FS": 2670,
      "cos": 2671,
      "cast": 2672,
      "rop": 2673,
      "Backend": 2674,
      "bad": 2675,
      "()),": 2676,
      "velo": 2677,
      "77": 2678,
      "counter": 2679,
      "utdown": 2680,
      "raph": 2681,
      "Defin": 2682,
      "defined": 2683,
      "Credentials": 2684,
      "HandleFunc": 2685,
      "Position": 2686,
      "Machine": 2687,
      "Help": 2688,
      "login": 2689,
      "Pay": 2690,
      "Generator": 2691,
      "Apply": 2692,
      "mos": 2693,
      "KE": 2694,
      "car": 2695,
      "esh": 2696,
      "unexpected": 2697,
      "iler": 2698,
      "SER": 2699,
      "single": 2700,
      "ivity": 2701,
      "0xc": 2702,
      "Gateway": 2703,
      "track": 2704,
      "httptest": 2705,
      "1234": 2706,
      "Signature": 2707,
      "rec": 2708,
      "ings": 2709,
      "health": 2710,
      "Sl": 2711,
      "clo": 2712,
      "sure": 2713,
      "ermin": 2714,
      "ENT": 2715,
      "ToString": 2716,
      "02": 2717,
      "collection": 2718,
      "Idx": 2719,
      "Accept": 2720,
      "ReadAll": 2721,
      "release": 2722,
      "random": 2723,
      "rency": 2724,
      "////////////////": 2725,
      "jwt": 2726,
      "Ne": 2727,
      "Non": 2728,
      "Dest": 2729,
      "dns": 2730,
      "verr": 2731,
      "js": 2732,
      "master": 2733,
      "pipe": 2734,
      "volume": 2735,
      "uri": 2736,
      "Debugf": 2737,
      "255": 2738,
      "beta1": 2739,
      "atom": 2740,
      "bufio": 2741,
      "Category": 2742,
      "Core": 2743,
      "Art": 2744,
      "hello": 2745,
      "parameters": 2746,
      "than": 2747,
      "Impl": 2748,
      "Bl": 2749,
      "parts": 2750,
      "(\"\",": 2751,
      "transport": 2752,
      "Parent": 2753,
      "afka": 2754,
      "profile": 2755,
      "undle": 2756,
      "skip": 2757,
      "arm": 2758,
      "imal": 2759,
      "install": 2760,
      "Basic": 2761,
      "rt": 2762,
      "interval": 2763,
      "gres": 2764,
      "StatusBadRequest": 2765,
      "cul": 2766,
      "Inte": 2767,
      "Script": 2768,
      "adds": 2769,
      "Member": 2770,
      "oci": 2771,
      "missing": 2772,
      "follow": 2773,
      "ient": 2774,
      "txt": 2775,
      "Properties": 2776,
      "Encoding": 2777,
      "2019": 2778,
      "37": 2779,
      "tf": 2780,
      "width": 2781,
      "Headers": 2782,
      "migr": 2783,
      "bal": 2784,
      "reply": 2785,
      "anged": 2786,
      "Manage": 2787,
      "Export": 2788,
      "Cancel": 2789,
      "Auto": 2790,
      "just": 2791,
      "ng": 2792,
      "Identity": 2793,
      "ignore": 2794,
      "zone": 2795,
      "attri": 2796,
      "<<": 2797,
      "DNS": 2798,
      "Parameters": 2799,
      "Directory": 2800,
      "duration": 2801,
      "_S": 2802,
      "kit": 2803,
      "received": 2804,
      "Zero": 2805,
      "Ind": 2806,
      "NotNil": 2807,
      "wr": 2808,
      "helper": 2809,
      "Ok": 2810,
      "Services": 2811,
      "PD": 2812,
      "TypeOf": 2813,
      "44": 2814,
      "span": 2815,
      "Driver": 2816,
      "ReadFile": 2817,
      "Authentic": 2818,
      "Millisecond": 2819,
      "ifact": 2820,
      "scanner": 2821,
      "Schedule": 2822,
      "wise": 2823,
      "Big": 2824,
      "imum": 2825,
      "execut": 2826,
      "Width": 2827,
      "kes": 2828,
      "tools": 2829,
      "ires": 2830,
      "manifest": 2831,
      "Environment": 2832,
      "Mis": 2833,
      "}).": 2834,
      "ized": 2835,
      "Pub": 2836,
      "Install": 2837,
      "atalog": 2838,
      "kv": 2839,
      "codes": 2840,
      "cause": 2841,
      "Ito": 2842,
      "Scope": 2843,
      "Rel": 2844,
      "66": 2845,
      "ducer": 2846,
      "Itoa": 2847,
      "sk": 2848,
      "Lister": 2849,
      "gration": 2850,
      "Active": 2851,
      "_proto_": 2852,
      "scope": 2853,
      "Upload": 2854,
      "ished": 2855,
      "Di": 2856,
      "support": 2857,
      "90": 2858,
      "Dock": 2859,
      "manage": 2860,
      "ached": 2861,
      "Updated": 2862,
      "SS": 2863,
      "height": 2864,
      "environment": 2865,
      "TR": 2866,
      "2021": 2867,
      "Sc": 2868,
      "rix": 2869,
      "Ato": 2870,
      "med": 2871,
      "dep": 2872,
      "validator": 2873,
      "rune": 2874,
      "desc": 2875,
      "Unauthorized": 2876,
      "Rules": 2877,
      "sess": 2878,
      "Kube": 2879,
      "\"%": 2880,
      "Parameter": 2881,
      "Suffix": 2882,
      "member": 2883,
      "Messages": 2884,
      "EOF": 2885,
      "Zone": 2886,
      "star": 2887,
      "deployment": 2888,
      "comm": 2889,
      "lab": 2890,
      "reshold": 2891,
      "Pass": 2892,
      "TCP": 2893,
      "GetString": 2894,
      "CA": 2895,
      "Monitor": 2896,
      "alk": 2897,
      "ROM": 2898,
      "CL": 2899,
      "Operator": 2900,
      "verse": 2901,
      "ampl": 2902,
      "gre": 2903,
      "receiver": 2904,
      "Vis": 2905,
      "Resolver": 2906,
      "Show": 2907,
      "Hook": 2908,
      "Arch": 2909,
      "Compile": 2910,
      "ops": 2911,
      "O_": 2912,
      "style": 2913,
      "brary": 2914,
      "Graph": 2915,
      "VM": 2916,
      "Equals": 2917,
      "Retry": 2918,
      "Patch": 2919,
      "gment": 2920,
      "Kubernetes": 2921,
      "creating": 2922,
      "multi": 2923,
      "Migr": 2924,
      "ao": 2925,
      "usage": 2926,
      "Lower": 2927,
      "latest": 2928,
      "uge": 2929,
      "see": 2930,
      "owner": 2931,
      "amount": 2932,
      "attr": 2933,
      "ause": 2934,
      "unknown": 2935,
      "mysql": 2936,
      "ear": 2937,
      "AND": 2938,
      "Player": 2939,
      "Left": 2940,
      "uler": 2941,
      "123": 2942,
      "enchmark": 2943,
      "Def": 2944,
      "authentic": 2945,
      "oauth": 2946,
      "orp": 2947,
      "serv": 2948,
      "500": 2949,
      "publish": 2950,
      "Docker": 2951,
      "ax": 2952,
      "typ": 2953,
      "s3": 2954,
      "depend": 2955,
      "Endian": 2956,
      "Hello": 2957,
      "fun": 2958,
      "cn": 2959,
      "blob": 2960,
      "det": 2961,
      "base64": 2962,
      "Mount": 2963,
      "script": 2964,
      "s_": 2965,
      "til": 2966,
      "Callback": 2967,
      "push": 2968,
      "FROM": 2969,
      "_type": 2970,
      "docs": 2971,
      "gu": 2972,
      "convert": 2973,
      "Contract": 2974,
      "protoimpl": 2975,
      "Groups": 2976,
      "\"--": 2977,
      "enum": 2978,
      "validation": 2979,
      "accept": 2980,
      "mocks": 2981,
      "itional": 2982,
      "Setup": 2983,
      "subject": 2984,
      "terraform": 2985,
      "Each": 2986,
      "Origin": 2987,
      "unable": 2988,
      "fd": 2989,
      "ets": 2990,
      "Med": 2991,
      "fra": 2992,
      "rules": 2993,
      "0x1": 2994,
      "PrivateKey": 2995,
      "mac": 2996,
      "Virtual": 2997,
      "onents": 2998,
      "callback": 2999,
      "enter": 3000,
      "bsocket": 3001,
      "ategy": 3002,
      "machine": 3003,
      "pi": 3004,
      "Property": 3005,
      "(\"\\": 3006,
      "provides": 3007,
      "andard": 3008,
      "DS": 3009,
      "ycle": 3010,
      "aut": 3011,
      "1000": 3012,
      "atomic": 3013,
      "vey": 3014,
      "acc": 3015,
      "free": 3016,
      "localhost": 3017,
      "properties": 3018,
      "Unit": 3019,
      "Attributes": 3020,
      "split": 3021,
      "Sing": 3022,
      "reference": 3023,
      "mplates": 3024,
      "BeNil": 3025,
      "ssh": 3026,
      "implementation": 3027,
      "}},": 3028,
      "509": 3029,
      "[%": 3030,
      "alle": 3031,
      "conver": 3032,
      "KEY": 3033,
      "Frame": 3034,
      "()).": 3035,
      "Expr": 3036,
      "stdout": 3037,
      "etcd": 3038,
      "Clean": 3039,
      "faces": 3040,
      "apps": 3041,
      "arguments": 3042,
      "07": 3043,
      "rate": 3044,
      "Enable": 3045,
      "acity": 3046,
      "Definition": 3047,
      "tect": 3048,
      "ves": 3049,
      "deploy": 3050,
      "indic": 3051,
      "XXX_": 3052,
      "((*": 3053,
      "eded": 3054,
      "parameter": 3055,
      "42": 3056,
      "ensions": 3057,
      "ynam": 3058,
      "Day": 3059,
      "Occurred": 3060,
      "][]": 3061,
      "insert": 3062,
      "Book": 3063,
      "US": 3064,
      "optional": 3065,
      "35": 3066,
      "ByName": 3067,
      "Attach": 3068,
      "mut": 3069,
      "Where": 3070,
      "show": 3071,
      "Notification": 3072,
      "chunk": 3073,
      "Methods": 3074,
      "Az": 3075,
      "')": 3076,
      "bed": 3077,
      "listener": 3078,
      "ged": 3079,
      "platform": 3080,
      "rf": 3081,
      "Permission": 3082,
      "coin": 3083,
      "ERROR": 3084,
      "Random": 3085,
      "/{": 3086,
      "Track": 3087,
      "0x65": 3088,
      "unique": 3089,
      "HaveOccurred": 3090,
      "Flow": 3091,
      "False": 3092,
      "Layer": 3093,
      "matches": 3094,
      "Common": 3095,
      "player": 3096,
      "Warning": 3097,
      "metry": 3098,
      "48": 3099,
      "ultiple": 3100,
      "Closer": 3101,
      "History": 3102,
      "Author": 3103,
      "0x6f": 3104,
      "2018": 3105,
      "verify": 3106,
      "associ": 3107,
      "Ab": 3108,
      "export": 3109,
      "ugh": 3110,
      "Sys": 3111,
      "two": 3112,
      "Signal": 3113,
      "home": 3114,
      "****************": 3115,
      "Ping": 3116,
      "contract": 3117,
      "assed": 3118,
      "variable": 3119,
      "Pattern": 3120,
      "Gu": 3121,
      "entries": 3122,
      "127": 3123,
      "df": 3124,
      "ower": 3125,
      "Persistent": 3126,
      "Disk": 3127,
      "sn": 3128,
      "lected": 3129,
      "26": 3130,
      "mc": 3131,
      "ily": 3132,
      "04": 3133,
      "irups": 3134,
      "irupsen": 3135,
      "assign": 3136,
      "save": 3137,
      "upload": 3138,
      "objects": 3139,
      "i32": 3140,
      "include": 3141,
      "Cr": 3142,
      "ced": 3143,
      "Manifest": 3144,
      "Optional": 3145,
      "Game": 3146,
      "->": 3147,
      "0xa": 3148,
      "v1beta1": 3149,
      "Display": 3150,
      "_t": 3151,
      "TER": 3152,
      "hether": 3153,
      "based": 3154,
      "Simple": 3155,
      "calls": 3156,
      "disk": 3157,
      "oc": 3158,
      "Trigger": 3159,
      "FF": 3160,
      "HasPrefix": 3161,
      "room": 3162,
      "Socket": 3163,
      "pattern": 3164,
      "Hex": 3165,
      "signature": 3166,
      "Bot": 3167,
      "parsed": 3168,
      "27": 3169,
      "Hub": 3170,
      "Hour": 3171,
      "Runtime": 3172,
      "Vars": 3173,
      "tries": 3174,
      "details": 3175,
      "rootCmd": 3176,
      "Uint64": 3177,
      "ik": 3178,
      "retry": 3179,
      "ha": 3180,
      "Seconds": 3181,
      "Authorization": 3182,
      "long": 3183,
      "TrimSpace": 3184,
      "bb": 3185,
      "ump": 3186,
      "remo": 3187,
      "rieve": 3188,
      "Azure": 3189,
      "simple": 3190,
      "Notify": 3191,
      "9999": 3192,
      "governed": 3193,
      "Workflow": 3194,
      "Provision": 3195,
      "acter": 3196,
      "Elem": 3197,
      "dif": 3198,
      "stmt": 3199,
      "SHA": 3200,
      "Folder": 3201,
      "dig": 3202,
      "println": 3203,
      "ensor": 3204,
      "GO": 3205,
      "micro": 3206,
      "words": 3207,
      "gets": 3208,
      "dc": 3209,
      "rough": 3210,
      "Bit": 3211,
      "Ids": 3212,
      "amples": 3213,
      "Merge": 3214,
      "Panic": 3215,
      "closed": 3216,
      "lemented": 3217,
      "voke": 3218,
      "dial": 3219,
      "helpers": 3220,
      "HTML": 3221,
      "defines": 3222,
      "WithContext": 3223,
      "Over": 3224,
      "x_": 3225,
      "shared": 3226,
      "lear": 3227,
      "priv": 3228,
      "framework": 3229,
      "Note": 3230,
      "gateway": 3231,
      "while": 3232,
      "\"})": 3233,
      "anization": 3234,
      "Reconc": 3235,
      "Encrypt": 3236,
      "fully": 3237,
      "FileName": 3238,
      "allel": 3239,
      "display": 3240,
      "--------------------------------": 3241,
      "Timer": 3242,
      "don": 3243,
      "chat": 3244,
      "short": 3245,
      "bose": 3246,
      "represent": 3247,
      "equal": 3248,
      "lu": 3249,
      "FOR": 3250,
      "_M": 3251,
      "scal": 3252,
      "gh": 3253,
      "Namesp": 3254,
      "credentials": 3255,
      "initializ": 3256,
      "Binding": 3257,
      "monitor": 3258,
      "tele": 3259,
      "ier": 3260,
      "Edit": 3261,
      "Pull": 3262,
      "ling": 3263,
      "curr": 3264,
      "ats": 3265,
      "Reason": 3266,
      "allowed": 3267,
      "cosmos": 3268,
      "LET": 3269,
      "ancer": 3270,
      "snapshot": 3271,
      "Cons": 3272,
      "shift": 3273,
      "otherwise": 3274,
      "31": 3275,
      "58": 3276,
      "ually": 3277,
      "Refresh": 3278,
      "buff": 3279,
      "straint": 3280,
      "vars": 3281,
      "like": 3282,
      "Period": 3283,
      "Could": 3284,
      "V2": 3285,
      "Top": 3286,
      "sole": 3287,
      "EXPECT": 3288,
      "28": 3289,
      "Dig": 3290,
      "Replic": 3291,
      "about": 3292,
      "checks": 3293,
      "cpu": 3294,
      "unit": 3295,
      "groups": 3296,
      "Deploy": 3297,
      "bus": 3298,
      "bidden": 3299,
      "ores": 3300,
      "Ins": 3301,
      "RF": 3302,
      "CPU": 3303,
      "gs": 3304,
      "ween": 3305,
      "poch": 3306,
      "1024": 3307,
      "secure": 3308,
      "Dec": 3309,
      "ummy": 3310,
      "paths": 3311,
      "certificate": 3312,
      "olean": 3313,
      "sample": 3314,
      "Contact": 3315,
      "Into": 3316,
      "reads": 3317,
      "issue": 3318,
      "Issue": 3319,
      "Atoi": 3320,
      "dd": 3321,
      "atures": 3322,
      "ctl": 3323,
      "../": 3324,
      ":\"-": 3325,
      "Minute": 3326,
      "ese": 3327,
      "05": 3328,
      "Iterator": 3329,
      "mq": 3330,
      "draw": 3331,
      "ESS": 3332,
      "MP": 3333,
      "comment": 3334,
      "96": 3335,
      "Aler": 3336,
      "crypted": 3337,
      "_at": 3338,
      "mutex": 3339,
      "unds": 3340,
      "Test_": 3341,
      "UTC": 3342,
      "0x74": 3343,
      "pay": 3344,
      "bound": 3345,
      "Ga": 3346,
      "unmarshal": 3347,
      "Sec": 3348,
      "aded": 3349,
      "FilePath": 3350,
      "apply": 3351,
      "Ign": 3352,
      "enabled": 3353,
      "ilt": 3354,
      "Failure": 3355,
      "Uint32": 3356,
      "tokens": 3357,
      "download": 3358,
      "eries": 3359,
      "Download": 3360,
      "GB": 3361,
      "aced": 3362,
      "webhook": 3363,
      "p2": 3364,
      "Int32": 3365,
      "Pipeline": 3366,
      "Media": 3367,
      "aud": 3368,
      "uses": 3369,
      "s1": 3370,
      "security": 3371,
      "valu": 3372,
      "izer": 3373,
      "Comment": 3374,
      "Execution": 3375,
      "Asset": 3376,
      "gon": 3377,
      "GetName": 3378,
      "tex": 3379,
      "tasks": 3380,
      "broker": 3381,
      "hub": 3382,
      "sible": 3383,
      "ano": 3384,
      "HTTPClient": 3385,
      "socket": 3386,
      "clients": 3387,
      "ured": 3388,
      "_m": 3389,
      "Team": 3390,
      "NAM": 3391,
      "hy": 3392,
      "mpt": 3393,
      "Analy": 3394,
      "aft": 3395,
      "SEL": 3396,
      "Extract": 3397,
      "sq": 3398,
      "Subject": 3399,
      "creen": 3400,
      "sirupsen": 3401,
      "fileName": 3402,
      "passed": 3403,
      "ending": 3404,
      "deleted": 3405,
      "arge": 3406,
      "previous": 3407,
      "whether": 3408,
      "condition": 3409,
      "acer": 3410,
      "Convert": 3411,
      "ServeHTTP": 3412,
      "Vector": 3413,
      "added": 3414,
      "pointer": 3415,
      "Filename": 3416,
      "SIG": 3417,
      "destination": 3418,
      "section": 3419,
      "Running": 3420,
      "Platform": 3421,
      "lin": 3422,
      "ular": 3423,
      "olt": 3424,
      "force": 3425,
      "static": 3426,
      "'\",": 3427,
      "codec": 3428,
      "external": 3429,
      "requ": 3430,
      "rb": 3431,
      "alert": 3432,
      "loop": 3433,
      "they": 3434,
      "person": 3435,
      "MockRecorder": 3436,
      "Destination": 3437,
      "inner": 3438,
      "Depend": 3439,
      "Ready": 3440,
      "Alias": 3441,
      "Mask": 3442,
      "ead": 3443,
      "When": 3444,
      "IR": 3445,
      "nd": 3446,
      "pid": 3447,
      "Logs": 3448,
      "Balance": 3449,
      "VER": 3450,
      "GetAll": 3451,
      "affic": 3452,
      "Assign": 3453,
      "EL": 3454,
      "FA": 3455,
      "S3": 3456,
      "ences": 3457,
      "seconds": 3458,
      "x509": 3459,
      "ByID": 3460,
      "basic": 3461,
      "posal": 3462,
      "changes": 3463,
      "UI": 3464,
      "did": 3465,
      "Allowed": 3466,
      "sb": 3467,
      "Gauge": 3468,
      "e2": 3469,
      "term": 3470,
      "construct": 3471,
      "Mut": 3472,
      "IO": 3473,
      "MS": 3474,
      "AddCommand": 3475,
      "Google": 3476,
      "%#": 3477,
      "contents": 3478,
      "handlers": 3479,
      "enu": 3480,
      "property": 3481,
      "Convey": 3482,
      "reconc": 3483,
      "ToLower": 3484,
      ")}": 3485,
      "boot": 3486,
      "Webhook": 3487,
      "Bus": 3488,
      "generator": 3489,
      "Chunk": 3490,
      "Paths": 3491,
      "Backup": 3492,
      "td": 3493,
      "icle": 3494,
      "ended": 3495,
      "amb": 3496,
      "present": 3497,
      "('": 3498,
      "cases": 3499,
      "doesn": 3500,
      "Subscription": 3501,
      "r0": 3502,
      "reams": 3503,
      "ITY": 3504,
      "cid": 3505,
      "TYP": 3506,
      "currency": 3507,
      "Room": 3508,
      "Expression": 3509,
      "scheme": 3510,
      "analy": 3511,
      "loader": 3512,
      "AccessToken": 3513,
      "following": 3514,
      "rv": 3515,
      "Delay": 3516,
      "uted": 3517,
      "External": 3518,
      "GetUser": 3519,
      "0xff": 3520,
      "adding": 3521,
      "Payment": 3522,
      "Diff": 3523,
      "Mk": 3524,
      "infra": 3525,
      "clude": 3526,
      "47": 3527,
      "esis": 3528,
      "library": 3529,
      "aster": 3530,
      "Single": 3531,
      "BE": 3532,
      "Flush": 3533,
      "pa": 3534,
      "Clear": 3535,
      "Wrapper": 3536,
      "Forbidden": 3537,
      "constants": 3538,
      "sigs": 3539,
      "Unable": 3540,
      "MustCompile": 3541,
      "ErrInvalid": 3542,
      ">>": 3543,
      "?\",": 3544,
      "Logf": 3545,
      "Members": 3546,
      "mask": 3547,
      "{}{}": 3548,
      "verride": 3549,
      "FO": 3550,
      "Round": 3551,
      "ensure": 3552,
      "pag": 3553,
      "v6": 3554,
      "postgres": 3555,
      "HERE": 3556,
      "Li": 3557,
      "side": 3558,
      "cipher": 3559,
      "]\",": 3560,
      "websocket": 3561,
      "again": 3562,
      "because": 3563,
      "NotExist": 3564,
      "cv": 3565,
      "Serialize": 3566,
      "sent": 3567,
      "them": 3568,
      "Gre": 3569,
      "road": 3570,
      "2017": 3571,
      "glog": 3572,
      "ium": 3573,
      "asy": 3574,
      "also": 3575,
      "deep": 3576,
      "Requests": 3577,
      "associated": 3578,
      "pol": 3579,
      "Dev": 3580,
      "RUnlock": 3581,
      "recorder": 3582,
      "termin": 3583,
      "differ": 3584,
      "fut": 3585,
      "UserID": 3586,
      "userID": 3587,
      "Cursor": 3588,
      "DELET": 3589,
      "SELECT": 3590,
      "Claims": 3591,
      "Resolve": 3592,
      "NewBuffer": 3593,
      "tle": 3594,
      "mega": 3595,
      "(\"\")": 3596,
      "Strings": 3597,
      "Pk": 3598,
      "Aggreg": 3599,
      "Aud": 3600,
      "wire": 3601,
      "bc": 3602,
      "branch": 3603,
      "Vec": 3604,
      "program": 3605,
      "uintptr": 3606,
      "':": 3607,
      "Respon": 3608,
      "\\\\": 3609,
      "}),": 3610,
      "criber": 3611,
      "Cases": 3612,
      "Mapping": 3613,
      "Benchmark": 3614,
      "ape": 3615,
      "ness": 3616,
      "Blob": 3617,
      "_key": 3618,
      "ks": 3619,
      "argument": 3620,
      "(-": 3621,
      "implemented": 3622,
      "PR": 3623,
      "Entries": 3624,
      "encies": 3625,
      "interfaces": 3626,
      "LogLevel": 3627,
      "Compare": 3628,
      "eeper": 3629,
      "[][]": 3630,
      ":\"-\"`": 3631,
      "elf": 3632,
      "06": 3633,
      "RLock": 3634,
      "NewDecoder": 3635,
      "Processor": 3636,
      "records": 3637,
      "prob": 3638,
      "encoded": 3639,
      "KV": 3640,
      "SOF": 3641,
      "_C": 3642,
      "irm": 3643,
      "Lif": 3644,
      "upt": 3645,
      "testdata": 3646,
      "amily": 3647,
      "most": 3648,
      "Initialize": 3649,
      "Sender": 3650,
      "WaitGroup": 3651,
      "annot": 3652,
      "inputs": 3653,
      "wantErr": 3654,
      "_D": 3655,
      "():": 3656,
      "merge": 3657,
      "updates": 3658,
      "layer": 3659,
      "SOFT": 3660,
      "idge": 3661,
      "Off": 3662,
      "hostname": 3663,
      "Branch": 3664,
      "TS": 3665,
      "WithError": 3666,
      "Play": 3667,
      "identity": 3668,
      "WARE": 3669,
      "dist": 3670,
      "complete": 3671,
      "ous": 3672,
      "Rol": 3673,
      "ConfigMap": 3674,
      "BU": 3675,
      "ME": 3676,
      "Main": 3677,
      "zz": 3678,
      "Float64": 3679,
      "Wrapf": 3680,
      "gorith": 3681,
      "UDP": 3682,
      "through": 3683,
      "final": 3684,
      "ited": 3685,
      "cce": 3686,
      "29": 3687,
      "beat": 3688,
      "JW": 3689,
      "RS": 3690,
      "ValueOf": 3691,
      "\\\":": 3692,
      "SOFTWARE": 3693,
      "ste": 3694,
      "extract": 3695,
      "real": 3696,
      "methods": 3697,
      "upl": 3698,
      "54": 3699,
      "world": 3700,
      "thereum": 3701,
      "But": 3702,
      "\"].(": 3703,
      "testCase": 3704,
      "capt": 3705,
      "mgr": 3706,
      "0x72": 3707,
      "flux": 3708,
      "Sample": 3709,
      "Cookie": 3710,
      "88": 3711,
      "mid": 3712,
      "delet": 3713,
      "functions": 3714,
      "WHERE": 3715,
      "reason": 3716,
      "ards": 3717,
      "emon": 3718,
      "sume": 3719,
      "pan": 3720,
      "serve": 3721,
      "keep": 3722,
      "Threshold": 3723,
      "Sequence": 3724,
      "Tasks": 3725,
      "alt": 3726,
      "Feed": 3727,
      "execute": 3728,
      "azure": 3729,
      "ynamic": 3730,
      ":\\": 3731,
      "proc": 3732,
      "vol": 3733,
      "team": 3734,
      "ifies": 3735,
      "ORT": 3736,
      "Priority": 3737,
      "instead": 3738,
      "div": 3739,
      "ges": 3740,
      "-%": 3741,
      "DeepEqual": 3742,
      "indicates": 3743,
      "VAL": 3744,
      "win": 3745,
      "stroy": 3746,
      "DELETE": 3747,
      "native": 3748,
      "normal": 3749,
      "Info_": 3750,
      "readResponse": 3751,
      "conditions": 3752,
      "dao": 3753,
      "between": 3754,
      "filePath": 3755,
      "Runner": 3756,
      "pm": 3757,
      "Columns": 3758,
      "Src": 3759,
      "OTHER": 3760,
      "toml": 3761,
      "####": 3762,
      "TAB": 3763,
      "sender": 3764,
      "PRO": 3765,
      ").(": 3766,
      "ision": 3767,
      "Person": 3768,
      "NewMock": 3769,
      "sem": 3770,
      "Times": 3771,
      "hol": 3772,
      "iness": 3773,
      "points": 3774,
      "xxx_": 3775,
      "eth": 3776,
      "OP": 3777,
      "Formatter": 3778,
      "Watcher": 3779,
      "xxx_message": 3780,
      "tl": 3781,
      "acing": 3782,
      "Progress": 3783,
      "suer": 3784,
      "Ignore": 3785,
      "Lat": 3786,
      "uded": 3787,
      "fast": 3788,
      "Codec": 3789,
      "Box": 3790,
      "stderr": 3791,
      "\">": 3792,
      ")]": 3793,
      "price": 3794,
      "untry": 3795,
      "Informer": 3796,
      "Move": 3797,
      "replic": 3798,
      "shall": 3799,
      "components": 3800,
      "Broker": 3801,
      "sv": 3802,
      "filters": 3803,
      "LD": 3804,
      "CID": 3805,
      "Master": 3806,
      "ba": 3807,
      "onsi": 3808,
      "generic": 3809,
      "convey": 3810,
      "MD": 3811,
      "folder": 3812,
      "ipt": 3813,
      "ene": 3814,
      "subscription": 3815,
      "Called": 3816,
      "CE": 3817,
      "ways": 3818,
      "Missing": 3819,
      "adline": 3820,
      "usters": 3821,
      "changed": 3822,
      "Reserved": 3823,
      "ross": 3824,
      "irection": 3825,
      "reading": 3826,
      "0x3": 3827,
      "windows": 3828,
      "king": 3829,
      "2016": 3830,
      "Mkdir": 3831,
      "RW": 3832,
      "multiple": 3833,
      "oid": 3834,
      "Series": 3835,
      "INT": 3836,
      "Once": 3837,
      "backup": 3838,
      "olicies": 3839,
      "Endpoints": 3840,
      "Pop": 3841,
      "Sk": 3842,
      "acy": 3843,
      "Deli": 3844,
      "400": 3845,
      "asset": 3846,
      "Executor": 3847,
      "08": 3848,
      "Abs": 3849,
      "uring": 3850,
      "roll": 3851,
      "Dist": 3852,
      "lat": 3853,
      "plugins": 3854,
      "feed": 3855,
      "different": 3856,
      "bution": 3857,
      "ana": 3858,
      "Ingress": 3859,
      "Defaults": 3860,
      "Begin": 3861,
      "elements": 3862,
      "reset": 3863,
      "Shutdown": 3864,
      "wrong": 3865,
      "ares": 3866,
      "initial": 3867,
      "etc": 3868,
      "symbol": 3869,
      "Fee": 3870,
      "images": 3871,
      "Parallel": 3872,
      "factory": 3873,
      "trigger": 3874,
      "fc": 3875,
      "enable": 3876,
      "ring": 3877,
      "ret0": 3878,
      "Loc": 3879,
      "modules": 3880,
      "Nullable": 3881,
      "unix": 3882,
      "Style": 3883,
      "sim": 3884,
      "================": 3885,
      "dummy": 3886,
      "every": 3887,
      "Prepare": 3888,
      "ceptor": 3889,
      "0x01": 3890,
      "ensus": 3891,
      "Lay": 3892,
      "join": 3893,
      "CreatedAt": 3894,
      "23": 3895,
      "NAME": 3896,
      "gomega": 3897,
      "Bar": 3898,
      "ites": 3899,
      "being": 3900,
      "Used": 3901,
      "Roles": 3902,
      "Sql": 3903,
      "WithTimeout": 3904,
      "times": 3905,
      "lang": 3906,
      "peed": 3907,
      "));": 3908,
      "Subnet": 3909,
      "0000000000000000": 3910,
      "SSH": 3911,
      "CI": 3912,
      "Strategy": 3913,
      "alias": 3914,
      "setting": 3915,
      "EventType": 3916,
      "Extension": 3917,
      "cmp": 3918,
      "iota": 3919,
      "Commands": 3920,
      "Redirect": 3921,
      "istration": 3922,
      "Complete": 3923,
      "Edge": 3924,
      "prec": 3925,
      "iteral": 3926,
      "cleanup": 3927,
      "Ge": 3928,
      "pret": 3929,
      "alloc": 3930,
      "allen": 3931,
      "ashboard": 3932,
      "128": 3933,
      "Since": 3934,
      "Loop": 3935,
      "identifier": 3936,
      "PS": 3937,
      "ai": 3938,
      "gest": 3939,
      "Cli": 3940,
      "Other": 3941,
      "invo": 3942,
      "statusCode": 3943,
      "Keeper": 3944,
      "Collector": 3945,
      "integration": 3946,
      "ather": 3947,
      "ContentType": 3948,
      "operations": 3949,
      "Home": 3950,
      "loaded": 3951,
      "secrets": 3952,
      "/\"": 3953,
      "Statement": 3954,
      "Asso": 3955,
      "includ": 3956,
      "gorithm": 3957,
      "pipeline": 3958,
      "Chart": 3959,
      "Artifact": 3960,
      "a2": 3961,
      "eper": 3962,
      "mesh": 3963,
      ")},": 3964,
      "SC": 3965,
      "bits": 3966,
      "AML": 3967,
      "AndServe": 3968,
      "graphql": 3969,
      "tmpl": 3970,
      "warning": 3971,
      "vault": 3972,
      "period": 3973,
      "ips": 3974,
      "datastore": 3975,
      "what": 3976,
      "IF": 3977,
      "MA": 3978,
      "since": 3979,
      "zon": 3980,
      "pem": 3981,
      "chem": 3982,
      "compute": 3983,
      "Fix": 3984,
      "embed": 3985,
      "Scanner": 3986,
      "Drop": 3987,
      "seed": 3988,
      "routes": 3989,
      "Instances": 3990,
      "Button": 3991,
      "_time": 3992,
      "how": 3993,
      "schedule": 3994,
      "Mux": 3995,
      "attach": 3996,
      "Secrets": 3997,
      "WriteFile": 3998,
      "ives": 3999,
      "CRE": 4000,
      "logy": 4001,
      "selector": 4002,
      "gopkg": 4003,
      "additional": 4004,
      "Feature": 4005,
      "plain": 4006,
      "Available": 4007,
      "wallet": 4008,
      "unch": 4009,
      "parsing": 4010,
      "timer": 4011,
      "Alert": 4012,
      "Sm": 4013,
      "Star": 4014,
      "gp": 4015,
      "ports": 4016,
      "kubebuilder": 4017,
      "mapping": 4018,
      "versions": 4019,
      "cessed": 4020,
      "86": 4021,
      "QU": 4022,
      "lon": 4023,
      "NewServer": 4024,
      "test_": 4025,
      "refresh": 4026,
      "responses": 4027,
      ")\")": 4028,
      "csv": 4029,
      "OAuth": 4030,
      "xxx_messageInfo_": 4031,
      "bt": 4032,
      "permission": 4033,
      "allows": 4034,
      "Lines": 4035,
      "Disable": 4036,
      "ffect": 4037,
      "UP": 4038,
      "templates": 4039,
      "Tests": 4040,
      "bundle": 4041,
      "ambda": 4042,
      "AUT": 4043,
      "ric": 4044,
      "Word": 4045,
      "ULL": 4046,
      "!\")": 4047,
      "klog": 4048,
      "pin": 4049,
      "inc": 4050,
      "strap": 4051,
      "modify": 4052,
      "76": 4053,
      "forms": 4054,
      "crement": 4055,
      "binding": 4056,
      "Chat": 4057,
      "NotTo": 4058,
      "decoder": 4059,
      "Symbol": 4060,
      "ledger": 4061,
      "RGB": 4062,
      "icorp": 4063,
      "ulk": 4064,
      "endpoints": 4065,
      "RFC": 4066,
      "redicate": 4067,
      "0x61": 4068,
      "DeepCopyInto": 4069,
      "serializ": 4070,
      "Producer": 4071,
      "WithFields": 4072,
      "variables": 4073,
      "Using": 4074,
      "sol": 4075,
      "deal": 4076,
      "notify": 4077,
      "ListenAndServe": 4078,
      "chart": 4079,
      "andid": 4080,
      "via": 4081,
      "Credential": 4082,
      "cached": 4083,
      "G_": 4084,
      "s2": 4085,
      "Upgrade": 4086,
      "roadcast": 4087,
      "hi": 4088,
      "coming": 4089,
      "verity": 4090,
      "delay": 4091,
      "::": 4092,
      "Annotations": 4093,
      "BSD": 4094,
      "daemon": 4095,
      "\"],": 4096,
      "ji": 4097,
      "Free": 4098,
      "containers": 4099,
      "ILITY": 4100,
      "pet": 4101,
      "sues": 4102,
      "(\".": 4103,
      "umes": 4104,
      "actor": 4105,
      "Logging": 4106,
      "Discovery": 4107,
      "Latest": 4108,
      "lite": 4109,
      "persist": 4110,
      "come": 4111,
      "crib": 4112,
      "Shared": 4113,
      "10000": 4114,
      "kafka": 4115,
      "Normal": 4116,
      "fw": 4117,
      "children": 4118,
      "Nano": 4119,
      "...\")": 4120,
      "Score": 4121,
      "pp": 4122,
      "adapter": 4123,
      "extension": 4124,
      "attemp": 4125,
      "ithy": 4126,
      "Decl": 4127,
      "hashicorp": 4128,
      "Annotation": 4129,
      "Card": 4130,
      "Fprintln": 4131,
      "PUT": 4132,
      "once": 4133,
      "stri": 4134,
      "Activity": 4135,
      "started": 4136,
      "r1": 4137,
      "Seq": 4138,
      "UB": 4139,
      "might": 4140,
      "thread": 4141,
      "icon": 4142,
      "Generic": 4143,
      "JWT": 4144,
      "Associ": 4145,
      "Regexp": 4146,
      "testutil": 4147,
      "structured": 4148,
      "BigEndian": 4149,
      "09": 4150,
      "Termin": 4151,
      "abo": 4152,
      "syn": 4153,
      "light": 4154,
      "Receiver": 4155,
      "tar": 4156,
      "claims": 4157,
      "calcul": 4158,
      "archive": 4159,
      "abc": 4160,
      "failure": 4161,
      "BoolVar": 4162,
      "cy": 4163,
      "pull": 4164,
      "tm": 4165,
      "ecycle": 4166,
      "ava": 4167,
      "handles": 4168,
      "writes": 4169,
      "Pods": 4170,
      "cop": 4171,
      "clientset": 4172,
      "Transfer": 4173,
      "lookup": 4174,
      "/\",": 4175,
      "inator": 4176,
      "lict": 4177,
      "cursor": 4178,
      "expr": 4179,
      "front": 4180,
      "0x73": 4181,
      "_B": 4182,
      "Stmt": 4183,
      "Static": 4184,
      "Stage": 4185,
      "Language": 4186,
      "ethereum": 4187,
      "itter": 4188,
      "Records": 4189,
      "until": 4190,
      "feature": 4191,
      "bor": 4192,
      "den": 4193,
      "hs": 4194,
      "ving": 4195,
      "}))": 4196,
      "idget": 4197,
      "Versions": 4198,
      "Prev": 4199,
      "Async": 4200,
      "123456": 4201,
      "Mail": 4202,
      "dt": 4203,
      "Except": 4204,
      "Managed": 4205,
      "c2": 4206,
      "itude": 4207,
      "arg0": 4208,
      "iration": 4209,
      "peri": 4210,
      "Children": 4211,
      "Ke": 4212,
      "ely": 4213,
      "starting": 4214,
      "instances": 4215,
      "Tick": 4216,
      "Rest": 4217,
      "Ten": 4218,
      "written": 4219,
      "cogn": 4220,
      "Coin": 4221,
      "notice": 4222,
      "emit": 4223,
      "primary": 4224,
      "structs": 4225,
      "execution": 4226,
      "49": 4227,
      "Kafka": 4228,
      "txn": 4229,
      "retri": 4230,
      "getting": 4231,
      "Shard": 4232,
      "Hosts": 4233,
      "Primary": 4234,
      "Pag": 4235,
      "Upper": 4236,
      "Objects": 4237,
      "signed": 4238,
      "attribute": 4239,
      "Idle": 4240,
      "vide": 4241,
      "ShouldEqual": 4242,
      "replace": 4243,
      "shutdown": 4244,
      "Unique": 4245,
      "53": 4246,
      "cep": 4247,
      "Den": 4248,
      "Roll": 4249,
      "pu": 4250,
      "Segment": 4251,
      "collect": 4252,
      "Tokens": 4253,
      "testAcc": 4254,
      "Compute": 4255,
      "Hostname": 4256,
      "chron": 4257,
      "ys": 4258,
      "Archive": 4259,
      "dp": 4260,
      "boolean": 4261,
      "anted": 4262,
      "cape": 4263,
      "Fire": 4264,
      "Conver": 4265,
      "extra": 4266,
      "flat": 4267,
      "Aut": 4268,
      "x00": 4269,
      "ferences": 4270,
      "?,": 4271,
      "FIL": 4272,
      "NewT": 4273,
      "MarshalJSON": 4274,
      "Variable": 4275,
      "CLI": 4276,
      "cat": 4277,
      "encoder": 4278,
      "contact": 4279,
      "begin": 4280,
      "Rune": 4281,
      "Routes": 4282,
      "Section": 4283,
      "verbose": 4284,
      "vals": 4285,
      "prof": 4286,
      "0x70": 4287,
      "((": 4288,
      "dump": 4289,
      "site": 4290,
      "encrypt": 4291,
      "bee": 4292,
      "keeper": 4293,
      "columns": 4294,
      "Claim": 4295,
      "author": 4296,
      "Place": 4297,
      "diag": 4298,
      "enar": 4299,
      "expression": 4300,
      "cookie": 4301,
      "NewInt": 4302,
      "smithy": 4303,
      "fy": 4304,
      "Extra": 4305,
      "Age": 4306,
      "gorout": 4307,
      "Transform": 4308,
      "Organization": 4309,
      "IB": 4310,
      "XML": 4311,
      "tick": 4312,
      "supp": 4313,
      "la": 4314,
      "Catalog": 4315,
      "Const": 4316,
      "Checker": 4317,
      "SDK": 4318,
      "sha256": 4319,
      "Util": 4320,
      "ticker": 4321,
      "}\",": 4322,
      "Unexpected": 4323,
      "ServiceName": 4324,
      "White": 4325,
      "remain": 4326,
      "Namespaced": 4327,
      "hu": 4328,
      "Setting": 4329,
      "45": 4330,
      "NULL": 4331,
      "Wall": 4332,
      "means": 4333,
      "logic": 4334,
      "IsNil": 4335,
      "cepted": 4336,
      "dl": 4337,
      "lan": 4338,
      "recover": 4339,
      "etion": 4340,
      "irc": 4341,
      "pods": 4342,
      "jobs": 4343,
      "YAML": 4344,
      "such": 4345,
      "these": 4346,
      "udp": 4347,
      "discovery": 4348,
      "controllers": 4349,
      "Bundle": 4350,
      "K8s": 4351,
      "LL": 4352,
      "MAC": 4353,
      "PAT": 4354,
      "matrix": 4355,
      "ven": 4356,
      "uber": 4357,
      "NewEncoder": 4358,
      "specify": 4359,
      "EncodeToString": 4360,
      "look": 4361,
      "their": 4362,
      "Standard": 4363,
      "ErrorResponse": 4364,
      "resolver": 4365,
      "Self": 4366,
      "0x69": 4367,
      "Pres": 4368,
      "hip": 4369,
      "upgrade": 4370,
      "stored": 4371,
      "8080": 4372,
      "Quest": 4373,
      "allenge": 4374,
      "above": 4375,
      "Constraint": 4376,
      "caller": 4377,
      "Finish": 4378,
      "None": 4379,
      "TTL": 4380,
      "]))": 4381,
      "helm": 4382,
      "Tw": 4383,
      "sar": 4384,
      "Dep": 4385,
      "note": 4386,
      "balance": 4387,
      "representation": 4388,
      "Matcher": 4389,
      "{{.": 4390,
      "catalog": 4391,
      "sequence": 4392,
      "GroupVersion": 4393,
      "RWMutex": 4394,
      "dm": 4395,
      "TypeMeta": 4396,
      "0x2e": 4397,
      "\"])": 4398,
      "dn": 4399,
      "Contents": 4400,
      "ALL": 4401,
      "uit": 4402,
      "nonce": 4403,
      "404": 4404,
      "attributes": 4405,
      "oauth2": 4406,
      "abil": 4407,
      "Ports": 4408,
      "Bits": 4409,
      "Emit": 4410,
      "Addresses": 4411,
      "Proposal": 4412,
      "Rights": 4413,
      "connections": 4414,
      "holds": 4415,
      "fire": 4416,
      "elast": 4417,
      "\"/\"": 4418,
      "Epoch": 4419,
      "elem": 4420,
      "yun": 4421,
      "qr": 4422,
      "erver": 4423,
      "too": 4424,
      "servers": 4425,
      "registered": 4426,
      "score": 4427,
      "compil": 4428,
      "wrapper": 4429,
      "Are": 4430,
      "OUT": 4431,
      "edge": 4432,
      "ConfigFile": 4433,
      "Alloc": 4434,
      "Clone": 4435,
      "GP": 4436,
      "Got": 4437,
      "Mat": 4438,
      "gc": 4439,
      "Signer": 4440,
      "PersistentFlags": 4441,
      "Authentication": 4442,
      "copies": 4443,
      "within": 4444,
      "duce": 4445,
      "contri": 4446,
      "blocks": 4447,
      "CD": 4448,
      "bos": 4449,
      "uman": 4450,
      "CK": 4451,
      "Pan": 4452,
      "Walk": 4453,
      "labs": 4454,
      "gers": 4455,
      "Handlers": 4456,
      "sa": 4457,
      "xture": 4458,
      "Adapter": 4459,
      "illa": 4460,
      "Priv": 4461,
      "authentication": 4462,
      "Sn": 4463,
      "Syn": 4464,
      "\\\"%": 4465,
      "ality": 4466,
      "REST": 4467,
      "rase": 4468,
      "runner": 4469,
      "Regex": 4470,
      "Dr": 4471,
      "Sprint": 4472,
      "END": 4473,
      "Keep": 4474,
      ":])": 4475,
      "Inv": 4476,
      "odo": 4477,
      "indexer": 4478,
      "members": 4479,
      "rsp": 4480,
      "}/": 4481,
      "Decrypt": 4482,
      "Boot": 4483,
      "copyright": 4484,
      "59": 4485,
      "prepare": 4486,
      "\"/\")": 4487,
      "MethodGet": 4488,
      "provision": 4489,
      "Partition": 4490,
      "scheduler": 4491,
      "gzip": 4492,
      "asure": 4493,
      "orig": 4494,
      "entities": 4495,
      "Signing": 4496,
      "virtual": 4497,
      "NewGet": 4498,
      "antity": 4499,
      "Closed": 4500,
      "Transl": 4501,
      "Received": 4502,
      "Sink": 4503,
      "pn": 4504,
      "Deleted": 4505,
      "TableName": 4506,
      "79": 4507,
      "Stub": 4508,
      "amaz": 4509,
      "layout": 4510,
      "Swap": 4511,
      "Scale": 4512,
      "retriev": 4513,
      "Subscribe": 4514,
      "media": 4515,
      "category": 4516,
      "soft": 4517,
      "appro": 4518,
      "workspace": 4519,
      "Modify": 4520,
      "needs": 4521,
      "determin": 4522,
      "stores": 4523,
      "uni": 4524,
      "Answ": 4525,
      "extensions": 4526,
      "slack": 4527,
      "Micro": 4528,
      "fm": 4529,
      "sock": 4530,
      "workflow": 4531,
      "LIAB": 4532,
      "holder": 4533,
      "Balancer": 4534,
      "discord": 4535,
      "scale": 4536,
      "WR": 4537,
      "Destroy": 4538,
      "GroupName": 4539,
      "openshift": 4540,
      "Mongo": 4541,
      "ov": 4542,
      "Red": 4543,
      "todo": 4544,
      "elastic": 4545,
      "SET": 4546,
      "depth": 4547,
      "Workspace": 4548,
      "AUTH": 4549,
      "ErrNo": 4550,
      "Loader": 4551,
      "develo": 4552,
      "Caller": 4553,
      "gitlab": 4554,
      ".%": 4555,
      "PK": 4556,
      "mint": 4557,
      "Images": 4558,
      "tenant": 4559,
      "Cry": 4560,
      "EV": 4561,
      "har": 4562,
      "t1": 4563,
      "another": 4564,
      "initialize": 4565,
      "Blocks": 4566,
      "Exception": 4567,
      "Family": 4568,
      "retrieve": 4569,
      "Quote": 4570,
      "Front": 4571,
      "amazon": 4572,
      "ky": 4573,
      "Percent": 4574,
      "screen": 4575,
      "osite": 4576,
      "built": 4577,
      "Proof": 4578,
      "Mapper": 4579,
      "FromString": 4580,
      "tab": 4581,
      "General": 4582,
      "Layout": 4583,
      "gg": 4584,
      "shard": 4585,
      "Stdin": 4586,
      "IsZero": 4587,
      "ixel": 4588,
      "Phone": 4589,
      "tics": 4590,
      "verage": 4591,
      "Detect": 4592,
      "Nonce": 4593,
      "/:": 4594,
      "/**": 4595,
      "ital": 4596,
      "istics": 4597,
      "endor": 4598,
      "Updates": 4599,
      "LIMIT": 4600,
      "abilities": 4601,
      "0x6e": 4602,
      "channels": 4603,
      "prom": 4604,
      "TestGet": 4605,
      "Modified": 4606,
      "accounts": 4607,
      "privateKey": 4608,
      ":],": 4609,
      "Weight": 4610,
      "havi": 4611,
      "Rat": 4612,
      "UM": 4613,
      "arg1": 4614,
      "StartTime": 4615,
      "Pending": 4616,
      "artbeat": 4617,
      "Side": 4618,
      "Vault": 4619,
      "history": 4620,
      "separ": 4621,
      "compat": 4622,
      "Thread": 4623,
      "desired": 4624,
      "PubKey": 4625,
      "GC": 4626,
      "kubeconfig": 4627,
      "included": 4628,
      "watcher": 4629,
      "happ": 4630,
      "mm": 4631,
      "sis": 4632,
      "tg": 4633,
      "Discard": 4634,
      "transfer": 4635,
      "Links": 4636,
      "Points": 4637,
      "Rpc": 4638,
      "pq": 4639,
      "ention": 4640,
      "uple": 4641,
      "TypeString": 4642,
      "connected": 4643,
      "Signed": 4644,
      "links": 4645,
      "Dump": 4646,
      "Configs": 4647,
      "authorization": 4648,
      "deepcopy": 4649,
      "Sig": 4650,
      "hc": 4651,
      "uble": 4652,
      "Poll": 4653,
      "inline": 4654,
      "defaults": 4655,
      "flush": 4656,
      "center": 4657,
      "Capacity": 4658,
      "PAR": 4659,
      "cred": 4660,
      "Information": 4661,
      "Deleg": 4662,
      "umb": 4663,
      "UnmarshalJSON": 4664,
      "definition": 4665,
      "Customer": 4666,
      "03": 4667,
      "_ST": 4668,
      "partition": 4669,
      "Geo": 4670,
      "always": 4671,
      "resolve": 4672,
      "Site": 4673,
      "iface": 4674,
      "console": 4675,
      "Month": 4676,
      "letter": 4677,
      "Draw": 4678,
      "client_": 4679,
      "sf": 4680,
      "Inject": 4681,
      "Changes": 4682,
      "Anything": 4683,
      "Deadline": 4684,
      "pose": 4685,
      "artifact": 4686,
      "Connector": 4687,
      "Relation": 4688,
      "Pol": 4689,
      "V4": 4690,
      "bf": 4691,
      "high": 4692,
      "zer": 4693,
      "cribes": 4694,
      "+\"": 4695,
      "notification": 4696,
      "Filters": 4697,
      "Digest": 4698,
      "_token": 4699,
      "dot": 4700,
      "sav": 4701,
      "istic": 4702,
      "Foo": 4703,
      "Jobs": 4704,
      "Literal": 4705,
      "Slot": 4706,
      "V3": 4707,
      "collector": 4708,
      "Containers": 4709,
      "2006": 4710,
      "Hist": 4711,
      "Lit": 4712,
      "ship": 4713,
      "Some": 4714,
      "plane": 4715,
      "Abort": 4716,
      "drop": 4717,
      "ErrorCode": 4718,
      "lying": 4719,
      "EST": 4720,
      "suffix": 4721,
      "0x2f": 4722,
      "successfully": 4723,
      "Menu": 4724,
      "hdr": 4725,
      "Stri": 4726,
      "both": 4727,
      "Phase": 4728,
      "takes": 4729,
      "sending": 4730,
      "RING": 4731,
      "na": 4732,
      "pf": 4733,
      "ze": 4734,
      "live": 4735,
      "management": 4736,
      "Pkg": 4737,
      "CREATE": 4738,
      "Es": 4739,
      "Sol": 4740,
      "SPD": 4741,
      "Tool": 4742,
      "\"<": 4743,
      "Clock": 4744,
      "Cell": 4745,
      "selected": 4746,
      "coord": 4747,
      "Rect": 4748,
      "ifications": 4749,
      "msgs": 4750,
      "hosts": 4751,
      "priority": 4752,
      "Emb": 4753,
      "ystem": 4754,
      "deli": 4755,
      "queries": 4756,
      "Quota": 4757,
      "telemetry": 4758,
      "57": 4759,
      "ingress": 4760,
      "Consume": 4761,
      "namesp": 4762,
      "CC": 4763,
      "USE": 4764,
      "vector": 4765,
      "standard": 4766,
      "Proc": 4767,
      "dater": 4768,
      "Permis": 4769,
      "Integration": 4770,
      "forward": 4771,
      "usr": 4772,
      "mitive": 4773,
      "autom": 4774,
      ")[": 4775,
      "ony": 4776,
      "testCases": 4777,
      "Unary": 4778,
      "Forward": 4779,
      "possible": 4780,
      "answer": 4781,
      "Aws": 4782,
      "tech": 4783,
      "Support": 4784,
      ")*": 4785,
      "Vide": 4786,
      "ros": 4787,
      "TypeName": 4788,
      "weight": 4789,
      "subnet": 4790,
      "46": 4791,
      "unnel": 4792,
      "Genesis": 4793,
      "PL": 4794,
      "ER_": 4795,
      "SPDX": 4796,
      "heet": 4797,
      "UserId": 4798,
      "IPv4": 4799,
      "clear": 4800,
      "capacity": 4801,
      ".*": 4802,
      "_group": 4803,
      "segment": 4804,
      "criptions": 4805,
      "Connections": 4806,
      "Embed": 4807,
      "nol": 4808,
      "packages": 4809,
      "maximum": 4810,
      "needed": 4811,
      "character": 4812,
      "jo": 4813,
      "lr": 4814,
      "who": 4815,
      "_1": 4816,
      "customer": 4817,
      "Power": 4818,
      "Sco": 4819,
      "tb": 4820,
      "aging": 4821,
      "ClientResponse": 4822,
      "finished": 4823,
      "autogenerated": 4824,
      "FI": 4825,
      "ServiceClient": 4826,
      "ACK": 4827,
      "integer": 4828,
      "consul": 4829,
      "a3": 4830,
      "producer": 4831,
      "Reconciler": 4832,
      "Cid": 4833,
      "Sent": 4834,
      "please": 4835,
      "\",\")": 4836,
      "Seed": 4837,
      "proto3": 4838,
      "matching": 4839,
      "matched": 4840,
      "ffic": 4841,
      "Tenant": 4842,
      "kgo": 4843,
      "invok": 4844,
      "ons": 4845,
      "cha": 4846,
      "acters": 4847,
      "Collect": 4848,
      "Actions": 4849,
      "rcv": 4850,
      "Cip": 4851,
      "cols": 4852,
      "probe": 4853,
      "Scheduler": 4854,
      "Integer": 4855,
      "'\\": 4856,
      "iam": 4857,
      "Sets": 4858,
      "89": 4859,
      "utf": 4860,
      "tos": 4861,
      "Ts": 4862,
      "errChan": 4863,
      "Recv": 4864,
      "ListOptions": 4865,
      "rawDesc": 4866,
      "_proto_rawDesc": 4867,
      "seq": 4868,
      "requested": 4869,
      "addresses": 4870,
      "cell": 4871,
      "ders": 4872,
      "Final": 4873,
      "SecurityGroup": 4874,
      "fab": 4875,
      "oss": 4876,
      "Traffic": 4877,
      "Trip": 4878,
      "ti": 4879,
      "otes": 4880,
      "perform": 4881,
      "mongodb": 4882,
      "initialized": 4883,
      "rm": 4884,
      "stor": 4885,
      "IsNotExist": 4886,
      "Wallet": 4887,
      "]),": 4888,
      "clock": 4889,
      "nost": 4890,
      "is_": 4891,
      "regex": 4892,
      "Arn": 4893,
      "migration": 4894,
      "12345678": 4895,
      "ilds": 4896,
      "Program": 4897,
      "clone": 4898,
      "FlagSet": 4899,
      "MkdirAll": 4900,
      "+\"/": 4901,
      "fp": 4902,
      "compress": 4903,
      "ificates": 4904,
      "positories": 4905,
      "Term": 4906,
      "fee": 4907,
      "pology": 4908,
      "***": 4909,
      "filtered": 4910,
      "FormValue": 4911,
      "Calcul": 4912,
      "nolint": 4913,
      "runs": 4914,
      "EXT": 4915,
      "63": 4916,
      "Pin": 4917,
      "Invoke": 4918,
      "disable": 4919,
      "EnvVar": 4920,
      "Year": 4921,
      "gard": 4922,
      "uch": 4923,
      "Revision": 4924,
      "Try": 4925,
      "pending": 4926,
      "c1": 4927,
      "rror": 4928,
      "ama": 4929,
      "////////////////////////////////": 4930,
      "progress": 4931,
      "Expire": 4932,
      "RESS": 4933,
      "vv": 4934,
      "aggreg": 4935,
      "IsValid": 4936,
      "Cannot": 4937,
      ",\"": 4938,
      "uc": 4939,
      "orary": 4940,
      "ically": 4941,
      "leases": 4942,
      "Force": 4943,
      "Issuer": 4944,
      "lower": 4945,
      "rep": 4946,
      "arer": 4947,
      "claim": 4948,
      "compare": 4949,
      "pher": 4950,
      "Indent": 4951,
      "_url": 4952,
      "s0": 4953,
      "ones": 4954,
      "Prometheus": 4955,
      "Svc": 4956,
      "ginkgo": 4957,
      "vas": 4958,
      "0x12": 4959,
      "configured": 4960,
      "0x02": 4961,
      "\"*": 4962,
      "power": 4963,
      "angle": 4964,
      "md5": 4965,
      "Share": 4966,
      "creation": 4967,
      "charset": 4968,
      "rsa": 4969,
      "Attachment": 4970,
      "Cron": 4971,
      "Less": 4972,
      "SM": 4973,
      "Aggregate": 4974,
      "sco": 4975,
      "assets": 4976,
      "Coord": 4977,
      "Getter": 4978,
      "Servers": 4979,
      "Infos": 4980,
      "clus": 4981,
      "Ops": 4982,
      "RemoveAll": 4983,
      "periment": 4984,
      "Wr": 4985,
      "TestCheck": 4986,
      "StatusNotFound": 4987,
      "during": 4988,
      "peat": 4989,
      "delta": 4990,
      "Starting": 4991,
      "Cleanup": 4992,
      "Fat": 4993,
      "tk": 4994,
      "geo": 4995,
      "Started": 4996,
      "MQ": 4997,
      "Subscriber": 4998,
      "stub": 4999,
      "curs": 5000,
      "iterator": 5001,
      "WithField": 5002,
      "CHAN": 5003,
      "Capt": 5004,
      "UnixNano": 5005,
      "Mesh": 5006,
      "Ns": 5007,
      "_RE": 5008,
      "Market": 5009,
      "StringPtr": 5010,
      "AV": 5011,
      "CF": 5012,
      "configs": 5013,
      "TestSuite": 5014,
      "IsDir": 5015,
      "roles": 5016,
      "GRPC": 5017,
      "jor": 5018,
      "errupt": 5019,
      "edit": 5020,
      "alln": 5021,
      "Channels": 5022,
      "decimal": 5023,
      "Video": 5024,
      "Mi": 5025,
      "bd": 5026,
      "incip": 5027,
      "issues": 5028,
      "startTime": 5029,
      "TX": 5030,
      "ading": 5031,
      "redirect": 5032,
      "0x0a": 5033,
      "Diag": 5034,
      "bolt": 5035,
      "vpc": 5036,
      "userId": 5037,
      "transform": 5038,
      "UnmarshalBinary": 5039,
      "enario": 5040,
      "Dim": 5041,
      "Streams": 5042,
      "Cho": 5043,
      "ById": 5044,
      "slot": 5045,
      "adog": 5046,
      "named": 5047,
      "Ensure": 5048,
      "ventory": 5049,
      "including": 5050,
      "Fatalln": 5051,
      "Github": 5052,
      "eval": 5053,
      "ogram": 5054,
      "{}).": 5055,
      "currently": 5056,
      "OpenFile": 5057,
      "CoreV1": 5058,
      "payment": 5059,
      "Cipher": 5060,
      "Ama": 5061,
      "Mgr": 5062,
      "ressed": 5063,
      "Perm": 5064,
      "clusterName": 5065,
      "something": 5066,
      "ios": 5067,
      "ACL": 5068,
      "Character": 5069,
      "Exchange": 5070,
      "ec2": 5071,
      "chemas": 5072,
      "Evalu": 5073,
      "hour": 5074,
      "NewRecorder": 5075,
      "inject": 5076,
      "api_": 5077,
      "initions": 5078,
      "Accounts": 5079,
      "cost": 5080,
      "Real": 5081,
      "ectl": 5082,
      "Leader": 5083,
      "describes": 5084,
      "relation": 5085,
      "TempDir": 5086,
      "TYPE_": 5087,
      "against": 5088,
      "amer": 5089,
      "MarshalBinary": 5090,
      "provide": 5091,
      "providers": 5092,
      "sal": 5093,
      "tected": 5094,
      "Interceptor": 5095,
      "hyper": 5096,
      "CIDR": 5097,
      "Rollback": 5098,
      "Amazon": 5099,
      ">\",": 5100,
      "Ack": 5101,
      "Sug": 5102,
      "300": 5103,
      "Fs": 5104,
      "]+": 5105,
      "lif": 5106,
      "series": 5107,
      "user_id": 5108,
      "ParseInt": 5109,
      "ibility": 5110,
      "Conditions": 5111,
      "512": 5112,
      "Equ": 5113,
      "bm": 5114,
      "lier": 5115,
      "many": 5116,
      "Currency": 5117,
      "alled": 5118,
      "Invo": 5119,
      "ifiers": 5120,
      "Submit": 5121,
      "1111": 5122,
      "Creator": 5123,
      "Answer": 5124,
      "Os": 5125,
      "WOR": 5126,
      "baz": 5127,
      "wares": 5128,
      "devices": 5129,
      "RunE": 5130,
      "ShouldBeNil": 5131,
      "gonic": 5132,
      "BUG": 5133,
      "LY": 5134,
      "Pho": 5135,
      "rd": 5136,
      "aba": 5137,
      "Changed": 5138,
      "Succe": 5139,
      "Week": 5140,
      "Switch": 5141,
      "sessions": 5142,
      "digest": 5143,
      "Permissions": 5144,
      "A_": 5145,
      "ble": 5146,
      "button": 5147,
      "Decimal": 5148,
      "wf": 5149,
      "Activ": 5150,
      "Fixed": 5151,
      "\"$": 5152,
      "Cost": 5153,
      "linux": 5154,
      "USER": 5155,
      "inv": 5156,
      "moji": 5157,
      "prompt": 5158,
      "ORS": 5159,
      "transl": 5160,
      "receive": 5161,
      "market": 5162,
      "Receive": 5163,
      "sorted": 5164,
      "lev": 5165,
      "Country": 5166,
      "processing": 5167,
      "Uint16": 5168,
      "Provid": 5169,
      "UpdatedAt": 5170,
      "Lifecycle": 5171,
      "Corp": 5172,
      "iry": 5173,
      "FileInfo": 5174,
      "Retrieve": 5175,
      "BeforeEach": 5176,
      "PEM": 5177,
      "would": 5178,
      "Named": 5179,
      "tpl": 5180,
      "underlying": 5181,
      "`),": 5182,
      "crd": 5183,
      "urerm": 5184,
      "iddlewares": 5185,
      "azurerm": 5186,
      "INFO": 5187,
      "Workload": 5188,
      "52": 5189,
      "mg": 5190,
      "Compl": 5191,
      "Argument": 5192,
      "Actor": 5193,
      "commun": 5194,
      "pop": 5195,
      "lists": 5196,
      "protoc": 5197,
      "APP": 5198,
      "incipal": 5199,
      "_KEY": 5200,
      "starts": 5201,
      "TIC": 5202,
      "ttl": 5203,
      "know": 5204,
      "WaitFor": 5205,
      "define": 5206,
      ")+": 5207,
      "MO": 5208,
      "sink": 5209,
      "utes": 5210,
      "behavi": 5211,
      "appName": 5212,
      "working": 5213,
      "ssl": 5214,
      "RGBA": 5215,
      "DR": 5216,
      "Review": 5217,
      "fileDescriptor": 5218,
      "ffff": 5219,
      "p2p": 5220,
      "><": 5221,
      "png": 5222,
      "least": 5223,
      "Alph": 5224,
      "copying": 5225,
      "aemon": 5226,
      "precated": 5227,
      "IV": 5228,
      "Intn": 5229,
      "][%": 5230,
      "mult": 5231,
      "fgame": 5232,
      "0x63": 5233,
      "pur": 5234,
      "ider": 5235,
      "RequestID": 5236,
      "ReplaceAll": 5237,
      "uplicate": 5238,
      "=>": 5239,
      "Mul": 5240,
      "dim": 5241,
      "mk": 5242,
      "poll": 5243,
      "ini": 5244,
      "ClientConfig": 5245,
      "Parts": 5246,
      "Matches": 5247,
      "3339": 5248,
      "Matrix": 5249,
      "fficient": 5250,
      "Probe": 5251,
      "anti": 5252,
      "ough": 5253,
      "Seek": 5254,
      "Warnf": 5255,
      "Car": 5256,
      "Daemon": 5257,
      "Fill": 5258,
      "eric": 5259,
      "Reverse": 5260,
      "prove": 5261,
      "shell": 5262,
      "tax": 5263,
      "statement": 5264,
      "signer": 5265,
      "even": 5266,
      "Visit": 5267,
      "HE": 5268,
      "ef": 5269,
      "quit": 5270,
      "Apps": 5271,
      "foundry": 5272,
      "Replicas": 5273,
      "tile": 5274,
      "trust": 5275,
      "projects": 5276,
      "bootstrap": 5277,
      "Light": 5278,
      "Mu": 5279,
      "erialize": 5280,
      "Tele": 5281,
      "documentation": 5282,
      "Safe": 5283,
      "vk": 5284,
      "influx": 5285,
      "fill": 5286,
      "Peers": 5287,
      "buffers": 5288,
      "seg": 5289,
      "etime": 5290,
      "NewWriter": 5291,
      "Dispatch": 5292,
      "ermine": 5293,
      "Writ": 5294,
      "rp": 5295,
      "tables": 5296,
      "velope": 5297,
      "BO": 5298,
      "Mac": 5299,
      "uter": 5300,
      "going": 5301,
      "percent": 5302,
      "Initial": 5303,
      "S_": 5304,
      "acle": 5305,
      "proof": 5306,
      "serviceName": 5307,
      "\"/\",": 5308,
      "Slash": 5309,
      "Override": 5310,
      "cations": 5311,
      "dk": 5312,
      "SP": 5313,
      "tom": 5314,
      "Severity": 5315,
      "Windows": 5316,
      "managed": 5317,
      "rad": 5318,
      "tok": 5319,
      "summary": 5320,
      "lb": 5321,
      "ube": 5322,
      "Dependency": 5323,
      "Uri": 5324,
      "]:": 5325,
      "ever": 5326,
      "rot": 5327,
      "exchange": 5328,
      "isters": 5329,
      "coll": 5330,
      "Bound": 5331,
      "rowser": 5332,
      "(\"/\",": 5333,
      "HasSuffix": 5334,
      "Supported": 5335,
      "fyne": 5336,
      "AY": 5337,
      "BY": 5338,
      "Dao": 5339,
      "dynamic": 5340,
      "lua": 5341,
      "WN": 5342,
      "a0": 5343,
      "decl": 5344,
      "containing": 5345,
      "modified": 5346,
      "Replica": 5347,
      "Distri": 5348,
      "Icon": 5349,
      "87": 5350,
      "Deal": 5351,
      "zapcore": 5352,
      "Reporter": 5353,
      "Fetcher": 5354,
      "mediate": 5355,
      "TestCase": 5356,
      "tcd": 5357,
      "Creation": 5358,
      "Enter": 5359,
      "graf": 5360,
      "CONN": 5361,
      "\"}},": 5362,
      "67": 5363,
      "DEBUG": 5364,
      "requency": 5365,
      "Let": 5366,
      "Please": 5367,
      "fall": 5368,
      "//}": 5369,
      "aro": 5370,
      "644": 5371,
      "WITH": 5372,
      "[:],": 5373,
      "HealthCheck": 5374,
      "aes": 5375,
      "kb": 5376,
      "envoy": 5377,
      "reconcile": 5378,
      "}(": 5379,
      "Insecure": 5380,
      "elet": 5381,
      "Datastore": 5382,
      "related": 5383,
      "andidate": 5384,
      "`.": 5385,
      "year": 5386,
      "heap": 5387,
      "configure": 5388,
      "000000": 5389,
      "relative": 5390,
      "subscribe": 5391,
      "Migration": 5392,
      "Bulk": 5393,
      "\\\",": 5394,
      "dh": 5395,
      "incorrect": 5396,
      "httpClient": 5397,
      "Without": 5398,
      "ailability": 5399,
      "gorilla": 5400,
      "converts": 5401,
      "namespaces": 5402,
      "Rot": 5403,
      "Vol": 5404,
      "none": 5405,
      "Templates": 5406,
      "OnError": 5407,
      "Board": 5408,
      "contentType": 5409,
      "VALU": 5410,
      "vt": 5411,
      "recogn": 5412,
      "addrs": 5413,
      "1b": 5414,
      "ark": 5415,
      "Generated": 5416,
      "Conflict": 5417,
      "ulner": 5418,
      "compile": 5419,
      "processor": 5420,
      "removed": 5421,
      "fb": 5422,
      "izations": 5423,
      "nothing": 5424,
      "_b": 5425,
      "upper": 5426,
      "cron": 5427,
      "tor": 5428,
      "{}),": 5429,
      "Transactions": 5430,
      "outputs": 5431,
      "AES": 5432,
      "Fun": 5433,
      "Speed": 5434,
      "eder": 5435,
      "olute": 5436,
      "KeyValue": 5437,
      "Testing": 5438,
      "UserName": 5439,
      "pto": 5440,
      "vr": 5441,
      "repl": 5442,
      "cording": 5443,
      "arn": 5444,
      "examples": 5445,
      "mapstructure": 5446,
      "result1": 5447,
      "Renderer": 5448,
      "agic": 5449,
      "clusters": 5450,
      "Area": 5451,
      "Cred": 5452,
      "Fore": 5453,
      "]]": 5454,
      "tid": 5455,
      "shake": 5456,
      "Dataset": 5457,
      "ForCall": 5458,
      "white": 5459,
      "TreeNode": 5460,
      "Dict": 5461,
      "Little": 5462,
      "PY": 5463,
      "override": 5464,
      "leet": 5465,
      "DataSource": 5466,
      "Calls": 5467,
      "vl": 5468,
      "Console": 5469,
      "StdEncoding": 5470,
      "beego": 5471,
      "CB": 5472,
      "month": 5473,
      "riteria": 5474,
      "\").(": 5475,
      "future": 5476,
      "_Get": 5477,
      "Migrate": 5478,
      "goroutine": 5479,
      "Ctr": 5480,
      "MER": 5481,
      "ale": 5482,
      "Alive": 5483,
      "walk": 5484,
      "strategy": 5485,
      "gob": 5486,
      "imports": 5487,
      "\"];": 5488,
      "WARN": 5489,
      "StringVarP": 5490,
      "VC": 5491,
      "encrypted": 5492,
      "ird": 5493,
      "tail": 5494,
      "Separ": 5495,
      "fixed": 5496,
      "tableName": 5497,
      "wasm": 5498,
      "[:])": 5499,
      ".\\": 5500,
      "eb": 5501,
      "Include": 5502,
      "Expires": 5503,
      "2015": 5504,
      "Management": 5505,
      "pad": 5506,
      "threshold": 5507,
      "GetConfig": 5508,
      "evalu": 5509,
      "activ": 5510,
      "video": 5511,
      "Cor": 5512,
      "ied": 5513,
      "sources": 5514,
      "Restore": 5515,
      "ErrCode": 5516,
      "take": 5517,
      "vie": 5518,
      "Funcs": 5519,
      "Direction": 5520,
      "disabled": 5521,
      "Audit": 5522,
      "Question": 5523,
      "enk": 5524,
      "good": 5525,
      "StringFlag": 5526,
      "activity": 5527,
      "Attemp": 5528,
      "annotations": 5529,
      "_v1": 5530,
      "squ": 5531,
      "MethodType": 5532,
      "stdin": 5533,
      "Implement": 5534,
      "MySQL": 5535,
      "layers": 5536,
      "occur": 5537,
      "oscal": 5538,
      "APIVersion": 5539,
      "World": 5540,
      "sends": 5541,
      "Wrong": 5542,
      "Elast": 5543,
      "`{\"": 5544,
      "bi": 5545,
      "stage": 5546,
      "Configure": 5547,
      "Clients": 5548,
      "maps": 5549,
      "LittleEndian": 5550,
      "cnt": 5551,
      "pd": 5552,
      "refer": 5553,
      "NewError": 5554,
      "workers": 5555,
      "ERS": 5556,
      ")/": 5557,
      "repos": 5558,
      "Bounds": 5559,
      "DateTime": 5560,
      "IGHT": 5561,
      "ValidationError": 5562,
      "sqlite": 5563,
      "El": 5564,
      "Vpc": 5565,
      "_count": 5566,
      "van": 5567,
      "Construct": 5568,
      "ResponseBody": 5569,
      "());": 5570,
      "correspon": 5571,
      "FAUL": 5572,
      "RFC3339": 5573,
      "f2": 5574,
      "formed": 5575,
      "props": 5576,
      "MessageInfo": 5577,
      "\"].": 5578,
      "well": 5579,
      "validates": 5580,
      "Algorithm": 5581,
      "small": 5582,
      "SSL": 5583,
      "audit": 5584,
      "ban": 5585,
      "credential": 5586,
      "itive": 5587,
      "completed": 5588,
      "weet": 5589,
      "Txn": 5590,
      "tn": 5591,
      "share": 5592,
      "permit": 5593,
      "FromContext": 5594,
      "FromFile": 5595,
      "0x67": 5596,
      "apiserver": 5597,
      "abet": 5598,
      "go_": 5599,
      "NotEmpty": 5600,
      "APIKey": 5601,
      "lies": 5602,
      "ira": 5603,
      "characters": 5604,
      "51": 5605,
      "Tables": 5606,
      "spe": 5607,
      "streams": 5608,
      "int8": 5609,
      "dispatch": 5610,
      "\"[": 5611,
      "Type_": 5612,
      "connector": 5613,
      "IMP": 5614,
      "GitHub": 5615,
      "Eq": 5616,
      "constant": 5617,
      "ATION": 5618,
      "NON": 5619,
      "yet": 5620,
      "incoming": 5621,
      "()[": 5622,
      "Font": 5623,
      "Vote": 5624,
      "scr": 5625,
      "eting": 5626,
      "Replication": 5627,
      "-----": 5628,
      "\")),": 5629,
      "ClientID": 5630,
      "0x62": 5631,
      "Blue": 5632,
      "PATH": 5633,
      "Effect": 5634,
      "Sim": 5635,
      "Tile": 5636,
      "oot": 5637,
      "ret1": 5638,
      "serial": 5639,
      "awsmiddleware": 5640,
      "Grid": 5641,
      "Ctrl": 5642,
      "due": 5643,
      "atory": 5644,
      "traffic": 5645,
      "NodeID": 5646,
      "Stateful": 5647,
      "Arguments": 5648,
      "_service": 5649,
      "kr": 5650,
      "proj": 5651,
      "partic": 5652,
      "s0i32": 5653,
      "Div": 5654,
      "later": 5655,
      "were": 5656,
      "riend": 5657,
      "ENT_": 5658,
      "Aliases": 5659,
      "Editing": 5660,
      "Broadcast": 5661,
      "XY": 5662,
      "](": 5663,
      "err2": 5664,
      "Disabled": 5665,
      "dict": 5666,
      "Tax": 5667,
      "bridge": 5668,
      "RecordCall": 5669,
      "cdc": 5670,
      "publicKey": 5671,
      "Pi": 5672,
      "AGE": 5673,
      "unicode": 5674,
      "peers": 5675,
      "umul": 5676,
      "ators": 5677,
      "Confirm": 5678,
      "e2e": 5679,
      "pages": 5680,
      "policies": 5681,
      "errMsg": 5682,
      "int16": 5683,
      "Too": 5684,
      "});": 5685,
      "swarm": 5686,
      "cloudfoundry": 5687,
      "futile": 5688,
      "Converter": 5689,
      "Todo": 5690,
      "ah": 5691,
      "States": 5692,
      "Conns": 5693,
      "\"{": 5694,
      "Pages": 5695,
      "UPD": 5696,
      "pv": 5697,
      "yml": 5698,
      "TRAC": 5699,
      "qp": 5700,
      "grid": 5701,
      "super": 5702,
      "steps": 5703,
      "Depth": 5704,
      "Uid": 5705,
      "reverse": 5706,
      "edger": 5707,
      "fails": 5708,
      "successful": 5709,
      "192": 5710,
      "Dst": 5711,
      "sur": 5712,
      "restri": 5713,
      "black": 5714,
      "43": 5715,
      "MB": 5716,
      "Predicate": 5717,
      "href": 5718,
      "(\":": 5719,
      "aker": 5720,
      "anit": 5721,
      "detect": 5722,
      "complet": 5723,
      "Postgres": 5724,
      "Black": 5725,
      "69": 5726,
      "Gas": 5727,
      "sleep": 5728,
      "Remo": 5729,
      "popul": 5730,
      "ServiceAccount": 5731,
      "Composite": 5732,
      "TYPE": 5733,
      "ides": 5734,
      "Codes": 5735,
      "dsn": 5736,
      "cture": 5737,
      "gopher": 5738,
      "ConfigPath": 5739,
      "TestNew": 5740,
      "Operations": 5741,
      "terminal": 5742,
      "DH": 5743,
      "inger": 5744,
      "ipfs": 5745,
      "organization": 5746,
      "cipe": 5747,
      "0x52": 5748,
      "decoded": 5749,
      "ing_": 5750,
      "upstream": 5751,
      "Setenv": 5752,
      "best": 5753,
      "specs": 5754,
      "Components": 5755,
      "DecodeString": 5756,
      "Bridge": 5757,
      "Firewall": 5758,
      "75": 5759,
      "MM": 5760,
      "OL": 5761,
      "inf": 5762,
      "().(*": 5763,
      "finity": 5764,
      "Initializ": 5765,
      "DEFAUL": 5766,
      "executor": 5767,
      "Ca": 5768,
      "D_": 5769,
      "unsupported": 5770,
      "rok": 5771,
      "dependency": 5772,
      "********************************": 5773,
      "Rad": 5774,
      "determine": 5775,
      "compatible": 5776,
      "WH": 5777,
      "eh": 5778,
      "gz": 5779,
      "iso": 5780,
      "calling": 5781,
      "Publisher": 5782,
      "gf": 5783,
      "Prop": 5784,
      "avor": 5785,
      "LoadBalancer": 5786,
      "Vertex": 5787,
      "cipient": 5788,
      "retrieves": 5789,
      "IZ": 5790,
      "Lin": 5791,
      "instr": 5792,
      "apiKey": 5793,
      "pkt": 5794,
      "Than": 5795,
      "72": 5796,
      "High": 5797,
      "VID": 5798,
      "pw": 5799,
      "Repeat": 5800,
      "Already": 5801,
      "ginx": 5802,
      "RootCmd": 5803,
      "lambda": 5804,
      "ctor": 5805,
      "isSet": 5806,
      "DataType": 5807,
      "IPs": 5808,
      "Img": 5809,
      "DisplayName": 5810,
      "(\"./": 5811,
      "Completion": 5812,
      ":\")": 5813,
      "DAT": 5814,
      "ond": 5815,
      "reement": 5816,
      "NamespaceLister": 5817,
      "recognized": 5818,
      "still": 5819,
      "acon": 5820,
      "\")))": 5821,
      "Actual": 5822,
      "99999999": 5823,
      "fabric": 5824,
      "Elastic": 5825,
      "Rank": 5826,
      "bank": 5827,
      "leader": 5828,
      "admission": 5829,
      "FileSystem": 5830,
      "0x6c": 5831,
      "ategories": 5832,
      "evt": 5833,
      "Dialer": 5834,
      "zerolog": 5835,
      "aid": 5836,
      "pprof": 5837,
      "created_at": 5838,
      "Variables": 5839,
      "sarama": 5840,
      "0644": 5841,
      "Dns": 5842,
      "ners": 5843,
      "p1": 5844,
      "aries": 5845,
      "apsed": 5846,
      "checker": 5847,
      "Verbose": 5848,
      "ShouldNot": 5849,
      "Indic": 5850,
      "Providers": 5851,
      "redi": 5852,
      "ACTION": 5853,
      "CSV": 5854,
      "chronous": 5855,
      "Histogram": 5856,
      "1e": 5857,
      "expire": 5858,
      "IAM": 5859,
      "Tab": 5860,
      "urse": 5861,
      "constraint": 5862,
      "plicit": 5863,
      "MethodPost": 5864,
      "ancher": 5865,
      "v0": 5866,
      "leaf": 5867,
      "configFile": 5868,
      "WithMethodType": 5869,
      "INCL": 5870,
      "QueryRow": 5871,
      "olders": 5872,
      "certs": 5873,
      "SHA256": 5874,
      "Namespaces": 5875,
      "problem": 5876,
      "RecordCallWithMethodType": 5877,
      "cas": 5878,
      "gative": 5879,
      "sat": 5880,
      "()}": 5881,
      "loor": 5882,
      "Union": 5883,
      "Tracer": 5884,
      "Helm": 5885,
      "RemoteAddr": 5886,
      "Reconcile": 5887,
      "enkins": 5888,
      ".\"": 5889,
      "Lang": 5890,
      "itness": 5891,
      "0x20": 5892,
      "mapper": 5893,
      "MatchString": 5894,
      "){": 5895,
      "Etcd": 5896,
      "_in": 5897,
      "b2": 5898,
      "entr": 5899,
      "Withdraw": 5900,
      "dating": 5901,
      "ArgsForCall": 5902,
      "endermint": 5903,
      "></": 5904,
      "Est": 5905,
      "NewConfig": 5906,
      "makes": 5907,
      "GetValue": 5908,
      "TOK": 5909,
      "Crypto": 5910,
      "Follow": 5911,
      "a_": 5912,
      "t2": 5913,
      "Restart": 5914,
      "charge": 5915,
      "istio": 5916,
      "company": 5917,
      "nest": 5918,
      "Present": 5919,
      "84": 5920,
      "Hy": 5921,
      "VIC": 5922,
      "()]": 5923,
      "happen": 5924,
      "revision": 5925,
      "chi": 5926,
      "Selection": 5927,
      "WithCancel": 5928,
      "Completed": 5929,
      "Addrs": 5930,
      "AAAA": 5931,
      "Secure": 5932,
      "wik": 5933,
      "deleg": 5934,
      "Many": 5935,
      "(`{\"": 5936,
      "pubsub": 5937,
      "Finished": 5938,
      "lexer": 5939,
      "dependencies": 5940,
      "rbac": 5941,
      "anc": 5942,
      "bined": 5943,
      "Days": 5944,
      "Letter": 5945,
      "Sess": 5946,
      "Compact": 5947,
      "waiting": 5948,
      "Encryption": 5949,
      "Center": 5950,
      "Dashboard": 5951,
      "Policies": 5952,
      "formatted": 5953,
      "finish": 5954,
      "\"./": 5955,
      "compiled": 5956,
      "Separator": 5957,
      "Live": 5958,
      "dashboard": 5959,
      "acl": 5960,
      "Added": 5961,
      "aign": 5962,
      "cross": 5963,
      "lc": 5964,
      "mes": 5965,
      "ampaign": 5966,
      "FormatInt": 5967,
      "RateLimit": 5968,
      "BT": 5969,
      "EG": 5970,
      "avoid": 5971,
      "Steps": 5972,
      "Dependencies": 5973,
      "_data": 5974,
      "easy": 5975,
      "fly": 5976,
      "kin": 5977,
      "Serializ": 5978,
      "CONF": 5979,
      "Entities": 5980,
      "removes": 5981,
      "stems": 5982,
      "INCLUD": 5983,
      "Eval": 5984,
      "pwd": 5985,
      "ecess": 5986,
      "workload": 5987,
      "kubectl": 5988,
      "features": 5989,
      "Plugins": 5990,
      "AO": 5991,
      "Ty": 5992,
      "Registration": 5993,
      "Targets": 5994,
      "\".\"": 5995,
      "Grant": 5996,
      "days": 5997,
      "25519": 5998,
      "Inspect": 5999,
      "ni": 6000,
      "dsa": 6001,
      "UserAgent": 6002,
      "Exporter": 6003,
      "Delivery": 6004,
      "Escape": 6005,
      "Screen": 6006,
      "eng": 6007,
      "andbox": 6008,
      "printer": 6009,
      "iece": 6010,
      "Installation": 6011,
      "ircuit": 6012,
      "EVENT": 6013,
      "RIGHT": 6014,
      "font": 6015,
      "jected": 6016,
      "ural": 6017,
      "roach": 6018,
      "Upstream": 6019,
      "MessageType": 6020,
      "FAIL": 6021,
      "OB": 6022,
      "Zip": 6023,
      "_config": 6024,
      "blog": 6025,
      "epoch": 6026,
      "nats": 6027,
      "Comm": 6028,
      "targets": 6029,
      "RawMessage": 6030,
      "C_": 6031,
      "quote": 6032,
      "phrase": 6033,
      "POSE": 6034,
      "*[]": 6035,
      "DTO": 6036,
      "Tech": 6037,
      "Ship": 6038,
      "wrapped": 6039,
      "Distance": 6040,
      "asurement": 6041,
      "automat": 6042,
      "Sorted": 6043,
      "bid": 6044,
      "uzz": 6045,
      "matter": 6046,
      "Updater": 6047,
      "Inputs": 6048,
      "Viper": 6049,
      "PUR": 6050,
      "human": 6051,
      "SetDefault": 6052,
      "sym": 6053,
      "2022": 6054,
      "Shape": 6055,
      "ATE_": 6056,
      "0x75": 6057,
      "mutation": 6058,
      "deletes": 6059,
      "\";": 6060,
      "Bet": 6061,
      "rev": 6062,
      "rott": 6063,
      "amel": 6064,
      "Inline": 6065,
      "Unsafe": 6066,
      "ONLY": 6067,
      "AccessKey": 6068,
      "Business": 6069,
      "'.": 6070,
      "ToNot": 6071,
      "submit": 6072,
      "sell": 6073,
      "balancer": 6074,
      "([": 6075,
      ")\\": 6076,
      "68": 6077,
      "Kn": 6078,
      "Pul": 6079,
      "widget": 6080,
      "Recover": 6081,
      "ades": 6082,
      "WriteTo": 6083,
      "formers": 6084,
      "ardown": 6085,
      "COPY": 6086,
      "ULAR": 6087,
      "tracker": 6088,
      "INCLUDING": 6089,
      "Dot": 6090,
      "La": 6091,
      "Lab": 6092,
      "Pret": 6093,
      "alf": 6094,
      "Sha": 6095,
      "APIError": 6096,
      "aves": 6097,
      "aeger": 6098,
      "Dynamic": 6099,
      "SION": 6100,
      "Serial": 6101,
      "\"\"},": 6102,
      "transactions": 6103,
      "pairs": 6104,
      "TOKEN": 6105,
      "Mater": 6106,
      "VE": 6107,
      "onical": 6108,
      "Unsupported": 6109,
      "EqualValues": 6110,
      "specifies": 6111,
      "distribution": 6112,
      "behavior": 6113,
      "typed": 6114,
      "ircle": 6115,
      "Clientset": 6116,
      "There": 6117,
      "Analytics": 6118,
      "flatbuffers": 6119,
      "bosh": 6120,
      "MERCHAN": 6121,
      "Io": 6122,
      "``": 6123,
      "dg": 6124,
      "pixel": 6125,
      "erv": 6126,
      "Connected": 6127,
      "creds": 6128,
      "COUN": 6129,
      "invocations": 6130,
      "62": 6131,
      "FIT": 6132,
      "Fprint": 6133,
      "{}{\"": 6134,
      "Notifier": 6135,
      "refs": 6136,
      "directly": 6137,
      "Variant": 6138,
      "FT": 6139,
      "2014": 6140,
      "Aff": 6141,
      "Kill": 6142,
      "b0": 6143,
      "Props": 6144,
      "runes": 6145,
      "Scheduled": 6146,
      "70": 6147,
      "LIN": 6148,
      "Y_": 6149,
      "_info": 6150,
      "inate": 6151,
      "served": 6152,
      "abbit": 6153,
      "Quantity": 6154,
      "NoContent": 6155,
      "Then": 6156,
      "ARN": 6157,
      "TABILITY": 6158,
      "attempt": 6159,
      "cursive": 6160,
      "MERCHANTABILITY": 6161,
      "qq": 6162,
      "demo": 6163,
      "registers": 6164,
      "expired": 6165,
      "phone": 6166,
      "Expired": 6167,
      "primitive": 6168,
      "numbers": 6169,
      "monitoring": 6170,
      "requires": 6171,
      "Scalar": 6172,
      "StatefulSet": 6173,
      "Old": 6174,
      "ram": 6175,
      "marshall": 6176,
      "pho": 6177,
      "Indexes": 6178,
      "0x6d": 6179,
      "contribut": 6180,
      "b1": 6181,
      "cach": 6182,
      "d2": 6183,
      "qs": 6184,
      "tendermint": 6185,
      "Prob": 6186,
      "aily": 6187,
      "blockchain": 6188,
      "0x28": 6189,
      "seen": 6190,
      "itation": 6191,
      "cmds": 6192,
      "Leg": 6193,
      "migrate": 6194,
      "RSA": 6195,
      "Rob": 6196,
      "mtp": 6197,
      "Unimplemented": 6198,
      "loading": 6199,
      "Factor": 6200,
      "calculate": 6201,
      "PARTIC": 6202,
      "_code": 6203,
      "rox": 6204,
      "ints": 6205,
      "ErrNotFound": 6206,
      "terms": 6207,
      "Align": 6208,
      "Checksum": 6209,
      "aliyun": 6210,
      "SERT": 6211,
      "Library": 6212,
      "returning": 6213,
      "0x64": 6214,
      "ReadCloser": 6215,
      "ASS": 6216,
      "filesystem": 6217,
      "Projects": 6218,
      "atterns": 6219,
      "(\"[%": 6220,
      "LOG": 6221,
      "NamespacedName": 6222,
      "98": 6223,
      "BUT": 6224,
      "padding": 6225,
      "deps": 6226,
      "mploy": 6227,
      "NewController": 6228,
      "Clusters": 6229,
      "Perform": 6230,
      "projectID": 6231,
      "Certs": 6232,
      "NESS": 6233,
      "_2": 6234,
      "unstructured": 6235,
      "ette": 6236,
      "abi": 6237,
      "processed": 6238,
      "swap": 6239,
      "EMENT": 6240,
      "Material": 6241,
      "RT": 6242,
      "h2": 6243,
      "ience": 6244,
      "aris": 6245,
      "Reward": 6246,
      "ToUpper": 6247,
      "limiter": 6248,
      "Expans": 6249,
      "BaseURL": 6250,
      "Features": 6251,
      "AGE_": 6252,
      "green": 6253,
      "PURPOSE": 6254,
      "PARTICULAR": 6255,
      "mgo": 6256,
      "retrie": 6257,
      "ClientConn": 6258,
      "Compress": 6259,
      "!!": 6260,
      "bk": 6261,
      "ua": 6262,
      "review": 6263,
      "ito": 6264,
      "logical": 6265,
      "Additional": 6266,
      "analysis": 6267,
      "benchmark": 6268,
      "datas": 6269,
      "wards": 6270,
      "FITNESS": 6271,
      "65": 6272,
      "CN": 6273,
      "ISE": 6274,
      "Jo": 6275,
      "pal": 6276,
      "ino": 6277,
      "theme": 6278,
      "Fixture": 6279,
      "Boolean": 6280,
      "shape": 6281,
      "recv": 6282,
      "migrations": 6283,
      "95": 6284,
      "_path": 6285,
      "dto": 6286,
      "fuse": 6287,
      "gw": 6288,
      "Increment": 6289,
      "rier": 6290,
      "indent": 6291,
      "...))": 6292,
      "Accepted": 6293,
      "0x08": 6294,
      "subscriber": 6295,
      "mqtt": 6296,
      "TABLE": 6297,
      "warnings": 6298,
      "M_": 6299,
      "equ": 6300,
      "iles": 6301,
      "making": 6302,
      "Outputs": 6303,
      "ProtoMessage": 6304,
      "########": 6305,
      "Autom": 6306,
      "ecessary": 6307,
      "odb": 6308,
      "parses": 6309,
      "Trunc": 6310,
      "EndTime": 6311,
      "LIED": 6312,
      "localVar": 6313,
      "Article": 6314,
      "Trade": 6315,
      "ECTION": 6316,
      "0x04": 6317,
      "visor": 6318,
      "closing": 6319,
      "fatal": 6320,
      "menu": 6321,
      "rancher": 6322,
      "adow": 6323,
      "StringValue": 6324,
      "101": 6325,
      "ResourceData": 6326,
      "Verifier": 6327,
      "Sources": 6328,
      "uff": 6329,
      "Coins": 6330,
      "Devices": 6331,
      "fixt": 6332,
      "().(": 6333,
      "formatter": 6334,
      "Expiration": 6335,
      "Tracker": 6336,
      "Sku": 6337,
      "Diagnost": 6338,
      "(?": 6339,
      "race": 6340,
      "tee": 6341,
      "ckroach": 6342,
      "Printer": 6343,
      "remaining": 6344,
      "Yaml": 6345,
      "bp": 6346,
      "struction": 6347,
      "aws_": 6348,
      "orizon": 6349,
      "41": 6350,
      "hcl": 6351,
      "anizations": 6352,
      "ism": 6353,
      "\")).": 6354,
      "ServiceServer": 6355,
      "sqlx": 6356,
      "distance": 6357,
      "hard": 6358,
      "zh": 6359,
      "tel": 6360,
      "NewTest": 6361,
      "izes": 6362,
      "works": 6363,
      "never": 6364,
      "Foundation": 6365,
      "annotation": 6366,
      "Sensor": 6367,
      "jack": 6368,
      "uk": 6369,
      "registration": 6370,
      "expiration": 6371,
      "urls": 6372,
      "0x03": 6373,
      "assigned": 6374,
      "IMPLIED": 6375,
      "\"#": 6376,
      "INF": 6377,
      "Checks": 6378,
      "phere": 6379,
      "bsite": 6380,
      "centr": 6381,
      "eg": 6382,
      "pflag": 6383,
      "snap": 6384,
      "INSERT": 6385,
      "exported": 6386,
      "Cpu": 6387,
      "va": 6388,
      "ResultOutput": 6389,
      "resourceName": 6390,
      "versioned": 6391,
      "Workers": 6392,
      "V1alph": 6393,
      "Hard": 6394,
      "mn": 6395,
      "px": 6396,
      "sid": 6397,
      "salt": 6398,
      "att": 6399,
      "Plain": 6400,
      "spaces": 6401,
      "../../": 6402,
      "Pid": 6403,
      "ication": 6404,
      "serialize": 6405,
      "oter": 6406,
      "Observ": 6407,
      "Theme": 6408,
      "phase": 6409,
      "alpha": 6410,
      "smithyhttp": 6411,
      "DAM": 6412,
      "Echo": 6413,
      "Fmt": 6414,
      "Wire": 6415,
      "alive": 6416,
      "Shell": 6417,
      "Registr": 6418,
      "subst": 6419,
      "UTF": 6420,
      "Retrie": 6421,
      "kernel": 6422,
      "signing": 6423,
      "ATUS": 6424,
      "Routing": 6425,
      "Visitor": 6426,
      "AIM": 6427,
      "BAC": 6428,
      "Pur": 6429,
      "rome": 6430,
      "URLs": 6431,
      "descriptor": 6432,
      "HOLD": 6433,
      "hyperledger": 6434,
      "UPDATE": 6435,
      "ingerprint": 6436,
      "Eth": 6437,
      "HA": 6438,
      "cus": 6439,
      "raft": 6440,
      "zk": 6441,
      "Heap": 6442,
      "Shift": 6443,
      "Indexer": 6444,
      "accessToken": 6445,
      "rokers": 6446,
      "IA": 6447,
      "jw": 6448,
      "icloud": 6449,
      "mous": 6450,
      "Develo": 6451,
      "quota": 6452,
      "Company": 6453,
      "generates": 6454,
      "Slack": 6455,
      "Face": 6456,
      "ius": 6457,
      "yes": 6458,
      "algorithm": 6459,
      "Stamp": 6460,
      "prop": 6461,
      "ippet": 6462,
      "ritical": 6463,
      "Eventually": 6464,
      "RoundTrip": 6465,
      "Two": 6466,
      "thon": 6467,
      "Lease": 6468,
      "Marshaler": 6469,
      "exporter": 6470,
      "tection": 6471,
      "dbName": 6472,
      "ServiceID": 6473,
      "VirtualMachine": 6474,
      "Assignment": 6475,
      "Functions": 6476,
      "Bre": 6477,
      "QR": 6478,
      "las": 6479,
      "Inner": 6480,
      "AGES": 6481,
      "replicas": 6482,
      "199": 6483,
      "_list": 6484,
      "za": 6485,
      "atar": 6486,
      "unce": 6487,
      "antic": 6488,
      "Orders": 6489,
      "domains": 6490,
      "LIMITED": 6491,
      "azurerm_": 6492,
      "Same": 6493,
      "ival": 6494,
      "perm": 6495,
      "below": 6496,
      "Until": 6497,
      "chestr": 6498,
      "Mouse": 6499,
      "attrs": 6500,
      "constructor": 6501,
      "Expansion": 6502,
      "Cnt": 6503,
      "olation": 6504,
      "exact": 6505,
      "Deprecated": 6506,
      "upon": 6507,
      "optim": 6508,
      "handling": 6509,
      "NOTE": 6510,
      "pubKey": 6511,
      "Pairs": 6512,
      "FILE": 6513,
      "2f": 6514,
      "AF": 6515,
      "gd": 6516,
      "lems": 6517,
      "ulate": 6518,
      "Challenge": 6519,
      "lager": 6520,
      "ivid": 6521,
      "ResourceName": 6522,
      "succe": 6523,
      "CONT": 6524,
      "Extensions": 6525,
      "temporary": 6526,
      "inside": 6527,
      "Uint8": 6528,
      "Ratio": 6529,
      "Choice": 6530,
      "City": 6531,
      "Terraform": 6532,
      "c3": 6533,
      "nn": 6534,
      "decrypt": 6535,
      "Look": 6536,
      "dataset": 6537,
      "Trust": 6538,
      "Elements": 6539,
      "Sessions": 6540,
      "tuple": 6541,
      "Computed": 6542,
      "spot": 6543,
      "last_": 6544,
      "ico": 6545,
      "Low": 6546,
      "Built": 6547,
      "twitter": 6548,
      "GN": 6549,
      "agment": 6550,
      "aby": 6551,
      "Exact": 6552,
      "SecretKey": 6553,
      "invalidParams": 6554,
      "TERM": 6555,
      "Lambda": 6556,
      "More": 6557,
      "Multiple": 6558,
      "aver": 6559,
      "mw": 6560,
      "informer": 6561,
      "repositories": 6562,
      "NewDelete": 6563,
      "GetOptions": 6564,
      "StringSlice": 6565,
      "WithStack": 6566,
      "slash": 6567,
      "Mysql": 6568,
      "deterministic": 6569,
      "Tmp": 6570,
      "lg": 6571,
      "challenge": 6572,
      "NewScanner": 6573,
      "GetInt": 6574,
      "ipv4": 6575,
      "WriteByte": 6576,
      "uest": 6577,
      "NewDefault": 6578,
      "StringOutput": 6579,
      "Selected": 6580,
      "background": 6581,
      "'\")": 6582,
      "DD": 6583,
      "GE": 6584,
      "nick": 6585,
      "rg": 6586,
      "country": 6587,
      "verification": 6588,
      "Encrypted": 6589,
      "responseChan": 6590,
      "kyma": 6591,
      "97": 6592,
      "dynam": 6593,
      "aper": 6594,
      "Stock": 6595,
      "AppName": 6596,
      "Models": 6597,
      "consensus": 6598,
      "supports": 6599,
      "-=": 6600,
      "Rename": 6601,
      "YY": 6602,
      "codegen": 6603,
      "compressed": 6604,
      "Expand": 6605,
      "inspect": 6606,
      "stopped": 6607,
      "Executions": 6608,
      "Latency": 6609,
      "FL": 6610,
      "RD": 6611,
      "nor": 6612,
      "rem": 6613,
      "recent": 6614,
      "testutils": 6615,
      "0x18": 6616,
      "area": 6617,
      "Interrupt": 6618,
      "Offer": 6619,
      "datadog": 6620,
      "CallOption": 6621,
      "Agreement": 6622,
      "VPC": 6623,
      "WE": 6624,
      "iet": 6625,
      "}.": 6626,
      "}`": 6627,
      "chrom": 6628,
      "varint": 6629,
      "Queries": 6630,
      "Clause": 6631,
      "instanti": 6632,
      "TrimPrefix": 6633,
      "Panel": 6634,
      "corresponding": 6635,
      "bine": 6636,
      "predicate": 6637,
      "amqp": 6638,
      "NewContext": 6639,
      "...),": 6640,
      "expires": 6641,
      "s1i32": 6642,
      "${": 6643,
      "gql": 6644,
      "ilium": 6645,
      "varchar": 6646,
      "QueryParams": 6647,
      "TLSConfig": 6648,
      "LIABILITY": 6649,
      "bum": 6650,
      "stand": 6651,
      "produ": 6652,
      "configPath": 6653,
      "apiVersion": 6654,
      "pubkey": 6655,
      "Super": 6656,
      "ciphertext": 6657,
      "HEAD": 6658,
      "Air": 6659,
      "GV": 6660,
      "gas": 6661,
      "semb": 6662,
      "explicit": 6663,
      "posed": 6664,
      "expectedErr": 6665,
      "MockClient": 6666,
      "Environ": 6667,
      "\".\")": 6668,
      "EXPRESS": 6669,
      "CONNECTION": 6670,
      "Volumes": 6671,
      "85": 6672,
      "DN": 6673,
      "Envelope": 6674,
      "builtin": 6675,
      "onymous": 6676,
      "`%": 6677,
      "dom": 6678,
      "rift": 6679,
      "umented": 6680,
      "article": 6681,
      "assertion": 6682,
      "granted": 6683,
      "ResourceType": 6684,
      "executed": 6685,
      "around": 6686,
      "necessary": 6687,
      "copi": 6688,
      "inten": 6689,
      "Remain": 6690,
      "RequestId": 6691,
      "ecs": 6692,
      "distribute": 6693,
      "Receipt": 6694,
      "pagination": 6695,
      "Equip": 6696,
      "Linux": 6697,
      "Ter": 6698,
      "bn": 6699,
      "occurred": 6700,
      "turn": 6701,
      "Submatch": 6702,
      "ested": 6703,
      "encent": 6704,
      "Delta": 6705,
      "Scene": 6706,
      "async": 6707,
      "COPYRIGHT": 6708,
      "pdf": 6709,
      "logLevel": 6710,
      "okies": 6711,
      "user_": 6712,
      "Anch": 6713,
      "trim": 6714,
      "ECK": 6715,
      "WARRANTY": 6716,
      "renderer": 6717,
      "Need": 6718,
      "Provisioning": 6719,
      "Mirror": 6720,
      "fileDescriptor_": 6721,
      "TRACT": 6722,
      "Middlewares": 6723,
      "gi": 6724,
      "NewString": 6725,
      "GetId": 6726,
      "goa": 6727,
      "shim": 6728,
      "owners": 6729,
      "routing": 6730,
      "LR": 6731,
      "SY": 6732,
      "mime": 6733,
      "yy": 6734,
      "restore": 6735,
      "strip": 6736,
      "icles": 6737,
      "VERSION": 6738,
      "Calculate": 6739,
      "/.": 6740,
      "Mult": 6741,
      "Nop": 6742,
      "Widget": 6743,
      "rank": 6744,
      "ili": 6745,
      "asyn": 6746,
      "fero": 6747,
      "CHECK": 6748,
      "aaaa": 6749,
      "dynamodb": 6750,
      "Grpc": 6751,
      "Nick": 6752,
      "lp": 6753,
      "samples": 6754,
      "ServiceMetadata": 6755,
      "HTTPS": 6756,
      "Bearer": 6757,
      "aking": 6758,
      "CLAIM": 6759,
      "PROVID": 6760,
      "intenance": 6761,
      "Cmp": 6762,
      "DIS": 6763,
      "}})": 6764,
      "incre": 6765,
      "agger": 6766,
      "tracer": 6767,
      "SetLevel": 6768,
      "ProjectID": 6769,
      "Topics": 6770,
      "Microsoft": 6771,
      "gRPC": 6772,
      "speed": 6773,
      "htt": 6774,
      "Colors": 6775,
      "Double": 6776,
      "IPv6": 6777,
      "ignored": 6778,
      "GOOS": 6779,
      "Green": 6780,
      "\\\":\\\"": 6781,
      "ervation": 6782,
      "awn": 6783,
      "clause": 6784,
      "CreateUser": 6785,
      "Major": 6786,
      "design": 6787,
      "commend": 6788,
      "nested": 6789,
      "c0": 6790,
      "f1": 6791,
      "ool": 6792,
      "(\"-": 6793,
      "sug": 6794,
      "ETHER": 6795,
      "Websocket": 6796,
      "Want": 6797,
      "toSerialize": 6798,
      "168": 6799,
      "CONTRACT": 6800,
      "nums": 6801,
      "void": 6802,
      "Availability": 6803,
      "Previous": 6804,
      "PROVIDED": 6805,
      "get_": 6806,
      "css": 6807,
      "Responder": 6808,
      "'\"": 6809,
      "401": 6810,
      "Pow": 6811,
      "Ticker": 6812,
      "kill": 6813,
      "GetS": 6814,
      "goc": 6815,
      "sha1": 6816,
      "Compose": 6817,
      "PageSize": 6818,
      "consist": 6819,
      "Poly": 6820,
      "Photo": 6821,
      "!\",": 6822,
      "[*": 6823,
      "_ID": 6824,
      "qb": 6825,
      "selection": 6826,
      "mean": 6827,
      "References": 6828,
      "made": 6829,
      "Appro": 6830,
      "Service_": 6831,
      "Continue": 6832,
      "creator": 6833,
      "0755": 6834,
      "DAMAGES": 6835,
      "SO": 6836,
      "gate": 6837,
      "gid": 6838,
      "p_": 6839,
      "invoke": 6840,
      "lid": 6841,
      "mandatory": 6842,
      "Affinity": 6843,
      "pretty": 6844,
      "_IN": 6845,
      "c8": 6846,
      "eq": 6847,
      "v5": 6848,
      "aran": 6849,
      ").(*": 6850,
      "Heartbeat": 6851,
      "sufficient": 6852,
      "confirm": 6853,
      "Creating": 6854,
      "_tab": 6855,
      "semver": 6856,
      "fasthttp": 6857,
      ")\"": 6858,
      "91": 6859,
      "reach": 6860,
      "RequestBody": 6861,
      "APIClient": 6862,
      "msgTypes": 6863,
      "ASCI": 6864,
      "SHALL": 6865,
      "Principal": 6866,
      "products": 6867,
      "Respond": 6868,
      "frontend": 6869,
      "Dyn": 6870,
      "PID": 6871,
      "Vm": 6872,
      "err1": 6873,
      "actually": 6874,
      "\":\")": 6875,
      "TextString": 6876,
      "azy": 6877,
      "xxxx": 6878,
      "absolute": 6879,
      "NOTI": 6880,
      "verrides": 6881,
      "NewTicker": 6882,
      "Fast": 6883,
      "broadcast": 6884,
      "jaeger": 6885,
      "eter": 6886,
      "lip": 6887,
      "bounds": 6888,
      "KeyPair": 6889,
      "curve": 6890,
      "GroupID": 6891,
      "Float32": 6892,
      "Audio": 6893,
      "OPTION": 6894,
      "grafana": 6895,
      "completion": 6896,
      "Bank": 6897,
      "tre": 6898,
      "exe": 6899,
      "grant": 6900,
      "://%": 6901,
      "ARIS": 6902,
      "#%": 6903,
      "Fut": 6904,
      "Hi": 6905,
      "PN": 6906,
      "_index": 6907,
      "bench": 6908,
      "hor": 6909,
      "ray": 6910,
      "iggers": 6911,
      "regard": 6912,
      "ARCH": 6913,
      "checksum": 6914,
      "ADD": 6915,
      "SR": 6916,
      "lis": 6917,
      "increment": 6918,
      "meter": 6919,
      "acted": 6920,
      "extr": 6921,
      "aving": 6922,
      "closer": 6923,
      "RefreshToken": 6924,
      "SU": 6925,
      "gmail": 6926,
      "nat": 6927,
      "001": 6928,
      "Retries": 6929,
      "GUID": 6930,
      "Java": 6931,
      "c4": 6932,
      "hd": 6933,
      "pment": 6934,
      "als": 6935,
      "concurrent": 6936,
      "IsEmpty": 6937,
      "genesis": 6938,
      "LIABLE": 6939,
      "Cy": 6940,
      "rx": 6941,
      "(\"<": 6942,
      "uling": 6943,
      "ceed": 6944,
      "Demo": 6945,
      "SetValue": 6946,
      "ListNode": 6947,
      "colors": 6948,
      "warn": 6949,
      "WHETHER": 6950,
      "Estim": 6951,
      "k1": 6952,
      "mx": 6953,
      "libs": 6954,
      "____": 6955,
      "Consensus": 6956,
      "Succeed": 6957,
      "ARISING": 6958,
      "m2": 6959,
      "restart": 6960,
      "NewList": 6961,
      "Prompt": 6962,
      "INTO": 6963,
      "Does": 6964,
      "checking": 6965,
      "topics": 6966,
      "_proto_msgTypes": 6967,
      "publisher": 6968,
      "restriction": 6969,
      "ividual": 6970,
      "Native": 6971,
      "()},": 6972,
      "issuer": 6973,
      "GetClient": 6974,
      "....": 6975,
      "WithValue": 6976,
      "couldn": 6977,
      "saved": 6978,
      "segments": 6979,
      "gm": 6980,
      "hig": 6981,
      "wc": 6982,
      "stud": 6983,
      "goto": 6984,
      "heartbeat": 6985,
      "Logic": 6986,
      "REG": 6987,
      "Html": 6988,
      "Affected": 6989,
      "vn": 6990,
      "sequ": 6991,
      "elong": 6992,
      "ErrorMessage": 6993,
      "NewRouter": 6994,
      "UserInfo": 6995,
      "Specs": 6996,
      "baseURL": 6997,
      "ECDS": 6998,
      "Minor": 6999,
      "Plane": 7000,
      "client_golang": 7001,
      "82": 7002,
      "LE_": 7003,
      "Sq": 7004,
      "_error": 7005,
      "csr": 7006,
      "sz": 7007,
      "oracle": 7008,
      "teardown": 7009,
      "Rec": 7010,
      "experiment": 7011,
      "cribed": 7012,
      "Acquire": 7013,
      "Coll": 7014,
      "Dirs": 7015,
      "uplic": 7016,
      "Ban": 7017,
      "Bid": 7018,
      "Det": 7019,
      "effect": 7020,
      "adm": 7021,
      "proposal": 7022,
      "Deserialize": 7023,
      "sdl": 7024,
      "reports": 7025,
      "Authenticate": 7026,
      "O_CREATE": 7027,
      "mployee": 7028,
      "Just": 7029,
      "Lex": 7030,
      "WISE": 7031,
      "ko": 7032,
      "xorm": 7033,
      "GetCurrent": 7034,
      "compiler": 7035,
      "Transition": 7036,
      "datab": 7037,
      "NotFoundError": 7038,
      "cut": 7039,
      "direction": 7040,
      "hore": 7041,
      "lit": 7042,
      "insecure": 7043,
      "three": 7044,
      "Comments": 7045,
      "fixtures": 7046,
      "/\"+": 7047,
      "Fns": 7048,
      "ync": 7049,
      "\")},": 7050,
      "FileMode": 7051,
      "locked": 7052,
      "fieldName": 7053,
      "blue": 7054,
      "volumes": 7055,
      "Locations": 7056,
      "Pb": 7057,
      "TORT": 7058,
      "hn": 7059,
      "smtp": 7060,
      "erda": 7061,
      "Inventory": 7062,
      "Unstructured": 7063,
      "maphore": 7064,
      "Quality": 7065,
      "Original": 7066,
      "Known": 7067,
      "Future": 7068,
      "SG": 7069,
      "lik": 7070,
      "rive": 7071,
      "GetType": 7072,
      "Train": 7073,
      "DefaultClient": 7074,
      "Backoff": 7075,
      "Reflect": 7076,
      "\"}}": 7077,
      "infrastructure": 7078,
      "OTHERWISE": 7079,
      "Fd": 7080,
      "LS": 7081,
      "Say": 7082,
      "Tail": 7083,
      "criteria": 7084,
      "Topology": 7085,
      "Complex": 7086,
      "max_": 7087,
      "0x06": 7088,
      "knative": 7089,
      "wraps": 7090,
      "ASE": 7091,
      "Cast": 7092,
      "Frequency": 7093,
      "Ring": 7094,
      "_file": 7095,
      "builds": 7096,
      "fiber": 7097,
      "ServerInfo": 7098,
      "].(*": 7099,
      "mlink": 7100,
      "ClusterName": 7101,
      "obtaining": 7102,
      "384": 7103,
      "guard": 7104,
      "supplied": 7105,
      "Corpor": 7106,
      "033": 7107,
      "Given": 7108,
      "d5": 7109,
      "roid": 7110,
      "andwidth": 7111,
      "useful": 7112,
      "ively": 7113,
      "fili": 7114,
      "AST": 7115,
      "ResourceList": 7116,
      "stopCh": 7117,
      "Smart": 7118,
      "CONFIG": 7119,
      "_to": 7120,
      "family": 7121,
      "erve": 7122,
      "Admission": 7123,
      "illing": 7124,
      "nounce": 7125,
      "Certificates": 7126,
      "Limits": 7127,
      "sky": 7128,
      "Provisioner": 7129,
      "Mutation": 7130,
      "DER": 7131,
      "b4": 7132,
      "cockroach": 7133,
      "TypeEnum": 7134,
      "ferred": 7135,
      "parallel": 7136,
      "achines": 7137,
      "EventHandler": 7138,
      "handled": 7139,
      "DefaultConfig": 7140,
      "Generation": 7141,
      "AccountID": 7142,
      "scenario": 7143,
      "HOLDERS": 7144,
      "Cached": 7145,
      "ny": 7146,
      "enough": 7147,
      "GetBool": 7148,
      "gov": 7149,
      "Produce": 7150,
      "Disconnect": 7151,
      "prints": 7152,
      "appsv1": 7153,
      "00000000000000000000000000000000": 7154,
      "DiscardUnknown": 7155,
      "copied": 7156,
      "dy": 7157,
      "informers": 7158,
      "StatusUnauthorized": 7159,
      "Handshake": 7160,
      "----------------------------------------------------------------": 7161,
      "audio": 7162,
      "utf8": 7163,
      "automatically": 7164,
      "Cart": 7165,
      "Gender": 7166,
      "TT": 7167,
      "_CO": 7168,
      "gcp": 7169,
      "ron": 7170,
      "zen": 7171,
      "states": 7172,
      "ellow": 7173,
      "obar": 7174,
      "ored": 7175,
      "ExitCode": 7176,
      "things": 7177,
      "respond": 7178,
      "legacy": 7179,
      "Utils": 7180,
      "V1alpha1": 7181,
      "K8": 7182,
      "Na": 7183,
      "{&": 7184,
      "updating": 7185,
      "fixture": 7186,
      "expand": 7187,
      "matcher": 7188,
      "pgx": 7189,
      "SIGTERM": 7190,
      "BGP": 7191,
      "ktop": 7192,
      "nb": 7193,
      "unrecognized": 7194,
      "olar": 7195,
      "applications": 7196,
      "executable": 7197,
      "PullRequest": 7198,
      "\"=": 7199,
      "92": 7200,
      "Sur": 7201,
      "pat": 7202,
      "plot": 7203,
      "schemas": 7204,
      "ense": 7205,
      "Infra": 7206,
      "IsNotFound": 7207,
      "ReadOnly": 7208,
      "TIME": 7209,
      "Curve": 7210,
      "partial": 7211,
      "AUTHORS": 7212,
      "Techno": 7213,
      "mattermost": 7214,
      "Ranges": 7215,
      "Sock": 7216,
      "e1": 7217,
      "virt": 7218,
      "alib": 7219,
      "Resize": 7220,
      "listening": 7221,
      "BasicAuth": 7222,
      "gophercloud": 7223,
      "dry": 7224,
      "interceptor": 7225,
      "Unavailable": 7226,
      "WriteResponse": 7227,
      "ASF": 7228,
      "Substring": 7229,
      "ParseFloat": 7230,
      "smart": 7231,
      "Buckets": 7232,
      "Consul": 7233,
      "reconciler": 7234,
      "Denom": 7235,
      "Emoji": 7236,
      "PVC": 7237,
      "TE": 7238,
      "_address": 7239,
      "releases": 7240,
      "irmed": 7241,
      "StringSubmatch": 7242,
      "OrderBy": 7243,
      "FindAll": 7244,
      "Existing": 7245,
      "factor": 7246,
      "captures": 7247,
      "WARNING": 7248,
      "ASCII": 7249,
      "74": 7250,
      "_version": 7251,
      "fname": 7252,
      "ensu": 7253,
      "lots": 7254,
      "elapsed": 7255,
      "special": 7256,
      "greater": 7257,
      ",%": 7258,
      "Ep": 7259,
      "land": 7260,
      "week": 7261,
      "NetworkPolicy": 7262,
      "12345": 7263,
      "Invite": 7264,
      "Floor": 7265,
      "L_": 7266,
      "bz": 7267,
      "ised": 7268,
      "pers": 7269,
      "escape": 7270,
      "Stake": 7271,
      "logies": 7272,
      "Deposit": 7273,
      "filecoin": 7274,
      "ReadResponse": 7275,
      "posts": 7276,
      "TrimSuffix": 7277,
      "bindings": 7278,
      "================================": 7279,
      ")...)": 7280,
      "73": 7281,
      "81": 7282,
      "fh": 7283,
      "nginx": 7284,
      "isn": 7285,
      "ceeded": 7286,
      "NewService": 7287,
      "prod": 7288,
      "0x10": 7289,
      "Vals": 7290,
      "KeyType": 7291,
      "clientcmd": 7292,
      "protoreflect": 7293,
      "Click": 7294,
      "limitation": 7295,
      "BufferSize": 7296,
      "RawQuery": 7297,
      "Validators": 7298,
      "orders": 7299,
      "Capture": 7300,
      "amera": 7301,
      "BB": 7302,
      "]{": 7303,
      "browser": 7304,
      "l2": 7305,
      "those": 7306,
      "GetPayload": 7307,
      "Sem": 7308,
      "applied": 7309,
      "minimum": 7310,
      "That": 7311,
      "AppID": 7312,
      "Base64": 7313,
      "Minimum": 7314,
      "hooks": 7315,
      "FirstName": 7316,
      "OAuth2": 7317,
      "Association": 7318,
      "encryption": 7319,
      "/\")": 7320,
      "TES": 7321,
      "sheet": 7322,
      "([][]": 7323,
      "Pools": 7324,
      "0x8b": 7325,
      "Swagger": 7326,
      "Authenticator": 7327,
      "0x1f": 7328,
      "_server": 7329,
      "java": 7330,
      "sandbox": 7331,
      "apiv1": 7332,
      "complex": 7333,
      "Discover": 7334,
      "Packages": 7335,
      "VolumeMount": 7336,
      "INGS": 7337,
      "buckets": 7338,
      "hereby": 7339,
      "Executable": 7340,
      "./": 7341,
      "Cycle": 7342,
      "Ledger": 7343,
      "`))": 7344,
      "n1": 7345,
      "oted": 7346,
      "Seg": 7347,
      "ecdsa": 7348,
      "CreateTime": 7349,
      "ResourceAttr": 7350,
      "AppConfig": 7351,
      "exception": 7352,
      "Linked": 7353,
      "Domains": 7354,
      "Deployments": 7355,
      "Scopes": 7356,
      "Indicator": 7357,
      "\":{\"": 7358,
      "vents": 7359,
      "portions": 7360,
      "NotEqual": 7361,
      "libp2p": 7362,
      "blk": 7363,
      "serving": 7364,
      "persons": 7365,
      "replica": 7366,
      "asynchronous": 7367,
      "alibaba": 7368,
      "Cause": 7369,
      "DE_": 7370,
      "IE": 7371,
      "nr": 7372,
      "pvc": 7373,
      "decoding": 7374,
      "ropy": 7375,
      "isValid": 7376,
      "GetLogger": 7377,
      "Unset": 7378,
      "AllOf": 7379,
      "Leaf": 7380,
      "0x49": 7381,
      "updated_at": 7382,
      "Translate": 7383,
      "Padding": 7384,
      "Sil": 7385,
      "Vendor": 7386,
      "_F": 7387,
      "_R": 7388,
      "btc": 7389,
      "kl": 7390,
      "pear": 7391,
      "ulation": 7392,
      "mismatch": 7393,
      "Hashes": 7394,
      "PORT": 7395,
      "Tcp": 7396,
      "dyn": 7397,
      "e6": 7398,
      "aration": 7399,
      "cty": 7400,
      "Stud": 7401,
      "0x30": 7402,
      "antial": 7403,
      "protos": 7404,
      "whom": 7405,
      "LabelValues": 7406,
      "MustNew": 7407,
      "licensed": 7408,
      "CRD": 7409,
      "badger": 7410,
      "RINGEMENT": 7411,
      "INFRINGEMENT": 7412,
      "fleet": 7413,
      "itself": 7414,
      "exclude": 7415,
      "grace": 7416,
      "canvas": 7417,
      "ParseIP": 7418,
      "vote": 7419,
      "mutable": 7420,
      "\"?": 7421,
      "GR": 7422,
      "_date": 7423,
      "f6": 7424,
      "m1": 7425,
      "dee": 7426,
      "trunc": 7427,
      "itecture": 7428,
      "keybase": 7429,
      "Upsert": 7430,
      "WriteJSON": 7431,
      "envconfig": 7432,
      "certain": 7433,
      "ServeMux": 7434,
      "Distribution": 7435,
      "substantial": 7436,
      "cgo": 7437,
      "uds": 7438,
      "notifications": 7439,
      "anceled": 7440,
      "Retention": 7441,
      "HostPort": 7442,
      "NumberOf": 7443,
      "certificates": 7444,
      "slug": 7445,
      "glfw": 7446,
      "Definitions": 7447,
      "launch": 7448,
      "Whitelist": 7449,
      "LLC": 7450,
      "'/": 7451,
      "94": 7452,
      "Gold": 7453,
      "Concurrency": 7454,
      "outs": 7455,
      "iris": 7456,
      "Docs": 7457,
      "flake": 7458,
      "2000": 7459,
      "latency": 7460,
      "Telemetry": 7461,
      "Robot": 7462,
      "Fg": 7463,
      "RR": 7464,
      "jenkins": 7465,
      "Refs": 7466,
      "Recovery": 7467,
      "cors": 7468,
      "Qual": 7469,
      "sourcegraph": 7470,
      "subscriptions": 7471,
      "Partial": 7472,
      "resolved": 7473,
      "andidates": 7474,
      "invokes": 7475,
      "NET": 7476,
      "Tunnel": 7477,
      "fx": 7478,
      "gui": 7479,
      "large": 7480,
      "mus": 7481,
      "{\\\"": 7482,
      "replication": 7483,
      "argo": 7484,
      "Alter": 7485,
      "Special": 7486,
      "ensitive": 7487,
      "blank": 7488,
      "CompactTextString": 7489,
      "Instr": 7490,
      "Logo": 7491,
      "performs": 7492,
      "TestData": 7493,
      "kubeClient": 7494,
      "PersistentVolume": 7495,
      "BS": 7496,
      "DES": 7497,
      "bcrypt": 7498,
      "dar": 7499,
      "severity": 7500,
      "testData": 7501,
      "Profiles": 7502,
      "curl": 7503,
      "Assets": 7504,
      "Specific": 7505,
      "Words": 7506,
      "installed": 7507,
      "ordered": 7508,
      "Deletion": 7509,
      "executes": 7510,
      "includes": 7511,
      "KeepAlive": 7512,
      "discordgo": 7513,
      "developer": 7514,
      "DIR": 7515,
      "quantity": 7516,
      "registr": 7517,
      "service_": 7518,
      "Att": 7519,
      "BlockSize": 7520,
      "Blockchain": 7521,
      "negative": 7522,
      "Canvas": 7523,
      "FullName": 7524,
      "deleting": 7525,
      "arison": 7526,
      "candidate": 7527,
      "furn": 7528,
      "i2": 7529,
      "wanted": 7530,
      "\"`,": 7531,
      "ENV": 7532,
      "placeholder": 7533,
      "TestCheckResourceAttr": 7534,
      "influxdb": 7535,
      "Will": 7536,
      "conversion": 7537,
      "Stand": 7538,
      "Errs": 7539,
      "double": 7540,
      "Buy": 7541,
      "correctly": 7542,
      "business": 7543,
      "Brand": 7544,
      "Hint": 7545,
      "bon": 7546,
      "kle": 7547,
      "ru": 7548,
      "icult": 7549,
      "Repos": 7550,
      "GetBy": 7551,
      "result2": 7552,
      "IntVar": 7553,
      "sublicense": 7554,
      "limits": 7555,
      "alphabet": 7556,
      "scene": 7557,
      "DEAL": 7558,
      "pageSize": 7559,
      "waitFor": 7560,
      "Edges": 7561,
      "666": 7562,
      "Atom": 7563,
      "Solution": 7564,
      "gold": 7565,
      "Stores": 7566,
      "trail": 7567,
      "coded": 7568,
      "trip": 7569,
      "frames": 7570,
      "visitor": 7571,
      "receipt": 7572,
      "embedded": 7573,
      "furnished": 7574,
      ".([]": 7575,
      "1_": 7576,
      "Dash": 7577,
      "afero": 7578,
      "ih": 7579,
      "ku": 7580,
      "concurrency": 7581,
      "edges": 7582,
      "ends": 7583,
      "nodeName": 7584,
      "0x66": 7585,
      "csi": 7586,
      "0x09": 7587,
      "Encoded": 7588,
      "LOCK": 7589,
      "Bootstrap": 7590,
      "NONINFRINGEMENT": 7591,
      "Guid": 7592,
      "May": 7593,
      "NE": 7594,
      "Vo": 7595,
      "city": 7596,
      "e3": 7597,
      "tun": 7598,
      "ipp": 7599,
      "Alarm": 7600,
      "Maximum": 7601,
      "MetaData": 7602,
      "players": 7603,
      "views": 7604,
      "403": 7605,
      "merged": 7606,
      "_PRO": 7607,
      "Creds": 7608,
      "converter": 7609,
      "IBM": 7610,
      "Dispatcher": 7611,
      "DEALINGS": 7612,
      "Nav": 7613,
      "a6": 7614,
      "f0": 7615,
      "al_": 7616,
      "mpot": 7617,
      "igo": 7618,
      "NewFile": 7619,
      "NewUser": 7620,
      "generation": 7621,
      "tcell": 7622,
      "0x05": 7623,
      "reporter": 7624,
      "acceptance": 7625,
      "attempts": 7626,
      "ysical": 7627,
      "FIX": 7628,
      "scopes": 7629,
      "Invocation": 7630,
      "WORK": 7631,
      "Alpha": 7632,
      "Credit": 7633,
      "120": 7634,
      "Categories": 7635,
      "Ren": 7636,
      "Win": 7637,
      "ially": 7638,
      "mal": 7639,
      "sensor": 7640,
      "stake": 7641,
      "http_": 7642,
      "Compression": 7643,
      "OpenAPI": 7644,
      "definitions": 7645,
      "otel": 7646,
      "VALUES": 7647,
      "ulnerability": 7648,
      "entracing": 7649,
      "bw": 7650,
      "duplicate": 7651,
      "iu": 7652,
      "apt": 7653,
      "Observer": 7654,
      "noop": 7655,
      "Sym": 7656,
      "0x42": 7657,
      "garden": 7658,
      "Launch": 7659,
      "SK": 7660,
      "TEST": 7661,
      "ran": 7662,
      "idle": 7663,
      "httputil": 7664,
      "Teams": 7665,
      "undles": 7666,
      "Notes": 7667,
      "(\"%+": 7668,
      "UseCase": 7669,
      "cidr": 7670,
      "123456789": 7671,
      "83": 7672,
      "CESS": 7673,
      "RC": 7674,
      "]);": 7675,
      "r2": 7676,
      "Shop": 7677,
      "These": 7678,
      "inkgo": 7679,
      "RegisterType": 7680,
      "Statistics": 7681,
      "levels": 7682,
      "networking": 7683,
      "nft": 7684,
      "|=": 7685,
      "movie": 7686,
      "quick": 7687,
      "structions": 7688,
      "interpret": 7689,
      "ights": 7690,
      "IsSet": 7691,
      "FromBytes": 7692,
      "REG_": 7693,
      "0x22": 7694,
      "warm": 7695,
      "exitCode": 7696,
      "AccAddress": 7697,
      "_size": 7698,
      "cad": 7699,
      "dag": 7700,
      "xerrors": 7701,
      "ilar": 7702,
      "strs": 7703,
      "observ": 7704,
      "indicate": 7705,
      "cribers": 7706,
      "dog": 7707,
      "Alt": 7708,
      "...\",": 7709,
      "signals": 7710,
      "Slug": 7711,
      "plaintext": 7712,
      "Detector": 7713,
      "IZE": 7714,
      "Diagnostics": 7715,
      "3000": 7716,
      "Dif": 7717,
      "PM": 7718,
      "Sid": 7719,
      "_SE": 7720,
      "h1": 7721,
      "recovery": 7722,
      "acme": 7723,
      "topology": 7724,
      "NewSession": 7725,
      "affili": 7726,
      "Authority": 7727,
      "house": 7728,
      "EC2": 7729,
      "InstanceId": 7730,
      "scheduled": 7731,
      "Delegate": 7732,
      "FQ": 7733,
      "NAT": 7734,
      "Nested": 7735,
      "_TOKEN": 7736,
      "kms": 7737,
      "erature": 7738,
      "units": 7739,
      "according": 7740,
      "comments": 7741,
      "0x32": 7742,
      "anger": 7743,
      "consts": 7744,
      "describe": 7745,
      "------------": 7746,
      "opentelemetry": 7747,
      "MarshalIndent": 7748,
      "18n": 7749,
      "VirtualNetwork": 7750,
      "likely": 7751,
      ">\"": 7752,
      "Camel": 7753,
      "Ginkgo": 7754,
      "Jwt": 7755,
      "Mob": 7756,
      "Deps": 7757,
      "Applic": 7758,
      "subcommands": 7759,
      "Expiry": 7760,
      "Attrs": 7761,
      "published": 7762,
      "satis": 7763,
      "bulk": 7764,
      "mv": 7765,
      "{}}": 7766,
      "opentracing": 7767,
      "Registered": 7768,
      "ixin": 7769,
      "LastName": 7770,
      "UNK": 7771,
      ":]...)": 7772,
      "firewall": 7773,
      "bcs": 7774,
      "hmac": 7775,
      "m3": 7776,
      "abl": 7777,
      "SetName": 7778,
      "trie": 7779,
      "grpc_": 7780,
      "ChannelID": 7781,
      "Mid": 7782,
      "guid": 7783,
      "sil": 7784,
      "stre": 7785,
      "alter": 7786,
      "iced": 7787,
      "ipant": 7788,
      "Combined": 7789,
      "Cols": 7790,
      "discover": 7791,
      "FieldName": 7792,
      "HTTPRequest": 7793,
      "BeTrue": 7794,
      "DebugLevel": 7795,
      "conflict": 7796,
      "mited": 7797,
      "Paginator": 7798,
      "SMTP": 7799,
      "dhcp": 7800,
      ")})": 7801,
      "+\".": 7802,
      "Average": 7803,
      "DC": 7804,
      "Pal": 7805,
      "_ip": 7806,
      "rat": 7807,
      "sg": 7808,
      "newTest": 7809,
      "Interfaces": 7810,
      "ContainSubstring": 7811,
      "ChainID": 7812,
      "chool": 7813,
      "CSI": 7814,
      "UOffset": 7815,
      "_go": 7816,
      "dos": 7817,
      "dash": 7818,
      "unless": 7819,
      "NewS": 7820,
      "prog": 7821,
      "SetOutput": 7822,
      "prise": 7823,
      "Verification": 7824,
      "linked": 7825,
      "tmpDir": 7826,
      "Monitoring": 7827,
      "Pretty": 7828,
      "='": 7829,
      "Vert": 7830,
      "\\\"\",": 7831,
      "np": 7832,
      "ula": 7833,
      "Locked": 7834,
      "BaseResponse": 7835,
      "priate": 7836,
      "xyz": 7837,
      "MustParse": 7838,
      "Dialog": 7839,
      "Capabilities": 7840,
      "UsingGET": 7841,
      "Dummy": 7842,
      "Feder": 7843,
      "NEXT": 7844,
      "ServerConfig": 7845,
      "++++": 7846,
      "cii": 7847,
      "crt": 7848,
      "Bindings": 7849,
      "ApiKey": 7850,
      "production": 7851,
      "SERVER": 7852,
      "initializes": 7853,
      "Pagination": 7854,
      "2_": 7855,
      "93": 7856,
      "_port": 7857,
      "lt": 7858,
      "nf": 7859,
      "stock": 7860,
      "StringP": 7861,
      "Experiment": 7862,
      "key1": 7863,
      "ctionary": 7864,
      "Contri": 7865,
      "mock_": 7866,
      "IPAddress": 7867,
      "MaxSize": 7868,
      "Canonical": 7869,
      "Scenario": 7870,
      "ggle": 7871,
      "NOTICE": 7872,
      "Dto": 7873,
      "Human": 7874,
      "_G": 7875,
      "dur": 7876,
      "oth": 7877,
      "eto": 7878,
      "Cover": 7879,
      "new_": 7880,
      "FileDescriptor": 7881,
      "addon": 7882,
      "minio": 7883,
      "crete": 7884,
      "0x68": 7885,
      "EXIS": 7886,
      "locations": 7887,
      "Ticket": 7888,
      "Commun": 7889,
      "craw": 7890,
      "align": 7891,
      "iform": 7892,
      "deadline": 7893,
      "GetResource": 7894,
      "indexes": 7895,
      "ValidateName": 7896,
      "NetworkID": 7897,
      "tlsConfig": 7898,
      "Avg": 7899,
      "Warnings": 7900,
      "Guard": 7901,
      "privKey": 7902,
      "Analyzer": 7903,
      "appropriate": 7904,
      "CompositeValidationError": 7905,
      "E2": 7906,
      "Iam": 7907,
      "Tar": 7908,
      "tu": 7909,
      "destroy": 7910,
      "NodeName": 7911,
      "MaxIdle": 7912,
      "Good": 7913,
      "telegram": 7914,
      "Responses": 7915,
      "wiki": 7916,
      "AI": 7917,
      "MT": 7918,
      "_set": 7919,
      "belong": 7920,
      "urer": 7921,
      "//\"": 7922,
      "trade": 7923,
      "shut": 7924,
      "Statuses": 7925,
      "ForConfig": 7926,
      "opening": 7927,
      "ATED": 7928,
      "HOME": 7929,
      "InstanceID": 7930,
      "documents": 7931,
      "cards": 7932,
      "aggregate": 7933,
      "ownership": 7934,
      "httpro": 7935,
      "Technologies": 7936,
      "iculty": 7937,
      "Daily": 7938,
      "Magic": 7939,
      "kp": 7940,
      "{[]": 7941,
      "etched": 7942,
      "aming": 7943,
      "shop": 7944,
      "OrUpdate": 7945,
      "0x76": 7946,
      "relay": 7947,
      "Life": 7948,
      "zones": 7949,
      "Constraints": 7950,
      "Removed": 7951,
      "How": 7952,
      "friend": 7953,
      "hw": 7954,
      "ulator": 7955,
      "Under": 7956,
      "AuthToken": 7957,
      "syslog": 7958,
      "better": 7959,
      "packets": 7960,
      "delivery": 7961,
      "Attempt": 7962,
      "vanced": 7963,
      "Remaining": 7964,
      "regarding": 7965,
      "Circle": 7966,
      "Ti": 7967,
      "rn": 7968,
      "vect": 7969,
      "}:": 7970,
      "testName": 7971,
      "GetService": 7972,
      "clientID": 7973,
      "doing": 7974,
      "ReadTimeout": 7975,
      "defaultValue": 7976,
      "authors": 7977,
      "HOST": 7978,
      "Numeric": 7979,
      "Synced": 7980,
      "warded": 7981,
      "TempFile": 7982,
      "Guild": 7983,
      "HomeDir": 7984,
      "BoolVarP": 7985,
      "Strip": 7986,
      "atlas": 7987,
      "unlock": 7988,
      "()})": 7989,
      "acenter": 7990,
      "Stringer": 7991,
      "TestCreate": 7992,
      "UpdateTime": 7993,
      "Hours": 7994,
      "panics": 7995,
      "suppress": 7996,
      "zo": 7997,
      "sep": 7998,
      "stripe": 7999,
      "isk": 8000,
      "oting": 8001,
      "WithName": 8002,
      "corp": 8003,
      "Reading": 8004,
      "ReadDir": 8005,
      "expiry": 8006,
      "FlagName": 8007,
      "closes": 8008,
      "Emitter": 8009,
      "Break": 8010,
      "Fault": 8011,
      "mess": 8012,
      "pick": 8013,
      "vance": 8014,
      "union": 8015,
      "accepted": 8016,
      "Getwd": 8017,
      "fakes": 8018,
      "LogEntry": 8019,
      "loads": 8020,
      "Desired": 8021,
      "php": 8022,
      "Transformer": 8023,
      "FailNow": 8024,
      "READ": 8025,
      "Successful": 8026,
      "777": 8027,
      "executing": 8028,
      "Placeholder": 8029,
      "au": 8030,
      "cart": 8031,
      "Rep": 8032,
      "Relay": 8033,
      "Invok": 8034,
      "0x80": 8035,
      "0x33": 8036,
      "obao": 8037,
      "calc": 8038,
      "Chars": 8039,
      "SERVIC": 8040,
      "capture": 8041,
      "Dimension": 8042,
      "Constructor": 8043,
      "Anchor": 8044,
      "4d": 8045,
      "Don": 8046,
      "gvk": 8047,
      "sts": 8048,
      "deb": 8049,
      "id2": 8050,
      "SetContext": 8051,
      "WriteCloser": 8052,
      "ObjectReference": 8053,
      "anything": 8054,
      "Flat": 8055,
      "aliases": 8056,
      "Published": 8057,
      "ultiplier": 8058,
      "didn": 8059,
      "serialized": 8060,
      "instrument": 8061,
      "Truncate": 8062,
      "Duplicate": 8063,
      "emoji": 8064,
      "sch": 8065,
      "Recent": 8066,
      "NewMessage": 8067,
      "SetId": 8068,
      "AddTo": 8069,
      "Notice": 8070,
      "Notifications": 8071,
      "ObjectType": 8072,
      "Modifier": 8073,
      "Modules": 8074,
      "processes": 8075,
      "0x4f": 8076,
      "V1beta1": 8077,
      "kingpin": 8078,
      "syntax": 8079,
      "KS": 8080,
      "Schemas": 8081,
      "elev": 8082,
      "rack": 8083,
      "inventory": 8084,
      "asc": 8085,
      "optFns": 8086,
      "MessageState": 8087,
      "STATUS": 8088,
      "0x2d": 8089,
      "0xe2": 8090,
      "everything": 8091,
      "MongoDB": 8092,
      "gardener": 8093,
      "1f": 8094,
      "4f": 8095,
      "=?": 8096,
      "GCP": 8097,
      "JO": 8098,
      "Pixel": 8099,
      "dAt": 8100,
      "inu": 8101,
      "agg": 8102,
      "tracing": 8103,
      "endTime": 8104,
      "Maps": 8105,
      "mocked": 8106,
      "nodeID": 8107,
      "datap": 8108,
      "fieldType": 8109,
      "0x07": 8110,
      "0x4b": 8111,
      "Rotate": 8112,
      "\"@": 8113,
      "(<-": 8114,
      "CMD": 8115,
      "bash": 8116,
      "ield": 8117,
      "NewWith": 8118,
      "mob": 8119,
      "cluded": 8120,
      "GroupId": 8121,
      "UTX": 8122,
      "trying": 8123,
      "routine": 8124,
      "MustRegister": 8125,
      "Possible": 8126,
      "insolar": 8127,
      "Gray": 8128,
      "panel": 8129,
      "Terminal": 8130,
      "SI": 8131,
      "Take": 8132,
      "tv": 8133,
      "}`,": 8134,
      "observed": 8135,
      "requirements": 8136,
      "counts": 8137,
      "Unmarshaler": 8138,
      "imageName": 8139,
      "directories": 8140,
      "COMP": 8141,
      "Phrase": 8142,
      "consider": 8143,
      "mirror": 8144,
      "WORD": 8145,
      "\\\",\\\"": 8146,
      "ivalent": 8147,
      "_0": 8148,
      "ja": 8149,
      "mh": 8150,
      "zu": 8151,
      "erial": 8152,
      "ora": 8153,
      "Stor": 8154,
      "question": 8155,
      "SetConfig": 8156,
      "Algo": 8157,
      "Int16": 8158,
      "dirs": 8159,
      "Levels": 8160,
      "SplitN": 8161,
      "restful": 8162,
      "fetcher": 8163,
      "O_WR": 8164,
      "Extractor": 8165,
      "provisioner": 8166,
      "PKCS": 8167,
      "DATA": 8168,
      "retrieved": 8169,
      "Mobile": 8170,
      "O_WRONLY": 8171,
      "600": 8172,
      "GT": 8173,
      "GZ": 8174,
      "Py": 8175,
      "Scr": 8176,
      "ball": 8177,
      "vendor": 8178,
      "seal": 8179,
      "dead": 8180,
      "Reload": 8181,
      "asis": 8182,
      "Concurrent": 8183,
      "Incoming": 8184,
      "KeyUsage": 8185,
      "Unpack": 8186,
      "appID": 8187,
      "Requested": 8188,
      "Subsystem": 8189,
      "111": 8190,
      "Waiting": 8191,
      "markdown": 8192,
      "properly": 8193,
      "analytics": 8194,
      "httprouter": 8195,
      "*(": 8196,
      ".`,": 8197,
      "Der": 8198,
      "EQ": 8199,
      "jin": 8200,
      "slow": 8201,
      "snow": 8202,
      "chant": 8203,
      "NewLogger": 8204,
      "foobar": 8205,
      "Keyword": 8206,
      "IPNet": 8207,
      "startup": 8208,
      "Marker": 8209,
      "hashes": 8210,
      "channelID": 8211,
      "eek": 8212,
      "Finder": 8213,
      "Employee": 8214,
      "Turn": 8215,
      "c_": 8216,
      "fit": 8217,
      "ane": 8218,
      "arDown": 8219,
      "course": 8220,
      "ado": 8221,
      "{}))": 8222,
      "argin": 8223,
      "configMap": 8224,
      "assume": 8225,
      "miner": 8226,
      "k8sClient": 8227,
      "Working": 8228,
      "VolumeSource": 8229,
      "UNC": 8230,
      "MD5": 8231,
      "harbor": 8232,
      "Suggest": 8233,
      "K8S": 8234,
      "Bold": 8235,
      "Ta": 8236,
      "Uuid": 8237,
      "nom": 8238,
      "intain": 8239,
      "GetData": 8240,
      "0x17": 8241,
      "ipv6": 8242,
      "avg": 8243,
      "0x41": 8244,
      "bucketName": 8245,
      "DEFAULT": 8246,
      "Corporation": 8247,
      "3d": 8248,
      "Em": 8249,
      "_user": 8250,
      "`\"": 8251,
      "c6": 8252,
      "hist": 8253,
      "erier": 8254,
      "references": 8255,
      "profiles": 8256,
      "hest": 8257,
      "apierrors": 8258,
      "fetching": 8259,
      "ighted": 8260,
      "0xc9": 8261,
      "Terms": 8262,
      "(\",": 8263,
      "Tencent": 8264,
      "magic": 8265,
      "ancy": 8266,
      "sect": 8267,
      "Recipe": 8268,
      "ople": 8269,
      "portal": 8270,
      "txs": 8271,
      "general": 8272,
      "books": 8273,
      "guaran": 8274,
      "testAccCheck": 8275,
      "Gard": 8276,
      "Hit": 8277,
      "Ide": 8278,
      "]\\": 8279,
      "(\"--": 8280,
      "logged": 8281,
      "offer": 8282,
      "Exclus": 8283,
      "Party": 8284,
      "WithMessage": 8285,
      "WithLabelValues": 8286,
      "dia": 8287,
      "Iterate": 8288,
      "poly": 8289,
      "UDPAddr": 8290,
      "Privile": 8291,
      "1234567890": 8292,
      "GH": 8293,
      "Gate": 8294,
      "LB": 8295,
      "campaign": 8296,
      "give": 8297,
      "hold": 8298,
      "iate": 8299,
      "ients": 8300,
      "vpn": 8301,
      "teams": 8302,
      "retries": 8303,
      "funcs": 8304,
      "NewApp": 8305,
      "NewForConfig": 8306,
      "Exclude": 8307,
      "ResponseError": 8308,
      "python": 8309,
      "minutes": 8310,
      "denom": 8311,
      "Autoscal": 8312,
      "Rectangle": 8313,
      "darwin": 8314,
      "Har": 8315,
      "f7": 8316,
      "jar": 8317,
      "s5": 8318,
      "orth": 8319,
      "oral": 8320,
      "GetID": 8321,
      "aste": 8322,
      "NotAllowed": 8323,
      "ObjectID": 8324,
      "basePath": 8325,
      "OutputWithContext": 8326,
      "FieldType": 8327,
      "access_token": 8328,
      "Identification": 8329,
      "\"-\"": 8330,
      "Products": 8331,
      "ApplyT": 8332,
      "persistence": 8333,
      "dimension": 8334,
      "UOffsetT": 8335,
      "/>": 8336,
      "??": 8337,
      "Ker": 8338,
      "PER": 8339,
      "l1": 8340,
      "m_": 8341,
      "zhu": 8342,
      "Repositories": 8343,
      "abstr": 8344,
      "KeyFile": 8345,
      "ListMeta": 8346,
      "FileExists": 8347,
      "filer": 8348,
      "Measurement": 8349,
      "Plus": 8350,
      "ParseUint": 8351,
      "STR": 8352,
      "Extended": 8353,
      "specification": 8354,
      "chars": 8355,
      "passphrase": 8356,
      "manifests": 8357,
      "authenticated": 8358,
      "Legacy": 8359,
      "Dh": 8360,
      "OID": 8361,
      "Pick": 8362,
      "glob": 8363,
      "seek": 8364,
      "locs": 8365,
      "agree": 8366,
      "Repl": 8367,
      "ubator": 8368,
      "applies": 8369,
      "configmap": 8370,
      "ildcard": 8371,
      "ARY": 8372,
      "OnCall": 8373,
      "statistics": 8374,
      "scion": 8375,
      "0x4a": 8376,
      "iteration": 8377,
      "Authorized": 8378,
      "Scaling": 8379,
      "healthy": 8380,
      "Greater": 8381,
      "VALID": 8382,
      "Normalize": 8383,
      "lifecycle": 8384,
      "Hardware": 8385,
      ".,": 8386,
      "Gl": 8387,
      "Glob": 8388,
      "Lib": 8389,
      "LED": 8390,
      "P2": 8391,
      "Sat": 8392,
      "Squ": 8393,
      "V6": 8394,
      "_URL": 8395,
      "xs": 8396,
      "orchestr": 8397,
      "dataSource": 8398,
      "StatusText": 8399,
      "west": 8400,
      "TokenType": 8401,
      "APIServer": 8402,
      "Prec": 8403,
      "ModePerm": 8404,
      "Msgs": 8405,
      "0x79": 8406,
      "Networks": 8407,
      "0x53": 8408,
      "Partic": 8409,
      "Defined": 8410,
      "separated": 8411,
      "StringPtrOutput": 8412,
      "contributor": 8413,
      "%.": 8414,
      "Cross": 8415,
      "MIN": 8416,
      "Piece": 8417,
      "RAM": 8418,
      "_api": 8419,
      "c7": 8420,
      "gtk": 8421,
      "ii": 8422,
      "kt": 8423,
      "vul": 8424,
      "aps": 8425,
      "uby": 8426,
      "Incorrect": 8427,
      "NewErr": 8428,
      "Units": 8429,
      "listing": 8430,
      "conns": 8431,
      "ClusterRole": 8432,
      "craft": 8433,
      "ACE": 8434,
      "ReturnsOnCall": 8435,
      "}).(": 8436,
      "semantic": 8437,
      "persistent": 8438,
      "Elasticsearch": 8439,
      "delegate": 8440,
      "Alib": 8441,
      "fish": 8442,
      "hit": 8443,
      "nu": 8444,
      "wm": 8445,
      "recipient": 8446,
      "Cos": 8447,
      "NewFrom": 8448,
      "arg2": 8449,
      "resource_group": 8450,
      "StorageClass": 8451,
      "Define": 8452,
      "dialer": 8453,
      "Alibaba": 8454,
      "`{": 8455,
      "b3": 8456,
      "kite": 8457,
      "stone": 8458,
      "ErrMsg": 8459,
      "endar": 8460,
      "Setter": 8461,
      "ToFile": 8462,
      "ReadJSON": 8463,
      "solo": 8464,
      "0x48": 8465,
      "drain": 8466,
      "incubator": 8467,
      "retrieving": 8468,
      "Succeeded": 8469,
      "Serializer": 8470,
      "Builtin": 8471,
      "*(*": 8472,
      "P_": 8473,
      "Pa": 8474,
      "Pg": 8475,
      "Taint": 8476,
      "`<": 8477,
      "bh": 8478,
      "f_": 8479,
      "x1b": 8480,
      "thet": 8481,
      "adjust": 8482,
      "GetState": 8483,
      "produce": 8484,
      "userInfo": 8485,
      "usecase": 8486,
      "...).": 8487,
      "NotExists": 8488,
      "requestBody": 8489,
      "Quit": 8490,
      "Int8": 8491,
      "Maintenance": 8492,
      "Structure": 8493,
      "drivers": 8494,
      "installation": 8495,
      "PubSub": 8496,
      "deployments": 8497,
      "SIGINT": 8498,
      "lru": 8499,
      "suggest": 8500,
      "Tensor": 8501,
      "rds": 8502,
      "itlement": 8503,
      "major": 8504,
      "TestContext": 8505,
      "newRequest": 8506,
      "ERC": 8507,
      "enced": 8508,
      "marks": 8509,
      "chunks": 8510,
      "OBJ": 8511,
      "%%": 8512,
      "655": 8513,
      "DF": 8514,
      "Every": 8515,
      "USD": 8516,
      "_value": 8517,
      "_NAME": 8518,
      "bls": 8519,
      "sanit": 8520,
      "peg": 8521,
      "chk": 8522,
      "GetNode": 8523,
      "GetObject": 8524,
      "Typed": 8525,
      "Processed": 8526,
      "WithPayload": 8527,
      "regular": 8528,
      "ClusterConfig": 8529,
      "Txs": 8530,
      "nextToken": 8531,
      "NOWN": 8532,
      "photo": 8533,
      "2d": 8534,
      "CM": 8535,
      "Tor": 8536,
      "cgroup": 8537,
      "ju": 8538,
      "aring": 8539,
      "detected": 8540,
      "vers": 8541,
      "Optim": 8542,
      "Issues": 8543,
      "checkErr": 8544,
      "Plat": 8545,
      "LabelSelector": 8546,
      "Streaming": 8547,
      "{{-": 8548,
      "Resolution": 8549,
      "integr": 8550,
      "converted": 8551,
      "fq": 8552,
      "uck": 8553,
      "deposit": 8554,
      "peek": 8555,
      "\"):": 8556,
      "KeyPrefix": 8557,
      "ToBytes": 8558,
      "assis": 8559,
      "marker": 8560,
      "caCert": 8561,
      "vmware": 8562,
      "pingcap": 8563,
      "Neigh": 8564,
      "ASSWORD": 8565,
      "Circuit": 8566,
      "hq": 8567,
      "mf": 8568,
      "press": 8569,
      "ords": 8570,
      "undoc": 8571,
      "compose": 8572,
      "WriteTimeout": 8573,
      "Counts": 8574,
      "Requirements": 8575,
      "WebSocket": 8576,
      "Formation": 8577,
      "lets": 8578,
      "','": 8579,
      "translate": 8580,
      "undocumented": 8581,
      "\"(": 8582,
      "CString": 8583,
      "Sparse": 8584,
      "xmp": 8585,
      "icing": 8586,
      "ago": 8587,
      "isco": 8588,
      "Reject": 8589,
      "goquery": 8590,
      "0x11": 8591,
      "compression": 8592,
      "Compiler": 8593,
      "Dog": 8594,
      "maybe": 8595,
      "BlockNumber": 8596,
      "BasePath": 8597,
      "secretKey": 8598,
      "DEF": 8599,
      "biten": 8600,
      "overflow": 8601,
      "Temporary": 8602,
      "contrib": 8603,
      "Percentage": 8604,
      "Evaluate": 8605,
      "LT": 8606,
      "literal": 8607,
      "erializ": 8608,
      "reward": 8609,
      "///": 8610,
      "ety": 8611,
      "Enc": 8612,
      "APIs": 8613,
      "Primitive": 8614,
      "Datas": 8615,
      "Installed": 8616,
      "Documents": 8617,
      "NullString": 8618,
      "CRET": 8619,
      "ElementType": 8620,
      "Authorize": 8621,
      "longer": 8622,
      "PATCH": 8623,
      "freq": 8624,
      "gt": 8625,
      "zA": 8626,
      "third": 8627,
      "combin": 8628,
      "ErrorHandler": 8629,
      "typeName": 8630,
      "configv1": 8631,
      "TestClient": 8632,
      "Lists": 8633,
      "systems": 8634,
      "0x40": 8635,
      "validators": 8636,
      "0x1a": 8637,
      "('\\": 8638,
      "UNKNOWN": 8639,
      "\"../": 8640,
      "TB": 8641,
      "Tmpl": 8642,
      "bro": 8643,
      "cw": 8644,
      "mag": 8645,
      "Station": 8646,
      "Instruction": 8647,
      "NewB": 8648,
      "GetDefault": 8649,
      "GetAccount": 8650,
      "mapped": 8651,
      "containerd": 8652,
      "networks": 8653,
      "chemes": 8654,
      "tunnel": 8655,
      "unted": 8656,
      "GetKey": 8657,
      "immediate": 8658,
      "ForEach": 8659,
      "reqBody": 8660,
      "envs": 8661,
      "manent": 8662,
      "SkipVerify": 8663,
      "Blank": 8664,
      "443": 8665,
      "Hooks": 8666,
      "TestCheckFunc": 8667,
      "=?\",": 8668,
      "Critical": 8669,
      "Did": 8670,
      "Gorm": 8671,
      "Nan": 8672,
      "cand": 8673,
      "ebiten": 8674,
      "i18n": 8675,
      "kc": 8676,
      "larg": 8677,
      "ome": 8678,
      "wp": 8679,
      "(\"#": 8680,
      "uty": 8681,
      "otion": 8682,
      "gogo": 8683,
      "fav": 8684,
      "Produ": 8685,
      "Logical": 8686,
      "material": 8687,
      "Ang": 8688,
      "AuthInfo": 8689,
      "DeleteUser": 8690,
      "Online": 8691,
      "TIM": 8692,
      "Texture": 8693,
      "0x78": 8694,
      "SendMessage": 8695,
      "scm": 8696,
      "0x2b": 8697,
      "Filesystem": 8698,
      "FAILED": 8699,
      "BACnet": 8700,
      "EE": 8701,
      "bg": 8702,
      "tbl": 8703,
      "uv": 8704,
      "thrott": 8705,
      "along": 8706,
      "vertex": 8707,
      "GetApp": 8708,
      "acher": 8709,
      "Numbers": 8710,
      "NextToken": 8711,
      "Charset": 8712,
      "BigInt": 8713,
      "geometry": 8714,
      "fallback": 8715,
      "Retriever": 8716,
      "UST": 8717,
      "Yellow": 8718,
      "_types": 8719,
      "nic": 8720,
      "pen": 8721,
      "eration": 8722,
      "erator": 8723,
      "iny": 8724,
      "inct": 8725,
      "shoot": 8726,
      "Observe": 8727,
      "ResourceGroup": 8728,
      "QueryParam": 8729,
      "checked": 8730,
      "FindStringSubmatch": 8731,
      "0x43": 8732,
      "Deliver": 8733,
      "RpcRequest": 8734,
      "agreements": 8735,
      "CE_": 8736,
      "PA": 8737,
      "PP": 8738,
      "Swarm": 8739,
      "Tweet": 8740,
      "cu": 8741,
      "ea": 8742,
      "iN": 8743,
      "occ": 8744,
      "Rev": 8745,
      "Recipient": 8746,
      "ada": 8747,
      "News": 8748,
      "{}},": 8749,
      "RequestURI": 8750,
      "TestServer": 8751,
      "dbus": 8752,
      "Alg": 8753,
      "IsVersion": 8754,
      "Shader": 8755,
      "CallCount": 8756,
      "250": 8757,
      "locale": 8758,
      "streaming": 8759,
      "Fragment": 8760,
      "Capability": 8761,
      "IMAGE_": 8762,
      "solution": 8763,
      "Frontend": 8764,
      "StringPtrInput": 8765,
      "particular": 8766,
      "orizontal": 8767,
      "Candidate": 8768,
      "urnal": 8769,
      "loo": 8770,
      "interrupt": 8771,
      "Requ": 8772,
      "logf": 8773,
      "0x31": 8774,
      "Enforce": 8775,
      "Compat": 8776,
      "Datum": 8777,
      "affected": 8778,
      "Authorizer": 8779,
      "listeners": 8780,
      "KubeConfig": 8781,
      "autore": 8782,
      "rfc": 8783,
      "termbox": 8784,
      "Subnets": 8785,
      "hours": 8786,
      "trusted": 8787,
      "Foreign": 8788,
      "Hidden": 8789,
      "_op": 8790,
      "oct": 8791,
      "piv": 8792,
      "renew": 8793,
      "thrift": 8794,
      "itors": 8795,
      "appear": 8796,
      "propag": 8797,
      "Prom": 8798,
      "ClientSecret": 8799,
      "netlink": 8800,
      "ServerName": 8801,
      "mini": 8802,
      "ART": 8803,
      "JSONPath": 8804,
      "backoff": 8805,
      "blockSize": 8806,
      "fsm": 8807,
      "hashed": 8808,
      "ATH": 8809,
      "LookupEnv": 8810,
      "legal": 8811,
      "XXX_unrecognized": 8812,
      "goroutines": 8813,
      "datasource": 8814,
      "5000": 8815,
      "=\",": 8816,
      ">\")": 8817,
      "Fac": 8818,
      "SL": 8819,
      "f3": 8820,
      "x2": 8821,
      "inel": 8822,
      "recipe": 8823,
      "(\"\"),": 8824,
      "isode": 8825,
      "outer": 8826,
      "keyword": 8827,
      "awe": 8828,
      "UpdateUser": 8829,
      "sumed": 8830,
      "prevent": 8831,
      "Ask": 8832,
      "awsutil": 8833,
      "Failures": 8834,
      "supply": 8835,
      "0x4e": 8836,
      "THIS": 8837,
      "Markdown": 8838,
      "guild": 8839,
      "autoscal": 8840,
      "scrape": 8841,
      "Pager": 8842,
      "atrace": 8843,
      "jsonData": 8844,
      "SetTimeout": 8845,
      "Univer": 8846,
      "notes": 8847,
      "ContextValidate": 8848,
      "userName": 8849,
      "readable": 8850,
      "Ordered": 8851,
      "Scripts": 8852,
      "O_RD": 8853,
      "Strict": 8854,
      "Fold": 8855,
      "KB": 8856,
      "L2": 8857,
      "SN": 8858,
      "Salt": 8859,
      "Tuple": 8860,
      "care": 8861,
      "gather": 8862,
      "hidden": 8863,
      "half": 8864,
      "patterns": 8865,
      "inates": 8866,
      "id1": 8867,
      "NewKey": 8868,
      "tester": 8869,
      "0x24": 8870,
      "of_": 8871,
      "party": 8872,
      "EqualError": 8873,
      "preview": 8874,
      "Datadog": 8875,
      "Processing": 8876,
      "v1alpha3": 8877,
      "Chaincode": 8878,
      "glish": 8879,
      "dialect": 8880,
      "privile": 8881,
      "NewBufferString": 8882,
      "svr": 8883,
      "attachment": 8884,
      "ticket": 8885,
      "chaos": 8886,
      "crossplane": 8887,
      "RoundTripper": 8888,
      "mpotency": 8889,
      "($": 8890,
      "AZ": 8891,
      "Acl": 8892,
      "Bare": 8893,
      "rq": 8894,
      "tweet": 8895,
      "x1": 8896,
      "stable": 8897,
      "alone": 8898,
      "arb": 8899,
      "Releases": 8900,
      "updater": 8901,
      "plus": 8902,
      "Enqueue": 8903,
      "{});": 8904,
      "Meter": 8905,
      "minor": 8906,
      "Filtered": 8907,
      "REQ": 8908,
      "(`^": 8909,
      "identify": 8910,
      "Otherwise": 8911,
      "Associations": 8912,
      "explicitly": 8913,
      "=\\\"": 8914,
      "Ant": 8915,
      "AIL": 8916,
      "Nat": 8917,
      "Srv": 8918,
      "TF": 8919,
      "gb": 8920,
      "gif": 8921,
      "lf": 8922,
      "mor": 8923,
      "NewQuery": 8924,
      "testation": 8925,
      "oke": 8926,
      "plug": 8927,
      "StringTo": 8928,
      "indices": 8929,
      "Builds": 8930,
      "Shadow": 8931,
      "spans": 8932,
      "NextPage": 8933,
      "marked": 8934,
      "principal": 8935,
      "nowled": 8936,
      "LOW": 8937,
      "0x90": 8938,
      "multipart": 8939,
      "accepts": 8940,
      "representing": 8941,
      "Analysis": 8942,
      "Declaration": 8943,
      "GNU": 8944,
      "9b": 8945,
      "Ax": 8946,
      "DID": 8947,
      "MI": 8948,
      "Tls": 8949,
      "v7": 8950,
      "won": 8951,
      "encounter": 8952,
      "Recommend": 8953,
      "serted": 8954,
      "Coupon": 8955,
      "WithHTTPClient": 8956,
      "Tracing": 8957,
      "NodePool": 8958,
      "ISO": 8959,
      "ARM": 8960,
      "ContentLength": 8961,
      "0x71": 8962,
      "Implemented": 8963,
      "overlay": 8964,
      "Relative": 8965,
      "curring": 8966,
      "whitelist": 8967,
      "populate": 8968,
      ")()": 8969,
      "_status": 8970,
      "iq": 8971,
      "smar": 8972,
      "0x50": 8973,
      "{}.": 8974,
      "building": 8975,
      "bottom": 8976,
      "resolution": 8977,
      "Warningf": 8978,
      "stemd": 8979,
      "InformerFactory": 8980,
      "Twitter": 8981,
      "PhoneNumber": 8982,
      "Friend": 8983,
      "Veh": 8984,
      "e0": 8985,
      "i1": 8986,
      "vil": 8987,
      "uncher": 8988,
      "comma": 8989,
      "fave": 8990,
      "appId": 8991,
      "UserData": 8992,
      "iving": 8993,
      "Interpret": 8994,
      "inesis": 8995,
      "_PAR": 8996,
      "contracts": 8997,
      "Guide": 8998,
      "digital": 8999,
      "Constant": 9000,
      "SigningMethod": 9001,
      "DEFAULT_": 9002,
      "Polygon": 9003,
      "/#": 9004,
      "0666": 9005,
      "LIS": 9006,
      "kf": 9007,
      "rename": 9008,
      "urfave": 9009,
      "decor": 9010,
      "utions": 9011,
      "Recursive": 9012,
      "ErrNot": 9013,
      "NewPost": 9014,
      "test1": 9015,
      "imes": 9016,
      "StatusEnum": 9017,
      "website": 9018,
      "deserialize": 9019,
      "Parsed": 9020,
      "LoadConfig": 9021,
      "999": 9022,
      "slave": 9023,
      "concat": 9024,
      "Listeners": 9025,
      "DSN": 9026,
      "Notebook": 9027,
      "Players": 9028,
      "constraints": 9029,
      "!(": 9030,
      "EUI": 9031,
      "GIN": 9032,
      "PG": 9033,
      "ki": 9034,
      "vcs": 9035,
      "0x14": 9036,
      "fileInfo": 9037,
      "Provide": 9038,
      "Noop": 9039,
      "PreCheck": 9040,
      "MethodNotAllowed": 9041,
      "kubelet": 9042,
      "rence": 9043,
      "Alerts": 9044,
      ">\\": 9045,
      "Dry": 9046,
      "Rating": 9047,
      "_by": 9048,
      "fro": 9049,
      "xc": 9050,
      "}\"": 9051,
      "icted": 9052,
      "TestStep": 9053,
      "StatusCreated": 9054,
      "0x60": 9055,
      "AccountId": 9056,
      "die": 9057,
      "Limited": 9058,
      "implementations": 9059,
      "total_": 9060,
      "BatchSize": 9061,
      "ModuleName": 9062,
      "Crd": 9063,
      "separate": 9064,
      "marshalling": 9065,
      "Lol": 9066,
      "Mq": 9067,
      "MENT": 9068,
      "Tod": 9069,
      "_err": 9070,
      "baby": 9071,
      "peated": 9072,
      "mouse": 9073,
      "Outbound": 9074,
      "Framework": 9075,
      "Digit": 9076,
      "sidecar": 9077,
      "GroupVersionKind": 9078,
      "Snippet": 9079,
      "mgmt": 9080,
      "_v1_": 9081,
      "DHCP": 9082,
      "succeed": 9083,
      "Applications": 9084,
      "autorest": 9085,
      "''": 9086,
      "4_": 9087,
      "iot": 9088,
      "wid": 9089,
      "alarm": 9090,
      "decrypted": 9091,
      "isation": 9092,
      "pts": 9093,
      "NewHTTP": 9094,
      "Prod": 9095,
      "TestParse": 9096,
      "newNode": 9097,
      "Trail": 9098,
      "grader": 9099,
      "v1alpha2": 9100,
      "0x4d": 9101,
      "leton": 9102,
      "Migrations": 9103,
      "serialization": 9104,
      "emitter": 9105,
      "?,?,": 9106,
      "11111111": 9107,
      "Photos": 9108,
      "sqlite3": 9109,
      "Browser": 9110,
      "LF": 9111,
      "Labs": 9112,
      "Rabbit": 9113,
      "VN": 9114,
      "_T": 9115,
      "east": 9116,
      "frequency": 9117,
      "enqueue": 9118,
      "ung": 9119,
      "sections": 9120,
      "semaphore": 9121,
      "Seal": 9122,
      "ServiceType": 9123,
      "0000000": 9124,
      "finds": 9125,
      "Movie": 9126,
      "0x45": 9127,
      "PackageIsVersion": 9128,
      "bitr": 9129,
      "Small": 9130,
      "Dynamo": 9131,
      "jinzhu": 9132,
      "]\")": 9133,
      "bac": 9134,
      "deck": 9135,
      "lost": 9136,
      "errorMessage": 9137,
      "verifier": 9138,
      "NewC": 9139,
      "GetNamespace": 9140,
      "key2": 9141,
      "WithStatus": 9142,
      "Spaces": 9143,
      "ForProvider": 9144,
      "mitives": 9145,
      "extended": 9146,
      "grpcServer": 9147,
      "Matching": 9148,
      "numberOf": 9149,
      "stackrox": 9150,
      "0x5f": 9151,
      "authenticate": 9152,
      "Translator": 9153,
      "GenesisState": 9154,
      ":[": 9155,
      "Fingerprint": 9156,
      "Jan": 9157,
      "Predi": 9158,
      "cdb": 9159,
      "dll": 9160,
      "fers": 9161,
      "middlewares": 9162,
      "spl": 9163,
      "ura": 9164,
      "retVal": 9165,
      "coins": 9166,
      "pection": 9167,
      "GetFile": 9168,
      "mtx": 9169,
      "SetString": 9170,
      "mdb": 9171,
      "202": 9172,
      "Anonymous": 9173,
      "minute": 9174,
      "Prepend": 9175,
      "SecretName": 9176,
      "Processes": 9177,
      "Trie": 9178,
      "0x2a": 9179,
      "Creates": 9180,
      "cni": 9181,
      "Aggregation": 9182,
      "abcde": 9183,
      "Bandwidth": 9184,
      "DAO": 9185,
      "lint": 9186,
      "zr": 9187,
      "chrome": 9188,
      "NewUpdate": 9189,
      "logout": 9190,
      "irth": 9191,
      "notifier": 9192,
      "click": 9193,
      "ServiceConfig": 9194,
      "regions": 9195,
      "InternalError": 9196,
      "0x4c": 9197,
      "aredLogger": 9198,
      "Membership": 9199,
      "similar": 9200,
      "letters": 9201,
      "invoked": 9202,
      "UnsafeEnabled": 9203,
      "mobile": 9204,
      "C2": 9205,
      "Die": 9206,
      "MAT": 9207,
      "Sanit": 9208,
      "VEL": 9209,
      "kvs": 9210,
      "ming": 9211,
      "ras": 9212,
      "tea": 9213,
      "Influx": 9214,
      "Reservation": 9215,
      "Decor": 9216,
      "0x15": 9217,
      "plumb": 9218,
      "...*": 9219,
      "Regular": 9220,
      "Thing": 9221,
      "checkpoint": 9222,
      "prior": 9223,
      "anguages": 9224,
      "0x0b": 9225,
      "Posts": 9226,
      "visited": 9227,
      "Datab": 9228,
      "Stopped": 9229,
      "much": 9230,
      "0x92": 9231,
      "HttpClient": 9232,
      "eks": 9233,
      "Imports": 9234,
      "gauge": 9235,
      "FFFF": 9236,
      "occurs": 9237,
      "Maybe": 9238,
      "Requires": 9239,
      "Hop": 9240,
      "Pen": 9241,
      "d1": 9242,
      "e4": 9243,
      "hb": 9244,
      "jpg": 9245,
      "pref": 9246,
      "rhs": 9247,
      "online": 9248,
      "coap": 9249,
      "uel": 9250,
      "Inode": 9251,
      "GetCluster": 9252,
      "0x16": 9253,
      "apistructs": 9254,
      "clud": 9255,
      "...]": 9256,
      "Shards": 9257,
      "ReadString": 9258,
      "contained": 9259,
      "datetime": 9260,
      "BlockHeight": 9261,
      "Disc": 9262,
      "buildpack": 9263,
      "Offsets": 9264,
      "Terminate": 9265,
      "activate": 9266,
      "Pulse": 9267,
      "Renew": 9268,
      "Here": 9269,
      "Hide": 9270,
      "Hdr": 9271,
      "MIM": 9272,
      "_addr": 9273,
      "candidates": 9274,
      "lhs": 9275,
      "reached": 9276,
      "recursive": 9277,
      "sty": 9278,
      "InMemory": 9279,
      "editor": 9280,
      "train": 9281,
      "SetLogger": 9282,
      "boards": 9283,
      "KeyID": 9284,
      "observer": 9285,
      "TimeStamp": 9286,
      "dbname": 9287,
      "mockCtrl": 9288,
      "cfgFile": 9289,
      "positive": 9290,
      "groupName": 9291,
      "estim": 9292,
      "leveldb": 9293,
      "LOG_": 9294,
      "Multipart": 9295,
      "microsoft": 9296,
      "equals": 9297,
      "Facebook": 9298,
      "plumbing": 9299,
      "Er": 9300,
      "IX": 9301,
      "Peek": 9302,
      "eas": 9303,
      "reload": 9304,
      "oring": 9305,
      "enames": 9306,
      "rou": 9307,
      "adb": 9308,
      "httpmock": 9309,
      "individual": 9310,
      "Threads": 9311,
      "spin": 9312,
      "Symlink": 9313,
      "160": 9314,
      "clusterID": 9315,
      "Best": 9316,
      "Prefixes": 9317,
      "ACCESS": 9318,
      "processable": 9319,
      "classes": 9320,
      "Contacts": 9321,
      "looking": 9322,
      "Implementation": 9323,
      "PB": 9324,
      "_number": 9325,
      "a8": 9326,
      "b7": 9327,
      "dx": 9328,
      "nail": 9329,
      "saf": 9330,
      "think": 9331,
      "//@": 9332,
      "acquire": 9333,
      "agram": 9334,
      "Incr": 9335,
      "log_": 9336,
      "0x25": 9337,
      "SetPayload": 9338,
      "news": 9339,
      "cla": 9340,
      "Thrott": 9341,
      "00000": 9342,
      "STRING": 9343,
      "numeric": 9344,
      "Ipv4": 9345,
      "Latitude": 9346,
      "precision": 9347,
      "1000000": 9348,
      "Questions": 9349,
      "umbnail": 9350,
      "Problem": 9351,
      "Instrument": 9352,
      "Ce": 9353,
      "Fund": 9354,
      "\\.": 9355,
      "pot": 9356,
      "xo": 9357,
      "asm": 9358,
      "verified": 9359,
      "NewCmd": 9360,
      "0xca": 9361,
      "osition": 9362,
      "LogFile": 9363,
      "Runs": 9364,
      "CommandLine": 9365,
      "respBody": 9366,
      "DirPath": 9367,
      "nook": 9368,
      "raper": 9369,
      "primitives": 9370,
      "Expectations": 9371,
      "PostForm": 9372,
      "FindOne": 9373,
      "RED": 9374,
      "0x82": 9375,
      "Controllers": 9376,
      "ControlPlane": 9377,
      "_PATH": 9378,
      "commended": 9379,
      "Dhcp": 9380,
      "61": 9381,
      "X509": 9382,
      "hack": 9383,
      "jira": 9384,
[...]
