{
  "version": "1.0",
  "truncation": null,
  "padding": null,
  "added_tokens": [
    {
      "id": 0,
      "content": "[UNK]",
      "single_word": false,
      "lstrip": false,
      "rstrip": false,
      "normalized": false,
      "special": true
    },
    {
      "id": 1,
      "content": "[PAD]",
      "single_word": false,
      "lstrip": false,
      "rstrip": false,
      "normalized": false,
      "special": true
    },
    {
      "id": 2,
      "content": "[CLS]",
      "single_word": false,
      "lstrip": false,
      "rstrip": false,
      "normalized": false,
      "special": true
    },
    {
      "id": 3,
      "content": "[SEP]",
      "single_word": false,
      "lstrip": false,
      "rstrip": false,
      "normalized": false,
      "special": true
    }
  ],
  "normalizer": null,
  "pre_tokenizer": {
    "type": "Metaspace",
    "replacement": "▁",
    "add_prefix_space": true
  },
  "post_processor": {
    "type": "TemplateProcessing",
    "single": [
      {
        "SpecialToken": {
          "id": "[CLS]",
          "type_id": 0
        }
      },
      {
        "Sequence": {
          "id": "A",
          "type_id": 0
        }
      },
      {
        "SpecialToken": {
          "id": "[SEP]",
          "type_id": 0
        }
      }
    ],
    "pair": [
      {
        "Sequence": {
          "id": "A",
          "type_id": 0
        }
      },
      {
        "Sequence": {
          "id": "B",
          "type_id": 1
        }
      }
    ],
    "special_tokens": {
      "[CLS]": {
        "id": "[CLS]",
        "ids": [
          2
        ],
        "tokens": [
          "[CLS]"
        ]
      },
      "[SEP]": {
        "id": "[SEP]",
        "ids": [
          3
        ],
        "tokens": [
          "[SEP]"
        ]
      }
    }
  },
  "decoder": null,
  "model": {
    "type": "BPE",
    "dropout": null,
    "unk_token": "[UNK]",
    "continuing_subword_prefix": null,
    "end_of_word_suffix": null,
    "fuse_unk": false,
    "byte_fallback": false,
    "vocab": {
      "[UNK]": 0,
      "[PAD]": 1,
      "[CLS]": 2,
      "[SEP]": 3,
      "\b": 4,
      "\t": 5,
      "\n": 6,
      "\r": 7,
      "\u001b": 8,
      "\u001f": 9,
      "!": 10,
      "\"": 11,
      "#": 12,
      "$": 13,
      "%": 14,
      "&": 15,
      "'": 16,
      "(": 17,
      ")": 18,
      "*": 19,
      "+": 20,
      ",": 21,
      "-": 22,
      ".": 23,
      "/": 24,
      "0": 25,
      "1": 26,
      "2": 27,
      "3": 28,
      "4": 29,
      "5": 30,
      "6": 31,
      "7": 32,
      "8": 33,
      "9": 34,
      ":": 35,
      ";": 36,
      "<": 37,
      "=": 38,
      ">": 39,
      "?": 40,
      "@": 41,
      "A": 42,
      "B": 43,
      "C": 44,
      "D": 45,
      "E": 46,
      "F": 47,
      "G": 48,
      "H": 49,
      "I": 50,
      "J": 51,
      "K": 52,
      "L": 53,
      "M": 54,
      "N": 55,
      "O": 56,
      "P": 57,
      "Q": 58,
      "R": 59,
      "S": 60,
      "T": 61,
      "U": 62,
      "V": 63,
      "W": 64,
      "X": 65,
      "Y": 66,
      "Z": 67,
      "[": 68,
      "\\": 69,
      "]": 70,
      "^": 71,
      "_": 72,
      "`": 73,
      "a": 74,
      "b": 75,
      "c": 76,
      "d": 77,
      "e": 78,
      "f": 79,
      "g": 80,
      "h": 81,
      "i": 82,
      "j": 83,
      "k": 84,
      "l": 85,
      "m": 86,
      "n": 87,
      "o": 88,
      "p": 89,
      "q": 90,
      "r": 91,
      "s": 92,
      "t": 93,
      "u": 94,
      "v": 95,
      "w": 96,
      "x": 97,
      "y": 98,
      "z": 99,
      "{": 100,
      "|": 101,
      "}": 102,
      "~": 103,
      "": 104,
      "▁": 105,
      "▁\t": 106,
      "er": 107,
      "in": 108,
      "▁\t\t": 109,
      "re": 110,
      "on": 111,
      "st": 112,
      ")\n": 113,
      "at": 114,
      "or": 115,
      "▁\n": 116,
      "en": 117,
      "{\n": 118,
      "}\n": 119,
      "▁{\n": 120,
      "▁t": 121,
      "err": 122,
      "il": 123,
      "es": 124,
      "▁f": 125,
      "ing": 126,
      "it": 127,
      "al": 128,
      "un": 129,
      "ur": 130,
      "et": 131,
      "an": 132,
      "▁err": 133,
      "▁\t\t\t": 134,
      "//": 135,
      "▁n": 136,
      "se": 137,
      "▁:": 138,
      "ct": 139,
      "ar": 140,
      "▁:=": 141,
      "str": 142,
      "▁c": 143,
      "ret": 144,
      "ion": 145,
      "he": 146,
      "if": 147,
      "urn": 148,
      "me": 149,
      "return": 150,
      "▁\"": 151,
      "▁=": 152,
      "ic": 153,
      "te": 154,
      "de": 155,
      "om": 156,
      ",\n": 157,
      "ac": 158,
      "lo": 159,
      "ent": 160,
      "unc": 161,
      "▁*": 162,
      "le": 163,
      "ag": 164,
      "\"\n": 165,
      "▁}\n": 166,
      "▁//": 167,
      "int": 168,
      "▁nil": 169,
      "s.": 170,
      "string": 171,
      "▁p": 172,
      "▁(": 173,
      "▁func": 174,
      "ut": 175,
      "ro": 176,
      "pe": 177,
      "▁\t}\n": 178,
      "()": 179,
      "(\"": 180,
      "▁a": 181,
      "▁s": 182,
      "\",": 183,
      "ate": 184,
      "ue": 185,
      "▁m": 186,
      "▁i": 187,
      "St": 188,
      "Re": 189,
      "▁the": 190,
      "▁\t\"": 191,
      "ame": 192,
      "t.": 193,
      "ig": 194,
      "▁b": 195,
      "li": 196,
      "▁o": 197,
      "ad": 198,
      "▁!": 199,
      "res": 200,
      "Con": 201,
      "ap": 202,
      "ed": 203,
      "mp": 204,
      "--": 205,
      "▁\tif": 206,
      "ith": 207,
      "ul": 208,
      "ub": 209,
      "In": 210,
      "age": 211,
      "▁string": 212,
      "ol": 213,
      "▁!=": 214,
      "▁\t\t\t\t": 215,
      "rr": 216,
      "as": 217,
      "ew": 218,
      "el": 219,
      "ser": 220,
      "Err": 221,
      "ype": 222,
      "id": 223,
      "▁\treturn": 224,
      "and": 225,
      "▁0": 226,
      "ode": 227,
      "ot": 228,
      "▁error": 229,
      "ck": 230,
      "ce": 231,
      "▁w": 232,
      "ex": 233,
      "ation": 234,
      "▁d": 235,
      "con": 236,
      "ver": 237,
      "▁re": 238,
      "com": 239,
      ".\n": 240,
      "[]": 241,
      "▁\t\treturn": 242,
      "ch": 243,
      "am": 244,
      "Error": 245,
      "pt": 246,
      "ack": 247,
      "ht": 248,
      "is": 249,
      "ime": 250,
      "od": 251,
      "()\n": 252,
      "ile": 253,
      "▁to": 254,
      "▁v": 255,
      "ab": 256,
      "▁\t//": 257,
      "▁r": 258,
      "ess": 259,
      "▁in": 260,
      "ort": 261,
      "New": 262,
      "▁con": 263,
      "fig": 264,
      "(t": 265,
      "Name": 266,
      "ey": 267,
      "▁g": 268,
      "\")\n": 269,
      "log": 270,
      "Get": 271,
      ".com": 272,
      "lient": 273,
      "tex": 274,
      ".com/": 275,
      ".S": 276,
      "ithub": 277,
      "ult": 278,
      "▁&": 279,
      "son": 280,
      "github": 281,
      "um": 282,
      "ace": 283,
      "▁int": 284,
      "ata": 285,
      "Res": 286,
      "tp": 287,
      "github.com/": 288,
      ".T": 289,
      "us": 290,
      "ist": 291,
      "ase": 292,
      "▁[]": 293,
      "ID": 294,
      "▁l": 295,
      "ri": 296,
      "up": 297,
      "qu": 298,
      "ath": 299,
      ":\"": 300,
      ".C": 301,
      "▁T": 302,
      "▁`": 303,
      "que": 304,
      "http": 305,
      "json": 306,
      "uct": 307,
      ".P": 308,
      "oun": 309,
      "for": 310,
      "op": 311,
      "ect": 312,
      "f(\"": 313,
      "▁\t\t}\n": 314,
      "est": 315,
      "Lo": 316,
      "ice": 317,
      "▁0x": 318,
      "ay": 319,
      "ain": 320,
      "ang": 321,
      "ite": 322,
      "▁%": 323,
      "ers": 324,
      "▁is": 325,
      "end": 326,
      "Str": 327,
      "test": 328,
      "▁C": 329,
      "quest": 330,
      "▁S": 331,
      "▁A": 332,
      "pon": 333,
      "ter": 334,
      "De": 335,
      "struct": 336,
      "▁\t\"github.com/": 337,
      "dd": 338,
      "`\n": 339,
      "mt.": 340,
      "alue": 341,
      "rint": 342,
      "▁type": 343,
      "ve": 344,
      "Ex": 345,
      "pp": 346,
      "\"`\n": 347,
      "En": 348,
      "go": 349,
      "our": 350,
      "▁u": 351,
      "ok": 352,
      "))\n": 353,
      "out": 354,
      "▁imp": 355,
      "▁L": 356,
      "▁of": 357,
      "▁==": 358,
      "▁\t\tif": 359,
      "▁\tc": 360,
      "ir": 361,
      "},\n": 362,
      "String": 363,
      "ore": 364,
      "icen": 365,
      ".A": 366,
      "00": 367,
      "▁for": 368,
      "\",\n": 369,
      "▁th": 370,
      "bu": 371,
      "ponse": 372,
      "ackage": 373,
      "all": 374,
      "iz": 375,
      "▁nil\n": 376,
      "fa": 377,
      "vice": 378,
      "text": 379,
      "able": 380,
      "ption": 381,
      "▁struct": 382,
      "ctx": 383,
      "po": 384,
      ".M": 385,
      "Config": 386,
      "▁err\n": 387,
      "▁(\n": 388,
      "Ser": 389,
      "Type": 390,
      "▁_": 391,
      "ment": 392,
      "der": 393,
      "▁--": 394,
      "▁ex": 395,
      "▁)\n": 396,
      "▁res": 397,
      "▁1": 398,
      "▁h": 399,
      "icense": 400,
      "▁package": 401,
      "ool": 402,
      "▁e": 403,
      "64": 404,
      "Un": 405,
      "pl": 406,
      "ak": 407,
      "json:\"": 408,
      "▁st": 409,
      "▁\t\t\t\t\t": 410,
      "s,": 411,
      "ire": 412,
      "atus": 413,
      "-\n": 414,
      "ow": 415,
      "put": 416,
      "Key": 417,
      "fo": 418,
      "sh": 419,
      "name": 420,
      "▁---\n": 421,
      "ction": 422,
      "ource": 423,
      "by": 424,
      "Request": 425,
      "Pro": 426,
      "ange": 427,
      "fer": 428,
      "face": 429,
      "▁import": 430,
      "▁`json:\"": 431,
      "Wr": 432,
      "arg": 433,
      "ler": 434,
      "ty": 435,
      "ail": 436,
      "reate": 437,
      "rom": 438,
      "ust": 439,
      "ject": 440,
      ".New": 441,
      "ount": 442,
      ".D": 443,
      "key": 444,
      ".F": 445,
      "alid": 446,
      "▁de": 447,
      "▁tr": 448,
      "(err": 449,
      "..": 450,
      "art": 451,
      "(c": 452,
      "var": 453,
      "{}": 454,
      ":\n": 455,
      "Id": 456,
      "per": 457,
      ");": 458,
      "▁error)": 459,
      "aram": 460,
      "ec": 461,
      "to": 462,
      "ock": 463,
      "ader": 464,
      "ger": 465,
      "▁License": 466,
      "▁and": 467,
      "erface": 468,
      "im": 469,
      "tr": 470,
      "pro": 471,
      ".Get": 472,
      "th": 473,
      "▁\t}": 474,
      "essage": 475,
      "▁nil,": 476,
      "▁app": 477,
      "ost": 478,
      "(f": 479,
      "omm": 480,
      "(t,": 481,
      "Context": 482,
      "Log": 483,
      "▁pro": 484,
      "▁2": 485,
      "Client": 486,
      "uth": 487,
      "ine": 488,
      "pect": 489,
      "▁+": 490,
      "▁P": 491,
      "(ctx": 492,
      "vent": 493,
      "md": 494,
      "fault": 495,
      "are": 496,
      "),\n": 497,
      "Status": 498,
      "Response": 499,
      "▁\tfor": 500,
      "File": 501,
      "time": 502,
      "ON": 503,
      "ake": 504,
      "▁range": 505,
      "List": 506,
      "io": 507,
      ".B": 508,
      "eld": 509,
      "g/": 510,
      "byte": 511,
      "▁http": 512,
      "en(": 513,
      "ress": 514,
      "ize": 515,
      "ield": 516,
      "testing": 517,
      "▁O": 518,
      "▁I": 519,
      "\r\n": 520,
      "ord": 521,
      "cc": 522,
      "▁fmt.": 523,
      "▁file": 524,
      "User": 525,
      "▁not": 526,
      "ure": 527,
      "atch": 528,
      ".N": 529,
      "lock": 530,
      "▁return": 531,
      "▁err)\n": 532,
      "ind": 533,
      ".Re": 534,
      "\":": 535,
      "),": 536,
      "▁be": 537,
      "Value": 538,
      "s\n": 539,
      "s\"\n": 540,
      "▁<": 541,
      "ted": 542,
      "Cont": 543,
      "sc": 544,
      "s:": 545,
      "lag": 546,
      "▁un": 547,
      "ity": 548,
      "(m": 549,
      "▁New": 550,
      "▁\t\t\treturn": 551,
      "▁by": 552,
      "Info": 553,
      "ap[": 554,
      "▁string)": 555,
      "▁M": 556,
      "▁D": 557,
      "ache": 558,
      "▁time": 559,
      "aw": 560,
      "ob": 561,
      ".H": 562,
      "ork": 563,
      "pec": 564,
      "▁_,": 565,
      "sion": 566,
      "Path": 567,
      "▁\tvar": 568,
      "Errorf(\"": 569,
      "▁with": 570,
      "ory": 571,
      "s/": 572,
      "▁an": 573,
      "With": 574,
      "date": 575,
      "())\n": 576,
      "▁string\n": 577,
      "▁true": 578,
      "ery": 579,
      "alse": 580,
      "tes": 581,
      "ener": 582,
      "heck": 583,
      "▁or": 584,
      "▁new": 585,
      "rintf(\"": 586,
      "(p": 587,
      "andler": 588,
      "s[": 589,
      "v1": 590,
      "quire": 591,
      "Ch": 592,
      "net": 593,
      "load": 594,
      "mpty": 595,
      "ator": 596,
      "Sp": 597,
      "▁on": 598,
      "odel": 599,
      "ight": 600,
      "ip": 601,
      "sg": 602,
      "act": 603,
      "lect": 604,
      "▁Get": 605,
      "ance": 606,
      "text.": 607,
      "ry": 608,
      "▁bool": 609,
      "asser": 610,
      "oken": 611,
      "ial": 612,
      "By": 613,
      "----": 614,
      "roup": 615,
      "▁\tf": 616,
      "{}\n": 617,
      "ix": 618,
      "ames": 619,
      "qual": 620,
      "▁len(": 621,
      "esc": 622,
      "ign": 623,
      "opy": 624,
      "▁*testing": 625,
      "Data": 626,
      "▁\ts": 627,
      "Up": 628,
      "ff": 629,
      "▁\t\t\t}\n": 630,
      "/p": 631,
      "api": 632,
      ".R": 633,
      "ast": 634,
      "Time": 635,
      "ass": 636,
      "mpl": 637,
      "ommand": 638,
      "iter": 639,
      "ans": 640,
      "ext": 641,
      "UR": 642,
      ".Error": 643,
      "Add": 644,
      "▁B": 645,
      "▁\t\tc": 646,
      "▁-": 647,
      "erface{}": 648,
      "s\",": 649,
      "To": 650,
      "dex": 651,
      "config": 652,
      "▁*testing.T": 653,
      "ou": 654,
      "eth": 655,
      "string]": 656,
      "32": 657,
      "ap[string]": 658,
      "Equal": 659,
      "data": 660,
      "code": 661,
      "▁false": 662,
      ".0": 663,
      "ound": 664,
      "istr": 665,
      "em": 666,
      "ody": 667,
      "s)": 668,
      "▁F": 669,
      "▁\tde": 670,
      "▁W": 671,
      "ly": 672,
      "ant": 673,
      "▁var": 674,
      "▁li": 675,
      "form": 676,
      "Set": 677,
      "Server": 678,
      "▁this": 679,
      "ersion": 680,
      "Version": 681,
      "port": 682,
      "ete": 683,
      "ash": 684,
      "▁*testing.T)": 685,
      "arsh": 686,
      "▁if": 687,
      "pected": 688,
      "\\n": 689,
      "mo": 690,
      "s(": 691,
      "lic": 692,
      "arse": 693,
      "▁Test": 694,
      "▁\tm": 695,
      "Service": 696,
      "▁[]string": 697,
      "assert.": 698,
      "▁ser": 699,
      "lose": 700,
      "▁make": 701,
      ".O": 702,
      "▁append": 703,
      "gr": 704,
      "▁el": 705,
      "mt": 706,
      "(&": 707,
      "ho": 708,
      "arshal": 709,
      "ax": 710,
      "set": 711,
      "ann": 712,
      "ll": 713,
      "error": 714,
      "(),": 715,
      "ies": 716,
      "iv": 717,
      "▁ok": 718,
      "ref": 719,
      "Write": 720,
      "▁%v": 721,
      "yn": 722,
      "ild": 723,
      "IT": 724,
      "▁string,": 725,
      ".In": 726,
      "bject": 727,
      "ln": 728,
      "▁else": 729,
      "**": 730,
      "cont": 731,
      "atal": 732,
      "▁\tp": 733,
      "eta": 734,
      "▁config": 735,
      "▁N": 736,
      "(s": 737,
      "pes": 738,
      "util": 739,
      "nect": 740,
      "ber": 741,
      ".String": 742,
      "pace": 743,
      "▁test": 744,
      "uld": 745,
      "omp": 746,
      "ition": 747,
      "orm": 748,
      "▁name": 749,
      "▁\t\t\tif": 750,
      "▁ch": 751,
      "low": 752,
      "})\n": 753,
      "erm": 754,
      "ren": 755,
      "uration": 756,
      "URL": 757,
      "enc": 758,
      "oc": 759,
      "lust": 760,
      "▁get": 761,
      "Tr": 762,
      ".Set": 763,
      "\")": 764,
      "▁//\n": 765,
      "▁se": 766,
      "kg/": 767,
      "▁k": 768,
      "==": 769,
      "che": 770,
      "▁value": 771,
      "ard": 772,
      "▁use": 773,
      "ethod": 774,
      "/c": 775,
      "nal": 776,
      "Bu": 777,
      "ific": 778,
      "(err)\n": 779,
      "escri": 780,
      "▁[]byte": 781,
      "ach": 782,
      "rintln": 783,
      "Qu": 784,
      "▁y": 785,
      "▁\tre": 786,
      "]\n": 787,
      "one": 788,
      "amp": 789,
      "Option": 790,
      "▁\t\t//": 791,
      "▁\t\tt.": 792,
      "ud": 793,
      ".I": 794,
      "gin": 795,
      "path": 796,
      "▁Re": 797,
      "▁key": 798,
      "Run": 799,
      "ive": 800,
      "app": 801,
      "▁under": 802,
      "Event": 803,
      "(w": 804,
      "▁context.": 805,
      "luster": 806,
      "He": 807,
      "(n": 808,
      "ary": 809,
      "▁{": 810,
      "▁that": 811,
      "ask": 812,
      "(b": 813,
      "▁log": 814,
      "ee": 815,
      "loat": 816,
      "file": 817,
      "mt.P": 818,
      "db": 819,
      ".De": 820,
      "▁as": 821,
      "utput": 822,
      "▁\tcase": 823,
      "State": 824,
      "user": 825,
      "▁\terr": 826,
      "rg": 827,
      "Not": 828,
      "PI": 829,
      "ues": 830,
      "Param": 831,
      "ware": 832,
      "Group": 833,
      "ric": 834,
      "▁s.": 835,
      "ER": 836,
      "▁errors.": 837,
      "IN": 838,
      "▁from": 839,
      "([]": 840,
      "fmt": 841,
      "valid": 842,
      "▁client": 843,
      "val": 844,
      "itempty": 845,
      "co": 846,
      "▁uint": 847,
      "omitempty": 848,
      "▁wh": 849,
      "own": 850,
      "Update": 851,
      "ated": 852,
      "work": 853,
      "{\"": 854,
      "red": 855,
      "Sprintf(\"": 856,
      "ates": 857,
      "▁(*": 858,
      ".Name": 859,
      "▁set": 860,
      "ule": 861,
      ".Add": 862,
      "/pkg/": 863,
      "rol": 864,
      "fmt\"\n": 865,
      ".Un": 866,
      "Code": 867,
      "▁cont": 868,
      "▁map[string]": 869,
      "▁it": 870,
      "▁\tassert.": 871,
      "▁\t\t\"": 872,
      "s)\n": 873,
      "▁data": 874,
      "▁\t\tlog": 875,
      "▁\t\t\t\t\t\t": 876,
      "ql": 877,
      "ma": 878,
      "ill": 879,
      "▁fmt.Errorf(\"": 880,
      "▁returns": 881,
      "cal": 882,
      "▁arg": 883,
      "01": 884,
      "▁>": 885,
      "Message": 886,
      "buf": 887,
      "Handler": 888,
      "url": 889,
      "ert": 890,
      "vid": 891,
      "amespace": 892,
      "(r": 893,
      "ession": 894,
      "▁add": 895,
      ".Status": 896,
      "fg": 897,
      "Valid": 898,
      "pos": 899,
      "▁ro": 900,
      "▁\"github.com/": 901,
      "ify": 902,
      "(ctx,": 903,
      "▁\tdefer": 904,
      "▁\t\t},\n": 905,
      "lu": 906,
      "ft": 907,
      "EN": 908,
      "cond": 909,
      "cess": 910,
      "urren": 911,
      "▁user": 912,
      "▁\t\"fmt\"\n": 913,
      "(*": 914,
      "AS": 915,
      "ES": 916,
      "▁G": 917,
      "▁/": 918,
      "lement": 919,
      ",omitempty": 920,
      "etric": 921,
      "ync": 922,
      "▁wr": 923,
      "▁\t\tf": 924,
      "▁In": 925,
      "▁at": 926,
      "Resource": 927,
      "▁\"\"": 928,
      "▁(c": 929,
      "▁id": 930,
      "io/": 931,
      "Result": 932,
      "env": 933,
      "▁os.": 934,
      "JS": 935,
      "mit": 936,
      ".c": 937,
      "Name:": 938,
      "Token": 939,
      "quired": 940,
      "Func": 941,
      "▁strings.": 942,
      "▁func()": 943,
      "interface{}": 944,
      "ifi": 945,
      "▁\tt": 946,
      "...": 947,
      "vel": 948,
      "pi": 949,
      ".St": 950,
      "elete": 951,
      "JSON": 952,
      "result": 953,
      "▁\t})\n": 954,
      "1,": 955,
      "▁R": 956,
      "pc": 957,
      "word": 958,
      "ave": 959,
      "▁bu": 960,
      ".Write": 961,
      "inter": 962,
      "ayload": 963,
      "Writer": 964,
      "AR": 965,
      "Se": 966,
      "abel": 967,
      "▁context.Context": 968,
      "Test": 969,
      "add": 970,
      "ded": 971,
      "(re": 972,
      "anag": 973,
      "Node": 974,
      "stance": 975,
      "mplate": 976,
      "ink": 977,
      "ww": 978,
      "Acc": 979,
      "ream": 980,
      "0,": 981,
      "▁\tb": 982,
      "proto": 983,
      "Size": 984,
      "eng": 985,
      "▁request": 986,
      "/m": 987,
      "point": 988,
      "Query": 989,
      "▁|": 990,
      "At": 991,
      "ute": 992,
      ".L": 993,
      "Inter": 994,
      "▁H": 995,
      ".or": 996,
      "▁spec": 997,
      "hould": 998,
      "version": 999,
      "ra": 1000,
      "▁(s": 1001,
      "eb": 1002,
      "Map": 1003,
      "alues": 1004,
      "▁\t\tp": 1005,
      "os": 1006,
      "cord": 1007,
      "▁&&": 1008,
      "▁%s\",": 1009,
      "ull": 1010,
      "▁%v\",": 1011,
      "vi": 1012,
      "SE": 1013,
      "Create": 1014,
      "Dir": 1015,
      "0]": 1016,
      "▁append(": 1017,
      "umber": 1018,
      "▁run": 1019,
      "line": 1020,
      "%s": 1021,
      "▁\t_": 1022,
      ",omitempty\"`\n": 1023,
      "uthor": 1024,
      "go-": 1025,
      "▁\t\treturn\n": 1026,
      "istri": 1027,
      "▁he": 1028,
      "▁go": 1029,
      "TT": 1030,
      "▁j": 1031,
      "▁\tr": 1032,
      "Reg": 1033,
      "From": 1034,
      "End": 1035,
      "bo": 1036,
      "▁up": 1037,
      "Logger": 1038,
      "mage": 1039,
      "Field": 1040,
      "▁The": 1041,
      "▁may": 1042,
      "arget": 1043,
      "value": 1044,
      "refix": 1045,
      "ations": 1046,
      ".org/": 1047,
      "anc": 1048,
      "▁al": 1049,
      "▁true\n": 1050,
      "ilter": 1051,
      "▁'": 1052,
      "▁const": 1053,
      "ainer": 1054,
      "ge": 1055,
      "ere": 1056,
      "▁(m": 1057,
      "UT": 1058,
      "▁\tlog": 1059,
      "An": 1060,
      "andle": 1061,
      "annel": 1062,
      "server": 1063,
      "und": 1064,
      "▁json": 1065,
      "assword": 1066,
      "iles": 1067,
      "oin": 1068,
      "Default": 1069,
      "loat64": 1070,
      "og": 1071,
      "For": 1072,
      "orage": 1073,
      "▁interface": 1074,
      "ml": 1075,
      "▁fmt.Sprintf(\"": 1076,
      "anager": 1077,
      "▁\"\",": 1078,
      "--------": 1079,
      "App": 1080,
      "Int": 1081,
      "istribu": 1082,
      "be": 1083,
      "ning": 1084,
      "nection": 1085,
      "(d": 1086,
      "Count": 1087,
      "▁x": 1088,
      "os.": 1089,
      "urrent": 1090,
      "////": 1091,
      "vider": 1092,
      ".W": 1093,
      "expected": 1094,
      "ypes": 1095,
      "▁E": 1096,
      "bug": 1097,
      "▁list": 1098,
      "action": 1099,
      "/s": 1100,
      "get": 1101,
      "2,": 1102,
      "ha": 1103,
      "mt.Println": 1104,
      "unction": 1105,
      "Equal(t,": 1106,
      "▁so": 1107,
      "TI": 1108,
      "ister": 1109,
      "atab": 1110,
      "ission": 1111,
      "s.\n": 1112,
      "i]": 1113,
      "ailed": 1114,
      "loud": 1115,
      "\"]": 1116,
      "▁distribu": 1117,
      "▁main": 1118,
      "s()": 1119,
      "comm": 1120,
      "Arg": 1121,
      "list": 1122,
      "query": 1123,
      "(con": 1124,
      "Var": 1125,
      ".Request": 1126,
      "▁str": 1127,
      "olic": 1128,
      "▁Set": 1129,
      ".Ex": 1130,
      "marshal": 1131,
      "▁Un": 1132,
      "idd": 1133,
      "▁<-": 1134,
      "TTP": 1135,
      "Cmd": 1136,
      "anic": 1137,
      "▁K": 1138,
      "▁distributed": 1139,
      "arch": 1140,
      "▁create": 1141,
      "rc": 1142,
      "(1": 1143,
      "▁path": 1144,
      "roller": 1145,
      "right": 1146,
      "cept": 1147,
      ".G": 1148,
      "ep": 1149,
      "Le": 1150,
      "▁int64": 1151,
      ".m": 1152,
      "item": 1153,
      "atabase": 1154,
      "All": 1155,
      "ffer": 1156,
      "▁param": 1157,
      "▁(t": 1158,
      ".Type": 1159,
      "ence": 1160,
      "▁comp": 1161,
      "tem": 1162,
      "++": 1163,
      "ument": 1164,
      "▁result": 1165,
      "ait": 1166,
      "col": 1167,
      "Te": 1168,
      "/\n": 1169,
      "af": 1170,
      "ET": 1171,
      "▁\t\t}": 1172,
      "▁\td": 1173,
      "▁0,": 1174,
      "sert": 1175,
      "Output": 1176,
      "etad": 1177,
      "02": 1178,
      "ss": 1179,
      "dk": 1180,
      "▁%s": 1181,
      "conv": 1182,
      "ages": 1183,
      "▁context.Context,": 1184,
      "Or": 1185,
      "oding": 1186,
      ".Lo": 1187,
      "ting": 1188,
      "▁License.\n": 1189,
      "Sub": 1190,
      "run": 1191,
      ".Close": 1192,
      "▁0x6": 1193,
      "Col": 1194,
      "etadata": 1195,
      "service": 1196,
      "IC": 1197,
      "Fatal": 1198,
      "time\"\n": 1199,
      "▁c.": 1200,
      "pen": 1201,
      "▁interface{}": 1202,
      "\\n\",": 1203,
      "Flag": 1204,
      "▁field": 1205,
      "▁\tn": 1206,
      "▁default": 1207,
      "ample": 1208,
      "irect": 1209,
      "▁false\n": 1210,
      "wit": 1211,
      "us.": 1212,
      "▁gener": 1213,
      "▁error\n": 1214,
      "Index": 1215,
      "response": 1216,
      "opyright": 1217,
      "▁are": 1218,
      "escription": 1219,
      "Content": 1220,
      "Back": 1221,
      "(\n": 1222,
      "▁response": 1223,
      "k8": 1224,
      "Bytes": 1225,
      "ole": 1226,
      "No": 1227,
      "▁3": 1228,
      "▁errors.New": 1229,
      "olicy": 1230,
      "ner": 1231,
      "▁server": 1232,
      "ree": 1233,
      "▁all": 1234,
      "▁ob": 1235,
      "min": 1236,
      "On": 1237,
      "▁will": 1238,
      "Store": 1239,
      "▁ac": 1240,
      "▁exp": 1241,
      "Header": 1242,
      "▁you": 1243,
      "posit": 1244,
      "reg": 1245,
      "ed.\n": 1246,
      "▁\t\t\t\treturn": 1247,
      "es/": 1248,
      ".E": 1249,
      "AN": 1250,
      "▁valid": 1251,
      "bytes": 1252,
      "DB": 1253,
      ".Read": 1254,
      "d,": 1255,
      "ark": 1256,
      "▁\t\t\t\"": 1257,
      "Command": 1258,
      "0000": 1259,
      "▁\t\ts": 1260,
      "▁required": 1261,
      "lob": 1262,
      "omain": 1263,
      "lice": 1264,
      "▁||": 1265,
      "Env": 1266,
      "read": 1267,
      "w.": 1268,
      "://": 1269,
      "witch": 1270,
      "▁reg": 1271,
      "outil": 1272,
      "ong": 1273,
      "rl": 1274,
      "fin": 1275,
      "ength": 1276,
      "OR": 1277,
      ".Se": 1278,
      "ormat": 1279,
      ".Response": 1280,
      "▁lo": 1281,
      "▁check": 1282,
      "-2": 1283,
      "model": 1284,
      "API": 1285,
      "ID,": 1286,
      "12": 1287,
      "ermission": 1288,
      "context": 1289,
      "resp": 1290,
      "Sh": 1291,
      "move": 1292,
      "▁ret": 1293,
      ".V": 1294,
      "ume": 1295,
      "▁ag": 1296,
      "▁read": 1297,
      "▁db": 1298,
      "Su": 1299,
      "Sec": 1300,
      "▁\t\"net": 1301,
      "cket": 1302,
      "▁req": 1303,
      "Address": 1304,
      "store": 1305,
      "▁can": 1306,
      "c.": 1307,
      "aml": 1308,
      "odes": 1309,
      "ST": 1310,
      "▁Copyright": 1311,
      "ual": 1312,
      "====": 1313,
      "exp": 1314,
      "Trans": 1315,
      "▁[": 1316,
      "ftware": 1317,
      "****": 1318,
      "▁init": 1319,
      "chema": 1320,
      "ces": 1321,
      "ilder": 1322,
      "riv": 1323,
      "_id": 1324,
      "▁\t\tfor": 1325,
      "▁4": 1326,
      "er)": 1327,
      ".Ser": 1328,
      ".Client": 1329,
      "Nil": 1330,
      "▁OR": 1331,
      "ccess": 1332,
      "▁Th": 1333,
      "types": 1334,
      "▁int)": 1335,
      "OK": 1336,
      "sec": 1337,
      "Spec": 1338,
      "▁errors.New(\"": 1339,
      "wr": 1340,
      "▁\t\tm": 1341,
      "(v": 1342,
      "client": 1343,
      "iddle": 1344,
      "▁make([]": 1345,
      "(),\n": 1346,
      ").": 1347,
      "▁ref": 1348,
      "rypt": 1349,
      "▁*/\n": 1350,
      "sum": 1351,
      "tx": 1352,
      "angu": 1353,
      "▁\t\terr": 1354,
      ".Close()\n": 1355,
      "back": 1356,
      "ke": 1357,
      "\"))\n": 1358,
      "▁do": 1359,
      "IP": 1360,
      "(string": 1361,
      "5,": 1362,
      ".Value": 1363,
      "▁\tP": 1364,
      "Object": 1365,
      "Of": 1366,
      "16": 1367,
      "host": 1368,
      "plic": 1369,
      "ustom": 1370,
      "loy": 1371,
      "[\"": 1372,
      "Name,": 1373,
      "▁\t\t\t},\n": 1374,
      "f,": 1375,
      "0x": 1376,
      "▁copy": 1377,
      "Conn": 1378,
      "-s": 1379,
      "anguage": 1380,
      "ublic": 1381,
      "xy": 1382,
      "▁\"/": 1383,
      ".Time": 1384,
      "AT": 1385,
      "s://": 1386,
      "▁service": 1387,
      "Check": 1388,
      "▁[]*": 1389,
      "Join": 1390,
      "▁\t\"o": 1391,
      ".To": 1392,
      "fail": 1393,
      "auth": 1394,
      "▁*http": 1395,
      "ook": 1396,
      "istry": 1397,
      "k8s.": 1398,
      "lay": 1399,
      "},": 1400,
      "▁\t\"time\"\n": 1401,
      "irst": 1402,
      "▁we": 1403,
      "Item": 1404,
      "scri": 1405,
      "etwork": 1406,
      "▁tok": 1407,
      "▁int\n": 1408,
      "▁AN": 1409,
      "▁code": 1410,
      "Auth": 1411,
      "ices": 1412,
      "Stat": 1413,
      "iven": 1414,
      "yst": 1415,
      "Use": 1416,
      "Start": 1417,
      "IS": 1418,
      "count": 1419,
      "Tag": 1420,
      "opt": 1421,
      "/http": 1422,
      "(err,": 1423,
      "type": 1424,
      "otal": 1425,
      "))": 1426,
      "ploy": 1427,
      ".Parse": 1428,
      "▁proto": 1429,
      "Block": 1430,
      "▁found": 1431,
      "Input": 1432,
      "mat": 1433,
      ".He": 1434,
      "Mock": 1435,
      "▁should": 1436,
      "pository": 1437,
      "▁node": 1438,
      "(st": 1439,
      "sp": 1440,
      "▁Y": 1441,
      "3,": 1442,
      "Is": 1443,
      "Msg": 1444,
      "la": 1445,
      "▁model": 1446,
      "ick": 1447,
      "Addr": 1448,
      "Sc": 1449,
      "Call": 1450,
      "ib": 1451,
      "▁event": 1452,
      "lem": 1453,
      "▁([]": 1454,
      "go/": 1455,
      "▁token": 1456,
      "▁V": 1457,
      "event": 1458,
      "▁...": 1459,
      "▁sub": 1460,
      "OD": 1461,
      "Wrap": 1462,
      "▁writ": 1463,
      "ube": 1464,
      "▁exist": 1465,
      "encoding": 1466,
      "led": 1467,
      "DIT": 1468,
      "[0]": 1469,
      "▁message": 1470,
      "▁\t\t})\n": 1471,
      "\t\t": 1472,
      "(in": 1473,
      "Read": 1474,
      "Expect": 1475,
      "▁0x7": 1476,
      "Timeout": 1477,
      "ystem": 1478,
      "▁limit": 1479,
      "▁/*": 1480,
      "▁\t\tcase": 1481,
      "ICEN": 1482,
      "Manager": 1483,
      "er\n": 1484,
      "Port": 1485,
      "les": 1486,
      "▁expected": 1487,
      "ICENSE": 1488,
      "▁z": 1489,
      "EC": 1490,
      "Prefix": 1491,
      "sche": 1492,
      "(func": 1493,
      "Error(t,": 1494,
      ".Pro": 1495,
      "And": 1496,
      "▁option": 1497,
      "tri": 1498,
      "old": 1499,
      ".Command": 1500,
      "56": 1501,
      "Host": 1502,
      "iddleware": 1503,
      "dis": 1504,
      "aph": 1505,
      ".Fatal": 1506,
      "resent": 1507,
      "mem": 1508,
      "er,": 1509,
      "round": 1510,
      "▁\t\t\t\t}\n": 1511,
      "string,": 1512,
      "Com": 1513,
      "▁values": 1514,
      "▁\tw": 1515,
      "▁\t_,": 1516,
      "▁\t\t\tc": 1517,
      "▁Create": 1518,
      "▁OF": 1519,
      "umn": 1520,
      "▁applic": 1521,
      "/b": 1522,
      "ys": 1523,
      "1]": 1524,
      "Be": 1525,
      "inary": 1526,
      ".En": 1527,
      "▁function": 1528,
      "(http": 1529,
      "▁resource": 1530,
      "nt": 1531,
      "Body": 1532,
      ".Is": 1533,
      "▁bool\n": 1534,
      "lease": 1535,
      "is.": 1536,
      "strings\"\n": 1537,
      "▁out": 1538,
      "Level": 1539,
      "\");": 1540,
      "▁used": 1541,
      "Account": 1542,
      "▁te": 1543,
      "▁flag": 1544,
      "context\"\n": 1545,
      "▁command": 1546,
      "(l": 1547,
      "HO": 1548,
      "not": 1549,
      "▁given": 1550,
      "▁col": 1551,
      "▁en": 1552,
      "Reader": 1553,
      "[i]": 1554,
      "etail": 1555,
      "▁See": 1556,
      "▁got": 1557,
      "▁Ex": 1558,
      "▁specific": 1559,
      "use": 1560,
      "ing,": 1561,
      "(w,": 1562,
      "Al": 1563,
      "testing\"\n": 1564,
      "▁gover": 1565,
      "api/": 1566,
      "▁float64": 1567,
      ".Info": 1568,
      "v2": 1569,
      "(key": 1570,
      "(ch": 1571,
      "Delete": 1572,
      "odule": 1573,
      "▁\t\t\t//": 1574,
      "lection": 1575,
      "▁cre": 1576,
      "4,": 1577,
      "▁De": 1578,
      "ature": 1579,
      ".0\n": 1580,
      "▁\t\tre": 1581,
      "▁\t\"strings\"\n": 1582,
      "Sign": 1583,
      "errors\"\n": 1584,
      "License": 1585,
      "pha": 1586,
      "eturn": 1587,
      "Found": 1588,
      "av": 1589,
      "ized": 1590,
      "▁version": 1591,
      "▁This": 1592,
      "▁opt": 1593,
      "internal": 1594,
      "Cache": 1595,
      "ux": 1596,
      "▁\t\"os\"\n": 1597,
      "\"),\n": 1598,
      "ue\n": 1599,
      "▁io": 1600,
      "cation": 1601,
      "▁api": 1602,
      "ified": 1603,
      "int64": 1604,
      "lector": 1605,
      "ground": 1606,
      "itle": 1607,
      "▁Ap": 1608,
      "As": 1609,
      "▁0\n": 1610,
      "oot": 1611,
      "▁le": 1612,
      "less": 1613,
      "▁ent": 1614,
      "▁IS": 1615,
      "/t": 1616,
      "▁cmd": 1617,
      "(data": 1618,
      "Cluster": 1619,
      "▁types": 1620,
      "▁call": 1621,
      "Hash": 1622,
      "HTTP": 1623,
      "▁Version": 1624,
      "▁(o": 1625,
      "eed": 1626,
      "▁\t\tt.Fatal": 1627,
      "▁\",": 1628,
      "▁5": 1629,
      "olang": 1630,
      "ID:": 1631,
      "▁bytes": 1632,
      "▁Apache": 1633,
      "lugin": 1634,
      "Meta": 1635,
      "ization": 1636,
      "Type:": 1637,
      ".Context": 1638,
      "▁\t\t\tlog": 1639,
      "(name": 1640,
      "▁state": 1641,
      "obra": 1642,
      "▁sh": 1643,
      "/g": 1644,
      "▁resp": 1645,
      ".s": 1646,
      "RAN": 1647,
      "▁permission": 1648,
      "tract": 1649,
      "▁\t\"testing\"\n": 1650,
      "▁object": 1651,
      "Mem": 1652,
      "▁false,": 1653,
      "'t": 1654,
      "ush": 1655,
      "open": 1656,
      "peration": 1657,
      "%v": 1658,
      "ia": 1659,
      "▁WAR": 1660,
      "▁CON": 1661,
      "\"},\n": 1662,
      "D,": 1663,
      ".Create": 1664,
      "Writer,": 1665,
      "ide": 1666,
      "▁%d": 1667,
      "▁reflect": 1668,
      "ION": 1669,
      "stamp": 1670,
      "utex": 1671,
      "www.": 1672,
      "/json": 1673,
      "▁\tg": 1674,
      "failed": 1675,
      "%d": 1676,
      "Provider": 1677,
      "Ident": 1678,
      "vices": 1679,
      ".With": 1680,
      "option": 1681,
      "Options": 1682,
      "▁err.Error": 1683,
      "plit": 1684,
      "Table": 1685,
      "Endpoint": 1686,
      "cl": 1687,
      "Source": 1688,
      "▁\tin": 1689,
      "Dis": 1690,
      ".p": 1691,
      "ources": 1692,
      "'s": 1693,
      "k8s.io/": 1694,
      "tain": 1695,
      "();": 1696,
      "▁ANY": 1697,
      "icens": 1698,
      "▁(p": 1699,
      "log\"\n": 1700,
      "▁\t\"context\"\n": 1701,
      "▁\tassert.Equal(t,": 1702,
      ".Con": 1703,
      "Image": 1704,
      "▁\tst": 1705,
      "uid": 1706,
      "ult.": 1707,
      "lock()\n": 1708,
      "ither": 1709,
      "umi": 1710,
      "Base": 1711,
      "cod": 1712,
      "▁no": 1713,
      "mt.Println(\"": 1714,
      "ateg": 1715,
      "E_": 1716,
      "alpha": 1717,
      "▁software": 1718,
      "▁*c": 1719,
      ".List": 1720,
      "Action": 1721,
      "(\"/": 1722,
      "ipe": 1723,
      "ulumi": 1724,
      "▁(r": 1725,
      "AM": 1726,
      "▁parse": 1727,
      "▁util": 1728,
      "11": 1729,
      ".Header": 1730,
      "▁end": 1731,
      "byte,": 1732,
      "▁ctx": 1733,
      "Validate": 1734,
      "olume": 1735,
      "▁has": 1736,
      "▁\t\"net/http": 1737,
      "Max": 1738,
      "▁when": 1739,
      ".User": 1740,
      "oint": 1741,
      "{},": 1742,
      "(context.": 1743,
      "▁WARRAN": 1744,
      "cor": 1745,
      "▁msg": 1746,
      "orted": 1747,
      "river": 1748,
      "Job": 1749,
      "▁obtain": 1750,
      "ogle": 1751,
      "▁*http.Request": 1752,
      "\":\n": 1753,
      "▁language": 1754,
      "▁You": 1755,
      "her": 1756,
      "contin": 1757,
      "sing": 1758,
      "_m": 1759,
      "Text": 1760,
      "ename": 1761,
      ".ID": 1762,
      "▁express": 1763,
      "▁\t\t\tf": 1764,
      "lete": 1765,
      "▁either": 1766,
      "(nil": 1767,
      "(i": 1768,
      "▁\ts.": 1769,
      "try": 1770,
      "▁API": 1771,
      "▁\tl": 1772,
      "▁nil)\n": 1773,
      "mote": 1774,
      "▁main\n": 1775,
      "ten": 1776,
      "▁implement": 1777,
      "uber": 1778,
      "Comp": 1779,
      "hel": 1780,
      "8,": 1781,
      "way": 1782,
      "▁\trequire": 1783,
      ".Config": 1784,
      "Task": 1785,
      "ck()\n": 1786,
      "▁WIT": 1787,
      "▁}": 1788,
      "ecut": 1789,
      ".Second": 1790,
      "\\\"": 1791,
      "rim": 1792,
      "ating": 1793,
      ".Body": 1794,
      "rivate": 1795,
      "▁us": 1796,
      "▁201": 1797,
      "Namespace": 1798,
      "ential": 1799,
      "no": 1800,
      "Method": 1801,
      "▁\t\"encoding": 1802,
      ".Bu": 1803,
      "row": 1804,
      "9,": 1805,
      "▁status": 1806,
      "common": 1807,
      "AL": 1808,
      "rintf": 1809,
      "▁(the": 1810,
      "/d": 1811,
      "ines": 1812,
      "-2.0\n": 1813,
      "OT": 1814,
      "-c": 1815,
      "▁true,\n": 1816,
      ".Unmarshal": 1817,
      "▁and\n": 1818,
      ".(*": 1819,
      "▁strconv": 1820,
      "Label": 1821,
      "golang": 1822,
      "▁Add": 1823,
      "ODO": 1824,
      "▁\"AS": 1825,
      "▁http://": 1826,
      "AC": 1827,
      ".U": 1828,
      "▁\tt.": 1829,
      "very": 1830,
      "Metric": 1831,
      "▁\t\tde": 1832,
      "a,": 1833,
      "▁interface{})": 1834,
      "kg": 1835,
      "TIES": 1836,
      "(map[string]": 1837,
      "apache": 1838,
      "▁WARRANTIES": 1839,
      ".Marshal": 1840,
      "Template": 1841,
      "Contain": 1842,
      "▁\t\tvar": 1843,
      "▁comm": 1844,
      "Policy": 1845,
      "▁2.0": 1846,
      "▁uint64": 1847,
      "mail": 1848,
      "▁format": 1849,
      "liance": 1850,
      "Exp": 1851,
      "Secret": 1852,
      "e,": 1853,
      "(path": 1854,
      "icenses/": 1855,
      "HOUT": 1856,
      "/go-": 1857,
      "▁input": 1858,
      "▁sc": 1859,
      "Controller": 1860,
      "▁http.Status": 1861,
      "▁com": 1862,
      "continue\n": 1863,
      "lib": 1864,
      "▁\t\t{\n": 1865,
      "▁\t\t\t\tif": 1866,
      "▁except": 1867,
      "play": 1868,
      "(err)": 1869,
      ".Err": 1870,
      "Std": 1871,
      "▁url": 1872,
      "Stream": 1873,
      "Container": 1874,
      "Background": 1875,
      "output": 1876,
      ".Now": 1877,
      "▁args": 1878,
      "▁0x2": 1879,
      "▁KIN": 1880,
      "ocker": 1881,
      "licenses/": 1882,
      "▁act": 1883,
      "▁base": 1884,
      "Instance": 1885,
      "Opt": 1886,
      "/test": 1887,
      "▁[]string{\"": 1888,
      "logger": 1889,
      "▁\t\tt": 1890,
      "▁\"s": 1891,
      "gister": 1892,
      "ancel": 1893,
      "(0": 1894,
      "pb": 1895,
      "mt.Printf(\"": 1896,
      "ifier": 1897,
      "▁\t\"net/http\"\n": 1898,
      "▁License,": 1899,
      "imp": 1900,
      "format": 1901,
      "▁method": 1902,
      "▁permissions": 1903,
      "Session": 1904,
      "ertific": 1905,
      "fter": 1906,
      "▁WITHOUT": 1907,
      ".org/licenses/": 1908,
      "(time": 1909,
      "ponent": 1910,
      "Mode": 1911,
      "reed": 1912,
      "ie": 1913,
      "▁error)\n": 1914,
      "▁KIND,": 1915,
      ").\n": 1916,
      "s...": 1917,
      "Kind": 1918,
      "lat": 1919,
      "▁0;": 1920,
      ".1": 1921,
      "raw": 1922,
      "Th": 1923,
      "fore": 1924,
      "////////": 1925,
      "LICENSE": 1926,
      "new": 1927,
      "acket": 1928,
      "ero": 1929,
      "▁update": 1930,
      "▁Error": 1931,
      "▁+=": 1932,
      "▁Ser": 1933,
      "▁item": 1934,
      "▁compliance": 1935,
      "Pool": 1936,
      "▁\t\"s": 1937,
      "▁rep": 1938,
      "▁Licensed": 1939,
      "rame": 1940,
      "▁su": 1941,
      "kn": 1942,
      "resource": 1943,
      "▁r.": 1944,
      "▁IS\"": 1945,
      "yaml": 1946,
      "▁\th": 1947,
      "▁impli": 1948,
      "▁failed": 1949,
      "▁(b": 1950,
      "▁ioutil": 1951,
      "▁\t\tb": 1952,
      "▁BAS": 1953,
      "▁applicable": 1954,
      "▁\t)\n": 1955,
      "(fmt.": 1956,
      "Chan": 1957,
      "▁start": 1958,
      "Number": 1959,
      "▁BASIS": 1960,
      "▁\"License": 1961,
      "Format": 1962,
      "Ref": 1963,
      ".Duration": 1964,
      "▁val": 1965,
      "Ad": 1966,
      "▁at\n": 1967,
      "Params": 1968,
      "ran": 1969,
      "▁governing": 1970,
      "apache.org/licenses/": 1971,
      "▁work": 1972,
      "ched": 1973,
      "www.apache.org/licenses/": 1974,
      "__": 1975,
      "▁law": 1976,
      "www.apache.org/licenses/LICENSE": 1977,
      "alpha1": 1978,
      "ich": 1979,
      "ilename": 1980,
      "▁index": 1981,
      "▁http.Response": 1982,
      "fake": 1983,
      "▁[]byte)": 1984,
      "queue": 1985,
      "▁agreed": 1986,
      "status": 1987,
      "▁mock": 1988,
      "vis": 1989,
      "ployment": 1990,
      "wag": 1991,
      "▁match": 1992,
      "eter": 1993,
      "DITION": 1994,
      "▁inter": 1995,
      "▁\"License\");": 1996,
      "▁Pro": 1997,
      "vert": 1998,
      "ference": 1999,
      "cp": 2000,
      ".No": 2001,
      "▁!ok": 2002,
      "(file": 2003,
      "reak": 2004,
      "([]byte": 2005,
      "▁CONDITION": 2006,
      "www.apache.org/licenses/LICENSE-2.0\n": 2007,
      "▁CONDITIONS": 2008,
      "▁Unless": 2009,
      "▁\r\n": 2010,
      "arser": 2011,
      "Exist": 2012,
      "ld": 2013,
      ".Printf(\"": 2014,
      "arent": 2015,
      "inal": 2016,
      "▁If": 2017,
      "redential": 2018,
      "▁\tC": 2019,
      "ould": 2020,
      "Connection": 2021,
      "▁\"m": 2022,
      "▁\t\tt.Errorf(\"": 2023,
      "▁/*\n": 2024,
      "-1": 2025,
      "(g": 2026,
      "abled": 2027,
      "▁source": 2028,
      "Filter": 2029,
      "dition": 2030,
      "ther": 2031,
      "ocument": 2032,
      "▁writing,": 2033,
      "00,": 2034,
      "lobal": 2035,
      "▁query": 2036,
      "Entry": 2037,
      "▁*P": 2038,
      "],": 2039,
      "Client)": 2040,
      "▁have": 2041,
      "▁contain": 2042,
      "duct": 2043,
      "▁10": 2044,
      "coder": 2045,
      "▁\treturn\n": 2046,
      ".Int": 2047,
      "Failed": 2048,
      "du": 2049,
      "▁trans": 2050,
      "NotFound": 2051,
      "c,": 2052,
      "Ag": 2053,
      "Storage": 2054,
      "mb": 2055,
      "▁output": 2056,
      "ply": 2057,
      "33": 2058,
      "fault:\n": 2059,
      "▁env": 2060,
      "▁\"c": 2061,
      "upp": 2062,
      "ocket": 2063,
      ".Object": 2064,
      "▁http.ResponseWriter,": 2065,
      "Name)\n": 2066,
      "ases": 2067,
      "Que": 2068,
      "addr": 2069,
      "----------------": 2070,
      "▁want": 2071,
      "RE": 2072,
      "ally": 2073,
      "ification": 2074,
      "▁0x0": 2075,
      "▁\tD": 2076,
      "7,": 2077,
      "conn": 2078,
      "▁limitations": 2079,
      "▁\t\tpanic": 2080,
      "rv": 2081,
      "▁software\n": 2082,
      "Channel": 2083,
      "▁number": 2084,
      "ffset": 2085,
      ".Println": 2086,
      "%s\",": 2087,
      "80": 2088,
      "Internal": 2089,
      "ounter": 2090,
      "▁current": 2091,
      "Work": 2092,
      "▁*http.Request)": 2093,
      "root": 2094,
      "▁map[string]string": 2095,
      "rypto": 2096,
      "lf": 2097,
      "▁BASIS,\n": 2098,
      "imit": 2099,
      "etch": 2100,
      "▁Err": 2101,
      "▁\t\tr": 2102,
      ".Message": 2103,
      "ender": 2104,
      "▁runtime": 2105,
      "ubernet": 2106,
      "▁must": 2107,
      "node": 2108,
      ".in": 2109,
      "local": 2110,
      "ns": 2111,
      "▁but": 2112,
      "iron": 2113,
      "Rout": 2114,
      ".Run": 2115,
      "aders": 2116,
      "▁Lo": 2117,
      ".Tr": 2118,
      "▁http://www.apache.org/licenses/LICENSE-2.0\n": 2119,
      "▁store": 2120,
      "/internal": 2121,
      "▁net": 2122,
      "grpc": 2123,
      "ules": 2124,
      "Buffer": 2125,
      "Record": 2126,
      "▁creates": 2127,
      ".Join": 2128,
      "▁List": 2129,
      "▁\"License\");\n": 2130,
      "place": 2131,
      "▁one": 2132,
      "6,": 2133,
      "aces": 2134,
      ".Debug": 2135,
      "s,\n": 2136,
      "▁\tswitch": 2137,
      "▁\t\tw": 2138,
      "lean": 2139,
      "ecute": 2140,
      "▁implied.\n": 2141,
      "(id": 2142,
      "Slice": 2143,
      "s[0]": 2144,
      "sed": 2145,
      ".t": 2146,
      ".Log": 2147,
      "Builder": 2148,
      "itor": 2149,
      "build": 2150,
      "schema": 2151,
      "ron": 2152,
      "String(\"": 2153,
      "▁\t0x": 2154,
      "Role": 2155,
      "▁\ttest": 2156,
      "plication": 2157,
      "99": 2158,
      "▁\t\t\treturn\n": 2159,
      "▁bool)": 2160,
      "enerate": 2161,
      "Url": 2162,
      "umm": 2163,
      "project": 2164,
      "ethe": 2165,
      "Post": 2166,
      "Bad": 2167,
      "▁\t\t\tt.": 2168,
      "▁dis": 2169,
      "uto": 2170,
      "Invalid": 2171,
      "-go/": 2172,
      "▁\"\"\n": 2173,
      "▁i++": 2174,
      "▁uint32": 2175,
      "romethe": 2176,
      "s.New": 2177,
      "▁\tS": 2178,
      "▁int,": 2179,
      "▁func(t": 2180,
      "vc": 2181,
      "RO": 2182,
      "Per": 2183,
      "opic": 2184,
      "irectory": 2185,
      "ertificate": 2186,
      "ped": 2187,
      "atter": 2188,
      "▁any": 2189,
      "▁\t\t\tp": 2190,
      "foo": 2191,
      "▁generated": 2192,
      "{})\n": 2193,
      "s_": 2194,
      "\"),": 2195,
      "html": 2196,
      "▁port": 2197,
      "▁ID": 2198,
      "Num": 2199,
      "▁which": 2200,
      "assert": 2201,
      "▁max": 2202,
      "Exit": 2203,
      "google": 2204,
      "XX": 2205,
      ".App": 2206,
      "dir": 2207,
      "az": 2208,
      "▁represent": 2209,
      "alth": 2210,
      "air": 2211,
      "arr": 2212,
      ".Handler": 2213,
      "Project": 2214,
      "igr": 2215,
      "▁\tclient": 2216,
      "utes": 2217,
      "ome": 2218,
      "(http.Status": 2219,
      "Date": 2220,
      "▁len": 2221,
      "▁\tctx": 2222,
      "Line": 2223,
      "▁Is": 2224,
      "lass": 2225,
      "String(": 2226,
      "entic": 2227,
      "Access": 2228,
      "▁does": 2229,
      "start": 2230,
      "▁was": 2231,
      ".Data": 2232,
      "Hel": 2233,
      ".Method": 2234,
      "▁block": 2235,
      "(req": 2236,
      "▁pre": 2237,
      "▁\"b": 2238,
      "▁U": 2239,
      "Match": 2240,
      "hash": 2241,
      "update": 2242,
      "(chan": 2243,
      "ubernetes": 2244,
      ".Unlock()\n": 2245,
      ".Flag": 2246,
      "laim": 2247,
      "Arr": 2248,
      "Op": 2249,
      "let": 2250,
      "afe": 2251,
      "indow": 2252,
      "formation": 2253,
      "LS": 2254,
      "andom": 2255,
      "▁func(": 2256,
      "Ar": 2257,
      "▁\tgo": 2258,
      "known": 2259,
      "escribe": 2260,
      "/v1": 2261,
      "erv": 2262,
      "▁cfg": 2263,
      "ging": 2264,
      "Password": 2265,
      "okup": 2266,
      "image": 2267,
      "▁*string": 2268,
      "ironment": 2269,
      "name,": 2270,
      "▁tag": 2271,
      "▁gr": 2272,
      ".To(": 2273,
      "ialize": 2274,
      "/json\"\n": 2275,
      "▁1\n": 2276,
      "essages": 2277,
      "sage": 2278,
      "▁make(chan": 2279,
      "Val": 2280,
      "▁*s": 2281,
      "oute": 2282,
      "resh": 2283,
      "ID)\n": 2284,
      "Path,": 2285,
      "Values": 2286,
      "obra.Command": 2287,
      "_,": 2288,
      "Min": 2289,
      "Registry": 2290,
      "▁\tv": 2291,
      "▁per": 2292,
      "▁{\r\n": 2293,
      "Model": 2294,
      "group": 2295,
      "Conf": 2296,
      "ell": 2297,
      ":\",": 2298,
      "command": 2299,
      "index": 2300,
      ".Lock()\n": 2301,
      "▁only": 2302,
      "lan": 2303,
      "▁\t\t\t\t\"": 2304,
      "▁\t\td": 2305,
      "▁auth": 2306,
      "▁instance": 2307,
      "Tx": 2308,
      "▁String": 2309,
      "ED": 2310,
      "clu": 2311,
      ".f": 2312,
      "etav1": 2313,
      "content": 2314,
      "request": 2315,
      "▁cluster": 2316,
      "▁0x4": 2317,
      "reflect": 2318,
      "aws": 2319,
      "▁make(map[string]": 2320,
      "author": 2321,
      "V1": 2322,
      "Metadata": 2323,
      "Out": 2324,
      "▁Config": 2325,
      "we": 2326,
      "core": 2327,
      "Fp": 2328,
      "ens": 2329,
      "interface{})": 2330,
      ".Set(\"": 2331,
      "ateway": 2332,
      "s...)\n": 2333,
      "▁handler": 2334,
      ".As": 2335,
      "▁time.Now": 2336,
      "▁stat": 2337,
      ".Key": 2338,
      "Names": 2339,
      "iew": 2340,
      "▁sec": 2341,
      "Request)": 2342,
      "▁[]string)": 2343,
      "io\"\n": 2344,
      ".Ch": 2345,
      "cd": 2346,
      "▁files": 2347,
      "rie": 2348,
      "▁*m": 2349,
      "▁time.Time": 2350,
      "base": 2351,
      "obj": 2352,
      "iff": 2353,
      "kip": 2354,
      "ternal": 2355,
      ")\r\n": 2356,
      "-sdk": 2357,
      "eters": 2358,
      "▁NOT": 2359,
      "▁back": 2360,
      "▁connection": 2361,
      "(`": 2362,
      "(1)\n": 2363,
      "name:": 2364,
      "▁https://": 2365,
      "▁sign": 2366,
      "(cmd": 2367,
      "CP": 2368,
      "▁filepath": 2369,
      "])\n": 2370,
      "down": 2371,
      "▁host": 2372,
      "▁\t\"encoding/json\"\n": 2373,
      "▁cache": 2374,
      "▁0)\n": 2375,
      "arn": 2376,
      "uter": 2377,
      "▁info": 2378,
      "▁into": 2379,
      ".Logger": 2380,
      "ote": 2381,
      "Proto": 2382,
      "Len": 2383,
      "Length": 2384,
      "[:": 2385,
      "Row": 2386,
      "comp": 2387,
      "inding": 2388,
      "ING": 2389,
      "********": 2390,
      "ranch": 2391,
      "ful": 2392,
      "▁q": 2393,
      "▁int32": 2394,
      "annot": 2395,
      "Page": 2396,
      "▁defin": 2397,
      "▁ad": 2398,
      ".Not": 2399,
      "gress": 2400,
      "▁En": 2401,
      "QL": 2402,
      "gen": 2403,
      "▁\t\t\t}": 2404,
      "_s": 2405,
      "▁\to": 2406,
      "sumer": 2407,
      "AB": 2408,
      "50": 2409,
      "ulti": 2410,
      "========": 2411,
      "info": 2412,
      "▁body": 2413,
      "▁Update": 2414,
      "▁\treq": 2415,
      "▁\t\t\tb": 2416,
      "Struct": 2417,
      "(2": 2418,
      "Queue": 2419,
      "i/": 2420,
      "▁i,": 2421,
      "actory": 2422,
      "Repo": 2423,
      "▁time.Duration": 2424,
      "Order": 2425,
      "_C": 2426,
      "▁image": 2427,
      "pert": 2428,
      "Detail": 2429,
      "\\x": 2430,
      "token": 2431,
      "▁sync": 2432,
      "▁inst": 2433,
      "000": 2434,
      "▁target": 2435,
      "int32": 2436,
      "args": 2437,
      "▁\tcmd": 2438,
      "(config": 2439,
      "ailable": 2440,
      "plu": 2441,
      "▁main()": 2442,
      "▁\t\t\t\t\t\t\t": 2443,
      "achine": 2444,
      ".Resource": 2445,
      "(e": 2446,
      "▁buf": 2447,
      "nap": 2448,
      "▁count": 2449,
      "{},\n": 2450,
      "s[i]": 2451,
      "_P": 2452,
      "▁database": 2453,
      "▁All": 2454,
      "▁(f": 2455,
      "(fmt.Sprintf(\"": 2456,
      "▁\t\tlog.Fatal": 2457,
      "Ctx": 2458,
      "dev": 2459,
      "perties": 2460,
      "ination": 2461,
      "Fail": 2462,
      "wagger": 2463,
      "▁empty": 2464,
      "kube": 2465,
      "▁%q": 2466,
      "▁Delete": 2467,
      "34": 2468,
      "▁schema": 2469,
      "▁errors.Wrap": 2470,
      "ServerError": 2471,
      "ointer": 2472,
      "Limit": 2473,
      "▁line": 2474,
      "55": 2475,
      "▁m.": 2476,
      "▁0x1": 2477,
      "▁err.Error())\n": 2478,
      "PC": 2479,
      "urity": 2480,
      "mount": 2481,
      "second": 2482,
      "▁right": 2483,
      "▁1)\n": 2484,
      "ities": 2485,
      "conf": 2486,
      "▁IN": 2487,
      "s{\n": 2488,
      "(context.Background": 2489,
      "Act": 2490,
      "stream": 2491,
      "▁-1": 2492,
      "▁\"p": 2493,
      ".Spec": 2494,
      "▁tx": 2495,
      "▁other": 2496,
      "gram": 2497,
      "view": 2498,
      ".Path": 2499,
      "Comm": 2500,
      "etry": 2501,
      "ables": 2502,
      "flag": 2503,
      "▁size": 2504,
      "state": 2505,
      "Description": 2506,
      "plugin": 2507,
      "ian": 2508,
      "22": 2509,
      "▁\t\"log\"\n": 2510,
      "▁logger": 2511,
      "Interface": 2512,
      "▁\t\t\terr": 2513,
      "wner": 2514,
      "Init": 2515,
      "▁v1": 2516,
      "▁ioutil.Read": 2517,
      "▁\t\"github.com/st": 2518,
      "▁the\n": 2519,
      "▁\t\"errors\"\n": 2520,
      "aa": 2521,
      "Split": 2522,
      "▁\t\t\tcontinue\n": 2523,
      "Resol": 2524,
      "reak\n": 2525,
      "flow": 2526,
      "▁(string,": 2527,
      "Empty": 2528,
      "ctrl": 2529,
      "▁\"test": 2530,
      "++\n": 2531,
      "(buf": 2532,
      "Error(\"": 2533,
      "lish": 2534,
      "Network": 2535,
      "Open": 2536,
      "▁@": 2537,
      "strconv": 2538,
      "(os.": 2539,
      "▁\tflag": 2540,
      "▁build": 2541,
      "Has": 2542,
      ".Handle": 2543,
      "xx": 2544,
      "last": 2545,
      "(response": 2546,
      "b,": 2547,
      "▁*\n": 2548,
      "(t)\n": 2549,
      "OF": 2550,
      "xml": 2551,
      "secret": 2552,
      "▁(d": 2553,
      "vision": 2554,
      "NS": 2555,
      "ade": 2556,
      "asic": 2557,
      "▁\"http": 2558,
      "▁*C": 2559,
      "med": 2560,
      "Repository": 2561,
      "▁session": 2562,
      ".DB": 2563,
      "▁With": 2564,
      "▁\t*": 2565,
      "▁new(": 2566,
      "04": 2567,
      "▁202": 2568,
      "Web": 2569,
      "Ver": 2570,
      "models.": 2571,
      "▁ab": 2572,
      "13": 2573,
      "▁\tresult": 2574,
      "alled": 2575,
      "▁*S": 2576,
      "▁\t\"github.com/p": 2577,
      "oper": 2578,
      "idth": 2579,
      "▁configuration": 2580,
      "▁\t\t\ts": 2581,
      "golang.org/": 2582,
      "stat": 2583,
      "Key,": 2584,
      ">\n": 2585,
      ".Must": 2586,
      "▁json.Marshal": 2587,
      "UID": 2588,
      "s);": 2589,
      "InternalServerError": 2590,
      "GET": 2591,
      "▁TODO": 2592,
      "default": 2593,
      "▁map": 2594,
      "conc": 2595,
      "Go": 2596,
      "(s.": 2597,
      "_S": 2598,
      "▁p.": 2599,
      "hook": 2600,
      "▁address": 2601,
      "/client": 2602,
      ".Query": 2603,
      "▁task": 2604,
      "network": 2605,
      "v1alpha1": 2606,
      "▁\t\tassert.": 2607,
      "its": 2608,
      "▁row": 2609,
      "▁group": 2610,
      "▁true,": 2611,
      "Payload": 2612,
      "▁header": 2613,
      "Files": 2614,
      ".Delete": 2615,
      "gn": 2616,
      "Link": 2617,
      "Gr": 2618,
      "res,": 2619,
      "pend": 2620,
      "▁\t\t\tm": 2621,
      "escript": 2622,
      "())": 2623,
      "▁rece": 2624,
      ".NoError(t,": 2625,
      "ise": 2626,
      ".URL": 2627,
      "▁(e": 2628,
      "Target": 2629,
      "▁namespace": 2630,
      "chr": 2631,
      "ing\n": 2632,
      "IL": 2633,
      "Response,": 2634,
      "Mutex": 2635,
      "ioutil": 2636,
      "▁([]byte,": 2637,
      ".\")\n": 2638,
      "ared": 2639,
      "lab": 2640,
      "##": 2641,
      "▁validate": 2642,
      "▁init()": 2643,
      "ility": 2644,
      "cheme": 2645,
      "anner": 2646,
      "Array": 2647,
      "▁\t\t{": 2648,
      "eer": 2649,
      "Setting": 2650,
      "escriptor": 2651,
      "▁part": 2652,
      "Rule": 2653,
      ".String(\"": 2654,
      "loc": 2655,
      "▁provi": 2656,
      "▁\tdata": 2657,
      "(msg": 2658,
      "attern": 2659,
      "mt.Fp": 2660,
      ".Get(\"": 2661,
      "▁\t\tn": 2662,
      "/v": 2663,
      "trans": 2664,
      "▁&c": 2665,
      "OST": 2666,
      "▁1,": 2667,
      "▁chan": 2668,
      "▁ass": 2669,
      "Pre": 2670,
      "10": 2671,
      "older": 2672,
      "▁Read": 2673,
      "▁Code": 2674,
      "write": 2675,
      "ause": 2676,
      "ical": 2677,
      "...)\n": 2678,
      "input": 2679,
      "onitor": 2680,
      "Value:": 2681,
      "▁mem": 2682,
      "ible": 2683,
      "s[\"": 2684,
      "/f": 2685,
      "Root": 2686,
      "_p": 2687,
      "s()\n": 2688,
      "chain": 2689,
      "ECT": 2690,
      "/testify": 2691,
      ".b": 2692,
      "retchr": 2693,
      "Configuration": 2694,
      "▁process": 2695,
      "shot": 2696,
      "runtime": 2697,
      "Enc": 2698,
      "retchr/testify": 2699,
      "Bucket": 2700,
      "temp": 2701,
      "Device": 2702,
      ".Field": 2703,
      "▁json.Unmarshal": 2704,
      "ved": 2705,
      "invalid": 2706,
      "select": 2707,
      "upported": 2708,
      "▁common": 2709,
      "▁content": 2710,
      "Nil(t,": 2711,
      "▁[]string\n": 2712,
      "lowed": 2713,
      "corder": 2714,
      "▁Con": 2715,
      "Ent": 2716,
      ".g": 2717,
      "_name": 2718,
      "Process": 2719,
      "lication": 2720,
      "256": 2721,
      "▁returned": 2722,
      "▁\t\"io/": 2723,
      "BadRequest": 2724,
      "▁payload": 2725,
      "▁conn": 2726,
      "(h": 2727,
      "want": 2728,
      "▁\ta": 2729,
      "template": 2730,
      "sm": 2731,
      "▁hash": 2732,
      "HE": 2733,
      "rice": 2734,
      "es,": 2735,
      "structure": 2736,
      ".Register": 2737,
      "+\"": 2738,
      "ative": 2739,
      "s\")\n": 2740,
      "▁send": 2741,
      "so": 2742,
      "▁byte": 2743,
      "▁time.Second": 2744,
      "▁User": 2745,
      "=\"": 2746,
      "ug": 2747,
      "_c": 2748,
      "Man": 2749,
      "▁aw": 2750,
      ".Default": 2751,
      "ioutil\"\n": 2752,
      "hed": 2753,
      "Usage": 2754,
      "Transaction": 2755,
      "ures": 2756,
      "Close": 2757,
      "WS": 2758,
      "Req": 2759,
      "apim": 2760,
      "▁first": 2761,
      "web": 2762,
      "ersist": 2763,
      "▁\te": 2764,
      ".d": 2765,
      "achin": 2766,
      "(u": 2767,
      "Pod": 2768,
      "tl": 2769,
      ".Wait": 2770,
      "imple": 2771,
      "leep": 2772,
      "ason": 2773,
      "scription": 2774,
      "unk": 2775,
      "ready": 2776,
      "▁\t\"io/ioutil\"\n": 2777,
      "▁\tName": 2778,
      "▁\t\"github.com/stretchr/testify": 2779,
      "▁implements": 2780,
      "n't": 2781,
      "Ob": 2782,
      "ph": 2783,
      "▁metric": 2784,
      "▁>=": 2785,
      "bers": 2786,
      "ort.": 2787,
      "env(\"": 2788,
      "achinery": 2789,
      "yle": 2790,
      "▁template": 2791,
      "Remove": 2792,
      "napshot": 2793,
      ".Decode": 2794,
      "controller": 2795,
      "apping": 2796,
      "Gener": 2797,
      "▁[]int": 2798,
      "rus.": 2799,
      ".Service": 2800,
      "▁Author": 2801,
      "s.Get": 2802,
      "Trim": 2803,
      "Agent": 2804,
      "Types": 2805,
      "perty": 2806,
      "▁project": 2807,
      "▁0x5": 2808,
      "▁HTTP": 2809,
      "post": 2810,
      "▁6": 2811,
      "▁table": 2812,
      "map": 2813,
      "▁It": 2814,
      "cy": 2815,
      "AP": 2816,
      "wer": 2817,
      "▁Run": 2818,
      "▁write": 2819,
      "ccur": 2820,
      "Return": 2821,
      "link": 2822,
      "▁\t}()\n": 2823,
      "▁$": 2824,
      "\"}": 2825,
      "ategory": 2826,
      "▁\tdb": 2827,
      ".Update": 2828,
      "Error(err)\n": 2829,
      "▁\tdefault:\n": 2830,
      "▁\tconfig": 2831,
      ".Payload": 2832,
      "▁load": 2833,
      "▁container": 2834,
      "▁hel": 2835,
      "Path)\n": 2836,
      "Author": 2837,
      "Local": 2838,
      "igin": 2839,
      "cope": 2840,
      "(value": 2841,
      "interface{},": 2842,
      "resp,": 2843,
      "Stack": 2844,
      "bute": 2845,
      "ublish": 2846,
      "(tr": 2847,
      ".Println(\"": 2848,
      "address": 2849,
      "Bal": 2850,
      "▁\tM": 2851,
      ".Equal": 2852,
      "▁min": 2853,
      "▁json:\"": 2854,
      "Lock": 2855,
      "clude": 2856,
      "{{": 2857,
      "ances": 2858,
      "▁<=": 2859,
      "iable": 2860,
      "ency": 2861,
      "▁\"t": 2862,
      "application": 2863,
      "▁channel": 2864,
      "tep": 2865,
      "▁num": 2866,
      ".2": 2867,
      "▁0x3": 2868,
      "▁\t\tt.Fatalf(\"": 2869,
      "-m": 2870,
      "Cert": 2871,
      "Args": 2872,
      "▁ip": 2873,
      "aws/": 2874,
      "Volume": 2875,
      "vok": 2876,
      "ifest": 2877,
      "/re": 2878,
      "[0": 2879,
      "job": 2880,
      "Api": 2881,
      "apimachinery": 2882,
      "ysc": 2883,
      "tribute": 2884,
      "▁specified": 2885,
      "UL": 2886,
      "IG": 2887,
      "sub": 2888,
      "ution": 2889,
      "router": 2890,
      "yscall": 2891,
      "container": 2892,
      "(func()": 2893,
      "ttp": 2894,
      "id,": 2895,
      "ipeline": 2896,
      "aint": 2897,
      "▁\t\t\t\t},\n": 2898,
      "safe": 2899,
      "perator": 2900,
      "ict": 2901,
      "▁filter": 2902,
      "[1]": 2903,
      "s))\n": 2904,
      "▁\t\tresult": 2905,
      "OS": 2906,
      "Proxy": 2907,
      "▁\t\tS": 2908,
      "osition": 2909,
      "\"}\n": 2910,
      "igh": 2911,
      "s\"`\n": 2912,
      "▁Default": 2913,
      "(ctx)\n": 2914,
      "▁job": 2915,
      "covery": 2916,
      "vailable": 2917,
      "▁*b": 2918,
      "(client": 2919,
      ")))\n": 2920,
      "Point": 2921,
      ".Start": 2922,
      ".Call": 2923,
      "layer": 2924,
      "\"`": 2925,
      "ilt": 2926,
      "Factory": 2927,
      "aster": 2928,
      "▁close": 2929,
      "oci": 2930,
      "self": 2931,
      ".Node": 2932,
      "▁App": 2933,
      ".Find": 2934,
      "apimachinery/pkg/": 2935,
      "+v": 2936,
      "Desc": 2937,
      "▁Write": 2938,
      "(test": 2939,
      "▁\t\"io\"\n": 2940,
      "Route": 2941,
      "bytes\"\n": 2942,
      ".Assert": 2943,
      ".Do": 2944,
      "ived": 2945,
      "▁mod": 2946,
      "▁0x8": 2947,
      "(k": 2948,
      "k8s.io/apimachinery/pkg/": 2949,
      "▁using": 2950,
      "of": 2951,
      "▁information": 2952,
      "os.Exit": 2953,
      "▁record": 2954,
      "▁secret": 2955,
      "w\",": 2956,
      "lot": 2957,
      "uite": 2958,
      "strconv\"\n": 2959,
      "▁name,": 2960,
      "erge": 2961,
      ".client": 2962,
      "▁Use": 2963,
      ".Context)": 2964,
      "Report": 2965,
      "▁\t\tg": 2966,
      ".Format": 2967,
      "Part": 2968,
      "Space": 2969,
      "▁local": 2970,
      "pulumi": 2971,
      "Copy": 2972,
      ".Sub": 2973,
      "EL": 2974,
      "apis": 2975,
      "Inst": 2976,
      "Case": 2977,
      "Search": 2978,
      "graph": 2979,
      "1:": 2980,
      "Id,": 2981,
      ".Server": 2982,
      "▁represents": 2983,
      "▁core": 2984,
      "atest": 2985,
      "cent": 2986,
      "ker": 2987,
      "▁\"d": 2988,
      "beta": 2989,
      "tach": 2990,
      "ui": 2991,
      "oll": 2992,
      "ML": 2993,
      "Name,\n": 2994,
      ".By": 2995,
      "▁me": 2996,
      "▁sql": 2997,
      "Operation": 2998,
      "▁root": 2999,
      "Parse": 3000,
      "Stop": 3001,
      "urs": 3002,
      "Var(&": 3003,
      "here": 3004,
      "lation": 3005,
      "(format": 3006,
      "mark": 3007,
      "▁\".": 3008,
      "▁op": 3009,
      "The": 3010,
      "cloud": 3011,
      "ater": 3012,
      "this": 3013,
      "Plugin": 3014,
      "▁err,": 3015,
      "issing": 3016,
      "plet": 3017,
      "▁need": 3018,
      ".Buffer": 3019,
      "Build": 3020,
      "Ptr": 3021,
      "out,": 3022,
      "▁addr": 3023,
      "▁\t\"bytes\"\n": 3024,
      "ingle": 3025,
      "];": 3026,
      ".Code": 3027,
      "▁conf": 3028,
      "pan": 3029,
      "Imp": 3030,
      "cho": 3031,
      "▁\t\"strconv\"\n": 3032,
      "▁open": 3033,
      "▁%w\",": 3034,
      "space": 3035,
      "go.": 3036,
      "ector": 3037,
      "▁\tfmt.Println(\"": 3038,
      "▁label": 3039,
      "▁provided": 3040,
      "rect": 3041,
      "▁pod": 3042,
      "▁repo": 3043,
      "upport": 3044,
      "Key:": 3045,
      "finition": 3046,
      "▁*g": 3047,
      "▁strings.Split": 3048,
      "/log": 3049,
      "▁handle": 3050,
      "stack": 3051,
      "apt": 3052,
      "box": 3053,
      "tra": 3054,
      "▁context": 3055,
      "▁length": 3056,
      "▁\t\t\tcase": 3057,
      ".n": 3058,
      "▁ver": 3059,
      "▁generate": 3060,
      "entity": 3061,
      "object": 3062,
      "▁\t//\n": 3063,
      "path\"\n": 3064,
      "/go": 3065,
      "▁license": 3066,
      "storage": 3067,
      "HER": 3068,
      "lack": 3069,
      "▁0x9": 3070,
      "ultip": 3071,
      "ao": 3072,
      "ptr": 3073,
      "▁endpoint": 3074,
      "It": 3075,
      "ented": 3076,
      "T_": 3077,
      "▁(l": 3078,
      "▁result.": 3079,
      "_proto": 3080,
      "(de": 3081,
      "req": 3082,
      "Suite": 3083,
      "_t": 3084,
      "a-": 3085,
      "▁actual": 3086,
      "Element": 3087,
      "Column": 3088,
      "ince": 3089,
      "▁fail": 3090,
      "erved.\n": 3091,
      "▁8": 3092,
      "Expected": 3093,
      "Next": 3094,
      ".0.0": 3095,
      "Del": 3096,
      "▁\t\"github.com/go-": 3097,
      "ummary": 3098,
      "ffix": 3099,
      "▁(a": 3100,
      "▁ind": 3101,
      "array": 3102,
      "(context.Background(),": 3103,
      "▁Ch": 3104,
      "▁`yaml": 3105,
      "▁obj": 3106,
      ".(string": 3107,
      "▁cancel": 3108,
      "olor": 3109,
      "s-": 3110,
      "▁\t\t\tExpect": 3111,
      "▁\t\"sync": 3112,
      "▁Check": 3113,
      "zap": 3114,
      "▁\tF": 3115,
      "▁cor": 3116,
      "`,": 3117,
      "engine": 3118,
      ".get": 3119,
      "Run(\"": 3120,
      "▁\tT": 3121,
      "Schema": 3122,
      "int,": 3123,
      "True": 3124,
      "/r": 3125,
      "Duration": 3126,
      "▁Tr": 3127,
      "▁entry": 3128,
      "Reset": 3129,
      "▁last": 3130,
      ".Encode": 3131,
      "iver": 3132,
      "ses": 3133,
      ".Event": 3134,
      "▁more": 3135,
      "Load": 3136,
      "Byte": 3137,
      "▁\tret": 3138,
      "x,": 3139,
      "Success": 3140,
      "ression": 3141,
      ".Name,": 3142,
      "can": 3143,
      "▁directory": 3144,
      "▁non": 3145,
      ".Bool": 3146,
      "AD": 3147,
      "▁\t\ts.": 3148,
      "▁\"\")\n": 3149,
      "▁0xc": 3150,
      "wo": 3151,
      "▁storage": 3152,
      "▁map[string]interface{}": 3153,
      "ift": 3154,
      "impl": 3155,
      "▁os.Get": 3156,
      "Short": 3157,
      "/internal/": 3158,
      "AG": 3159,
      "oy": 3160,
      "fmt.": 3161,
      "▁find": 3162,
      "▁\t\t{\"": 3163,
      "US": 3164,
      "IM": 3165,
      "Domain": 3166,
      "ories": 3167,
      "ation\n": 3168,
      "▁order": 3169,
      ".File": 3170,
      "builder": 3171,
      "Bool": 3172,
      "provider": 3173,
      "}}": 3174,
      "illi": 3175,
      "▁exec": 3176,
      "ward": 3177,
      "▁action": 3178,
      "ccurred": 3179,
      ".io/": 3180,
      "account": 3181,
      "▁next": 3182,
      "anges": 3183,
      "Bo": 3184,
      "▁*M": 3185,
      "Ed": 3186,
      "true": 3187,
      "CH": 3188,
      "-b": 3189,
      "values": 3190,
      "_test": 3191,
      "▁Go": 3192,
      "▁`yaml:\"": 3193,
      "Resp": 3194,
      "authorized": 3195,
      "Dir,": 3196,
      "urrency": 3197,
      "▁Parse": 3198,
      "ish": 3199,
      "arams": 3200,
      "eature": 3201,
      "▁account": 3202,
      ".Info(\"": 3203,
      "level": 3204,
      ".re": 3205,
      "/k": 3206,
      "Json": 3207,
      ".Error(\"": 3208,
      "Location": 3209,
      ".Min": 3210,
      "▁..": 3211,
      "any": 3212,
      "ecution": 3213,
      "Server)": 3214,
      "▁Init": 3215,
      "▁\t\t_,": 3216,
      "▁\"1": 3217,
      "Validator": 3218,
      "▁delete": 3219,
      ".On": 3220,
      ".K": 3221,
      "URI": 3222,
      "TION": 3223,
      "▁argument": 3224,
      "ments": 3225,
      "▁\t\t\tfor": 3226,
      "▁contains": 3227,
      "▁map[": 3228,
      "ollow": 3229,
      "\\t": 3230,
      "▁*cobra.Command": 3231,
      "ique": 3232,
      "(cfg": 3233,
      "▁\tlogger": 3234,
      "irt": 3235,
      "▁qu": 3236,
      "\":\"": 3237,
      "ublicKey": 3238,
      "▁...interface{})": 3239,
      ".Host": 3240,
      "44": 3241,
      "Enum": 3242,
      "icro": 3243,
      "(user": 3244,
      "msg": 3245,
      "Last": 3246,
      "LO": 3247,
      ".Te": 3248,
      "agent": 3249,
      "Control": 3250,
      "Register": 3251,
      "▁\t\t\t})\n": 3252,
      "▁case": 3253,
      "_T": 3254,
      "▁(err": 3255,
      "▁operation": 3256,
      "\\n\")\n": 3257,
      "▁stream": 3258,
      "Middleware": 3259,
      "header": 3260,
      "▁password": 3261,
      "Ip": 3262,
      "▁\"P": 3263,
      "/model": 3264,
      "git": 3265,
      "▁\"f": 3266,
      "▁Type": 3267,
      "SQL": 3268,
      "▁#": 3269,
      "Created": 3270,
      "▁`xml": 3271,
      "duc": 3272,
      "▁\tGet": 3273,
      "▁web": 3274,
      "▁hand": 3275,
      "▁\"-": 3276,
      "ownload": 3277,
      "ka": 3278,
      "▁\t\tl": 3279,
      "Ass": 3280,
      "Raw": 3281,
      "Id:": 3282,
      "arm": 3283,
      "▁fake": 3284,
      "▁Validate": 3285,
      "ERR": 3286,
      "vo": 3287,
      "▁\t},": 3288,
      "Range": 3289,
      "▁off": 3290,
      "Entity": 3291,
      "/v1\"\n": 3292,
      "Ph": 3293,
      "greg": 3294,
      "ank": 3295,
      "reen": 3296,
      "bucket": 3297,
      "▁context.Context)": 3298,
      ".Inter": 3299,
      "exec": 3300,
      "▁(h": 3301,
      "▁enc": 3302,
      "(input": 3303,
      "Database": 3304,
      "File,": 3305,
      "tag": 3306,
      "ries": 3307,
      "▁Should": 3308,
      "atcher": 3309,
      "NoError(t,": 3310,
      "tension": 3311,
      "coded": 3312,
      "▁\tapp": 3313,
      "▁(v": 3314,
      "_d": 3315,
      "20": 3316,
      "%s'": 3317,
      "▁\t\tdefer": 3318,
      "(db": 3319,
      "Do": 3320,
      "▁`\n": 3321,
      "▁*F": 3322,
      ".Id": 3323,
      "oftware": 3324,
      "▁[]byte,": 3325,
      ".Errorf(\"": 3326,
      "ient": 3327,
      "Service)": 3328,
      "▁THE": 3329,
      "loat32": 3330,
      "▁*Client)": 3331,
      "▁\t\tpanic(err)\n": 3332,
      "/core": 3333,
      "latform": 3334,
      "(err.Error": 3335,
      "beta1": 3336,
      "▁error:": 3337,
      "▁res.": 3338,
      "Type,": 3339,
      ".Reader": 3340,
      "Router": 3341,
      "par": 3342,
      "pted": 3343,
      "ript": 3344,
      "Region": 3345,
      "Interval": 3346,
      "_M": 3347,
      "/v2": 3348,
      "▁errors.Wrap(err,": 3349,
      "▁src": 3350,
      "▁slice": 3351,
      ".Name)\n": 3352,
      "example": 3353,
      "Sprintf": 3354,
      "hen": 3355,
      "▁\tcon": 3356,
      "▁\tfile": 3357,
      ".Flags()": 3358,
      "▁\tbuf": 3359,
      "Debug": 3360,
      "▁%s\\n\",": 3361,
      "process": 3362,
      "entry": 3363,
      "Binary": 3364,
      "▁network": 3365,
      "ID,\n": 3366,
      "▁To": 3367,
      "ookie": 3368,
      "gor": 3369,
      "izer": 3370,
      "Path:": 3371,
      "▁(n": 3372,
      ".Load": 3373,
      "▁\t\trequire": 3374,
      "▁\t\tName:": 3375,
      "▁*p": 3376,
      "Custom": 3377,
      "View": 3378,
      "EM": 3379,
      "til": 3380,
      "arning": 3381,
      "Have": 3382,
      "ed\n": 3383,
      "Mod": 3384,
      ".(": 3385,
      "Email": 3386,
      "icle": 3387,
      "▁0x00,": 3388,
      "▁\t\"sync\"\n": 3389,
      "(os.Std": 3390,
      "▁invalid": 3391,
      "proxy": 3392,
      "▁String()": 3393,
      "Connect": 3394,
      "▁\tfmt.Println": 3395,
      "Module": 3396,
      "▁level": 3397,
      "crypto": 3398,
      ".Unix": 3399,
      "rometheus.": 3400,
      "gres": 3401,
      "▁DO": 3402,
      "velo": 3403,
      "▁page": 3404,
      "(request": 3405,
      "(arg": 3406,
      "ps": 3407,
      "▁\t\t\tName:": 3408,
      "▁char": 3409,
      "▁strings.Trim": 3410,
      "Config)": 3411,
      "s\",\n": 3412,
      "▁\t\t\t\t\treturn": 3413,
      "iod": 3414,
      "ump": 3415,
      "vm": 3416,
      "types\"\n": 3417,
      "▁`xml:\"": 3418,
      "Content-": 3419,
      "▁Log": 3420,
      "undle": 3421,
      "▁element": 3422,
      "(a": 3423,
      "ATE": 3424,
      "▁rights": 3425,
      "(resp": 3426,
      "Tim": 3427,
      "ESS": 3428,
      "▁JSON": 3429,
      "ysql": 3430,
      "Obj": 3431,
      "pool": 3432,
      "len(": 3433,
      "uccess": 3434,
      "Timestamp": 3435,
      "▁\t\tlogger": 3436,
      "/file": 3437,
      "ired": 3438,
      "OP": 3439,
      "ear": 3440,
      ".Next": 3441,
      "▁access": 3442,
      "If": 3443,
      "Chain": 3444,
      "1)\n": 3445,
      "▁IP": 3446,
      "Identifier": 3447,
      "ed,": 3448,
      "Profile": 3449,
      "▁binary": 3450,
      "ault": 3451,
      "////////////////": 3452,
      "Cfg": 3453,
      "▁then": 3454,
      "Credential": 3455,
      "▁after": 3456,
      "▁det": 3457,
      "Net": 3458,
      "erra": 3459,
      "Condition": 3460,
      ".String()\n": 3461,
      "`)\n": 3462,
      ".String())\n": 3463,
      "(c,": 3464,
      "Fn": 3465,
      "▁Service": 3466,
      "protobuf": 3467,
      ".go": 3468,
      "▁\thttp": 3469,
      "LI": 3470,
      "One": 3471,
      "TLS": 3472,
      "▁plugin": 3473,
      "change": 3474,
      "ormal": 3475,
      "Counter": 3476,
      "Color": 3477,
      "(log": 3478,
      "vey": 3479,
      "▁been": 3480,
      ".Bytes": 3481,
      "UN": 3482,
      "dr": 3483,
      "It(\"": 3484,
      "▁\tres": 3485,
      "▁now": 3486,
      "igger": 3487,
      "got": 3488,
      "▁J": 3489,
      "chan": 3490,
      "XP": 3491,
      "ynam": 3492,
      "trib": 3493,
      "FF": 3494,
      "Offset": 3495,
      ".Test": 3496,
      "istic": 3497,
      "direct": 3498,
      "▁\tt.Run(\"": 3499,
      ".h": 3500,
      "Ali": 3501,
      "connect": 3502,
      "idden": 3503,
      "78": 3504,
      "▁\t\t\tde": 3505,
      "▁100": 3506,
      "▁opts": 3507,
      "▁\t\"github.com/s": 3508,
      "▁buffer": 3509,
      "erraform": 3510,
      "Map[": 3511,
      "orp": 3512,
      "anization": 3513,
      "▁[]struct": 3514,
      "▁Option": 3515,
      "Data,": 3516,
      ".Init": 3517,
      "Rate": 3518,
      ".Option": 3519,
      ".Result": 3520,
      "▁[]byte\n": 3521,
      "▁its": 3522,
      "ls": 3523,
      "ymb": 3524,
      "▁0xb": 3525,
      ".Trans": 3526,
      "-p": 3527,
      "▁\")\n": 3528,
      "▁tt.": 3529,
      "▁{{": 3530,
      "▁%d\",": 3531,
      "19": 3532,
      "▁connect": 3533,
      "Resources": 3534,
      "this.": 3535,
      "▁initial": 3536,
      "x/": 3537,
      "▁\trequire.NoError(t,": 3538,
      "▁metadata": 3539,
      "▁Marshal": 3540,
      "LE": 3541,
      "search": 3542,
      "cre": 3543,
      "▁wait": 3544,
      "▁swagger": 3545,
      "Send": 3546,
      "Tree": 3547,
      "▁\t},\n": 3548,
      "▁timeout": 3549,
      "rometheus": 3550,
      ".WriteHeader": 3551,
      ".Stat": 3552,
      "Memory": 3553,
      "assert\"\n": 3554,
      "00000000": 3555,
      "Rece": 3556,
      "▁domain": 3557,
      ".Max": 3558,
      "ers\n": 3559,
      "Org": 3560,
      "cs": 3561,
      "ves": 3562,
      "▁\tkey": 3563,
      "order": 3564,
      "Height": 3565,
      "(o": 3566,
      "EY": 3567,
      "▁\t\t\t\t//": 3568,
      "Unauthorized": 3569,
      "Recorder": 3570,
      "lex": 3571,
      "▁im": 3572,
      "Handle": 3573,
      ".Send": 3574,
      ".Put": 3575,
      "endpoint": 3576,
      "▁\tk": 3577,
      "board": 3578,
      "▁same": 3579,
      "▁custom": 3580,
      "▁Client": 3581,
      "Enabled": 3582,
      "▁\tout": 3583,
      "ench": 3584,
      "apter": 3585,
      ".IP": 3586,
      "Serve": 3587,
      "▁par": 3588,
      "exist": 3589,
      ".An": 3590,
      "(new": 3591,
      "▁bo": 3592,
      "▁created": 3593,
      "▁\t\t\t\tc": 3594,
      "quence": 3595,
      ".Namespace": 3596,
      "▁top": 3597,
      "(error": 3598,
      "Package": 3599,
      "▁\"C": 3600,
      "Product": 3601,
      "▁sets": 3602,
      "▁\tuser": 3603,
      "▁each": 3604,
      "cover": 3605,
      "Http": 3606,
      "a/": 3607,
      "▁0xf": 3608,
      "▁dir": 3609,
      "▁std": 3610,
      "▁EDIT": 3611,
      ".Should": 3612,
      "Client,": 3613,
      "utils.": 3614,
      "illisecond": 3615,
      "s(t": 3616,
      "▁Name": 3617,
      "rop": 3618,
      "pose": 3619,
      ".JSON": 3620,
      "▁cli": 3621,
      "▁*D": 3622,
      "▁adds": 3623,
      "limit": 3624,
      "ious": 3625,
      "▁Unmarshal": 3626,
      "2)\n": 3627,
      "lush": 3628,
      "▁post": 3629,
      "▁there": 3630,
      "▁[]byte(\"": 3631,
      "▁already": 3632,
      "operator": 3633,
      "▁sdk": 3634,
      "Listener": 3635,
      "▁Bu": 3636,
      "▁false,\n": 3637,
      "/assert\"\n": 3638,
      "Class": 3639,
      "a\n": 3640,
      "create": 3641,
      "▁*Get": 3642,
      "▁%+v": 3643,
      "Validation": 3644,
      "0\n": 3645,
      "TODO": 3646,
      "Required": 3647,
      "RPC": 3648,
      "rev": 3649,
      ".Size": 3650,
      "Upload": 3651,
      "tributes": 3652,
      "ymbol": 3653,
      "▁http.Handler": 3654,
      "▁reflect.Type": 3655,
      "▁?": 3656,
      "▁fmt.Sprintf(\"%": 3657,
      "-go": 3658,
      "Iter": 3659,
      "▁text": 3660,
      ".Param": 3661,
      "Admin": 3662,
      "Cloud": 3663,
      "()))\n": 3664,
      "▁&m": 3665,
      "▁meta": 3666,
      "▁stop": 3667,
      "▁string(": 3668,
      "▁\tfmt.Printf(\"": 3669,
      ".Sleep": 3670,
      "Options)": 3671,
      "200": 3672,
      "field": 3673,
      "channel": 3674,
      "mplates": 3675,
      "esh": 3676,
      "▁filepath.Join": 3677,
      "ability": 3678,
      "▁protocol": 3679,
      "istory": 3680,
      "pare": 3681,
      ".NewRequest": 3682,
      "label": 3683,
      "rt": 3684,
      "▁key,": 3685,
      "15": 3686,
      "▁\t\th": 3687,
      "1\",": 3688,
      "tegr": 3689,
      "▁int64\n": 3690,
      "▁\t\"m": 3691,
      "ayment": 3692,
      "▁'%s'": 3693,
      "ersistent": 3694,
      "Application": 3695,
      "Occurred": 3696,
      "init": 3697,
      "ENT": 3698,
      "CS": 3699,
      "▁\t\"github.com/sp": 3700,
      "plete": 3701,
      "inst": 3702,
      "Change": 3703,
      "▁Close": 3704,
      "gine": 3705,
      "▁provid": 3706,
      "▁\t\tfmt.Println(\"": 3707,
      ".Version": 3708,
      "▁zap": 3709,
      "gnore": 3710,
      "▁Start": 3711,
      "(x": 3712,
      "es\n": 3713,
      "▁without": 3714,
      "sql": 3715,
      ".Equal(t,": 3716,
      "Replace": 3717,
      "▁yaml": 3718,
      "yp": 3719,
      "▁interface{},": 3720,
      "Zero": 3721,
      "f13": 3722,
      "nil": 3723,
      "errors.": 3724,
      "▁make([]byte,": 3725,
      "▁prefix": 3726,
      ".Dis": 3727,
      "match": 3728,
      "Descriptor": 3729,
      "ampl": 3730,
      "▁TODO:": 3731,
      "▁r,": 3732,
      "▁(w": 3733,
      "▁setting": 3734,
      ".Infof(\"": 3735,
      "rivateKey": 3736,
      "▁\t.": 3737,
      "▁tests": 3738,
      "Function": 3739,
      "66": 3740,
      "cast": 3741,
      "Ac": 3742,
      "_D": 3743,
      "cle": 3744,
      "▁file.\n": 3745,
      "zip": 3746,
      "▁utils.": 3747,
      "▁`pulumi": 3748,
      "Identity": 3749,
      "[]string": 3750,
      "▁cons": 3751,
      ".Check": 3752,
      ".At": 3753,
      "Contains": 3754,
      "▁`pulumi:\"": 3755,
      "▁allow": 3756,
      "▁success": 3757,
      "-g": 3758,
      "18": 3759,
      "▁before": 3760,
      "▁dec": 3761,
      "ool,": 3762,
      ".Done": 3763,
      "mt.Fprintf": 3764,
      "SH": 3765,
      "ik": 3766,
      "▁%v,": 3767,
      ".Arg": 3768,
      "rior": 3769,
      "▁here": 3770,
      "▁metav1": 3771,
      "irtual": 3772,
      "ga": 3773,
      "ivity": 3774,
      "roker": 3775,
      "andard": 3776,
      "▁value\n": 3777,
      "(nil)\n": 3778,
      "strings.": 3779,
      "iss": 3780,
      "Selector": 3781,
      "igest": 3782,
      "olumn": 3783,
      "▁0xe": 3784,
      "ipher": 3785,
      "chedule": 3786,
      "scal": 3787,
      "▁\t\t\tre": 3788,
      "(stack": 3789,
      "▁retrie": 3790,
      "Title": 3791,
      "gment": 3792,
      "Info,": 3793,
      "alle": 3794,
      "time.Sleep": 3795,
      "▁your": 3796,
      "eep": 3797,
      "▁reserved.\n": 3798,
      "ffic": 3799,
      ".w": 3800,
      "orld": 3801,
      "imal": 3802,
      "atas": 3803,
      "imum": 3804,
      "▁regexp": 3805,
      "▁this.": 3806,
      "Contains(": 3807,
      "rus": 3808,
      "admin": 3809,
      "▁convert": 3810,
      "▁\t\t\t\t\t\t\t\t": 3811,
      "▁\t\t\t\tt.": 3812,
      "▁models.": 3813,
      ").To(": 3814,
      "message": 3815,
      "▁than": 3816,
      "Collection": 3817,
      "Claim": 3818,
      "entication": 3819,
      "/util": 3820,
      "▁\t\"crypto": 3821,
      ".Sh": 3822,
      "▁\t\"github.com/stretchr/testify/assert\"\n": 3823,
      "▁URL": 3824,
      "%d\",": 3825,
      "Wait": 3826,
      "emon": 3827,
      "▁\t\t\t\tf": 3828,
      "1\n": 3829,
      "▁\t\t\tname:": 3830,
      "ium": 3831,
      "X-": 3832,
      "s(\"": 3833,
      "ups": 3834,
      ".Comp": 3835,
      "bit": 3836,
      "ont": 3837,
      "odo": 3838,
      "ned": 3839,
      "▁\tu": 3840,
      ".Token": 3841,
      "Pair": 3842,
      "▁0xd": 3843,
      "▁*Mock": 3844,
      "▁EDIT.\n": 3845,
      "alc": 3846,
      "ton": 3847,
      "iginal": 3848,
      "Occurred())\n": 3849,
      "▁\t\"github.com/spf13": 3850,
      "Definition": 3851,
      "▁2,": 3852,
      "▁\t}{\n": 3853,
      "▁os.Getenv(\"": 3854,
      "Batch": 3855,
      "ier": 3856,
      "▁\t\t\td": 3857,
      "▁Event": 3858,
      "sure": 3859,
      "Environment": 3860,
      "ategy": 3861,
      "omic": 3862,
      "ildren": 3863,
      "path/file": 3864,
      ".Interface": 3865,
      "▁Se": 3866,
      "%v\",": 3867,
      "▁}\r\n": 3868,
      "24": 3869,
      "Attr": 3870,
      "Impl": 3871,
      "al\n": 3872,
      "ffect": 3873,
      "leg": 3874,
      "sign": 3875,
      "ongo": 3876,
      "utdown": 3877,
      "▁On": 3878,
      ".StatusCode": 3879,
      "▁For": 3880,
      "▁strfmt.": 3881,
      "google.": 3882,
      "XXX": 3883,
      "ii": 3884,
      "Config,": 3885,
      "▁time.Now()": 3886,
      "Context)": 3887,
      "cv": 3888,
      "ursor": 3889,
      "77": 3890,
      "▁map[string]*": 3891,
      "aws/aws": 3892,
      "▁//\t": 3893,
      "▁pl": 3894,
      "▁\t\tt.Fatal(err)\n": 3895,
      "▁\"\",\n": 3896,
      "▁\t\t\tbreak\n": 3897,
      "path/filepath\"\n": 3898,
      "serv": 3899,
      "▁file\n": 3900,
      "▁64": 3901,
      "ending": 3902,
      ".Pointer": 3903,
      "leanup": 3904,
      "Component": 3905,
      "igration": 3906,
      ".Base": 3907,
      "Protocol": 3908,
      "validate": 3909,
      "namespace": 3910,
      "oo": 3911,
      "▁provider": 3912,
      "localhost": 3913,
      "▁12": 3914,
      "Health": 3915,
      "protocol": 3916,
      "iler": 3917,
      "▁consumer": 3918,
      "Int64": 3919,
      "(0)\n": 3920,
      "▁Load": 3921,
      "▁\t\t\t\tlog": 3922,
      "\\\\": 3923,
      "▁LICENSE": 3924,
      "r,": 3925,
      "▁\tErr": 3926,
      "Ret": 3927,
      "▁sp": 3928,
      "▁middleware": 3929,
      "30": 3930,
      "Nodes": 3931,
      "Step": 3932,
      "▁\tresp,": 3933,
      "ano": 3934,
      "Uint": 3935,
      "▁transaction": 3936,
      "▁\t\"path/filepath\"\n": 3937,
      "ID\n": 3938,
      "config\"\n": 3939,
      "2]": 3940,
      "Reference": 3941,
      "System": 3942,
      "▁(c)": 3943,
      "access": 3944,
      "▁remove": 3945,
      "Config{\n": 3946,
      "au": 3947,
      "▁\t\tres": 3948,
      "Unknown": 3949,
      "▁\t\t\t\t\t}\n": 3950,
      "▁wrap": 3951,
      "ng": 3952,
      "oom": 3953,
      "omock": 3954,
      "os.Exit(1)\n": 3955,
      "▁0xa": 3956,
      "toa": 3957,
      "helper": 3958,
      "Registry)": 3959,
      "▁\tnew": 3960,
      "_b": 3961,
      "▁link": 3962,
      "▁array": 3963,
      "▁names": 3964,
      "roll": 3965,
      "mission": 3966,
      "verse": 3967,
      "Version:": 3968,
      "opts": 3969,
      ".Group": 3970,
      "/*": 3971,
      "delete": 3972,
      "▁ident": 3973,
      "ugh": 3974,
      ".log": 3975,
      "▁\t\tswitch": 3976,
      "\"\r\n": 3977,
      "88": 3978,
      "Endian": 3979,
      "(len(": 3980,
      "ipp": 3981,
      "former": 3982,
      "Owner": 3983,
      "▁register": 3984,
      "anifest": 3985,
      ".Itoa": 3986,
      "▁controller": 3987,
      "Art": 3988,
      "14": 3989,
      "▁Key": 3990,
      "▁term": 3991,
      ".Msg": 3992,
      "EST": 3993,
      "should": 3994,
      "▁\tresponse": 3995,
      "eek": 3996,
      "▁Message": 3997,
      "Handler)": 3998,
      "afka": 3999,
      ".Millisecond": 4000,
      "▁\t\tfmt.Printf(\"": 4001,
      "▁cert": 4002,
      "`,\n": 4003,
      "ccount": 4004,
      "(conn": 4005,
      "05": 4006,
      "SD": 4007,
      "google.golang.org/": 4008,
      "sa": 4009,
      "OM": 4010,
      "Topic": 4011,
      "▁\t\t\tt": 4012,
      "Decoder": 4013,
      "Context,": 4014,
      "notation": 4015,
      "Deployment": 4016,
      ".X": 4017,
      "lt": 4018,
      "\"+": 4019,
      "pu": 4020,
      "err,": 4021,
      "itional": 4022,
      "Transport": 4023,
      "▁\t\tv": 4024,
      "<-": 4025,
      "stant": 4026,
      "route": 4027,
      "▁delet": 4028,
      "timeout": 4029,
      "Float": 4030,
      "Headers": 4031,
      "Resolver": 4032,
      "br": 4033,
      "▁\t\"github.com/j": 4034,
      "Login": 4035,
      "HaveOccurred())\n": 4036,
      "509": 4037,
      ".HandleFunc": 4038,
      ".Std": 4039,
      "Suffix": 4040,
      "ROM": 4041,
      "ms": 4042,
      "▁queue": 4043,
      "▁print": 4044,
      "other": 4045,
      "Long": 4046,
      "▁\t\t&": 4047,
      "▁mode": 4048,
      ".Raw": 4049,
      "▁over": 4050,
      "lert": 4051,
      "opts.": 4052,
      ".State": 4053,
      "doc": 4054,
      ".Return": 4055,
      "▁7": 4056,
      "▁(interface{},": 4057,
      "arted": 4058,
      "Content-Type": 4059,
      "wise": 4060,
      "▁math": 4061,
      ".Text": 4062,
      "Total": 4063,
      "da": 4064,
      "▁\"S": 4065,
      "(url": 4066,
      "_type": 4067,
      "▁document": 4068,
      "Summary": 4069,
      "▁*B": 4070,
      "▁*gin": 4071,
      "▁condition": 4072,
      "(body": 4073,
      "▁pulumi": 4074,
      "name\"`\n": 4075,
      "scribe": 4076,
      "agement": 4077,
      "rix": 4078,
      "https://": 4079,
      "▁(this": 4080,
      "pond": 4081,
      "writer": 4082,
      "i,": 4083,
      "ove": 4084,
      "PD": 4085,
      "cli": 4086,
      "main": 4087,
      "ers,": 4088,
      "atalog": 4089,
      "▁\t\tt.Error(\"": 4090,
      "buffer": 4091,
      "fs": 4092,
      "▁File": 4093,
      "▁\tmock": 4094,
      "Auto": 4095,
      "▁called": 4096,
      "▁available": 4097,
      "icker": 4098,
      "expect": 4099,
      "porter": 4100,
      ".String(),": 4101,
      "▁Server": 4102,
      "ulate": 4103,
      "plan": 4104,
      "▁Return": 4105,
      "▁len(p": 4106,
      "lemented": 4107,
      "(un": 4108,
      "ons": 4109,
      "Second": 4110,
      "off": 4111,
      "r.": 4112,
      "▁\t\tctx": 4113,
      "Amount": 4114,
      "▁struct{}\n": 4115,
      "▁%v\\n\",": 4116,
      "Gateway": 4117,
      "▁route": 4118,
      "▁aws.": 4119,
      "▁200": 4120,
      "ERROR": 4121,
      "nel": 4122,
      "▁\t\t\t\treturn\n": 4123,
      "2\n": 4124,
      "found": 4125,
      "alk": 4126,
      "voke": 4127,
      "[i": 4128,
      "check": 4129,
      "▁\tRe": 4130,
      "▁\t\tP": 4131,
      "rough": 4132,
      "▁internal": 4133,
      "/h": 4134,
      "Graph": 4135,
      ")),\n": 4136,
      "▁second": 4137,
      "▁bucket": 4138,
      "▁\t\tExpect": 4139,
      "▁\"application": 4140,
      "Sync": 4141,
      "zure": 4142,
      "▁options": 4143,
      "▁description": 4144,
      "▁true)\n": 4145,
      "email": 4146,
      "enant": 4147,
      "ress,": 4148,
      "▁\tassert.NoError(t,": 4149,
      "OL": 4150,
      "head": 4151,
      "Zone": 4152,
      "org": 4153,
      "▁Data": 4154,
      ".Validate": 4155,
      "Certificate": 4156,
      "faces": 4157,
      "location": 4158,
      "d\n": 4159,
      "▁\tfake": 4160,
      "now": 4161,
      "▁device": 4162,
      "▁*cobra.Command,": 4163,
      "',": 4164,
      "s[1]": 4165,
      "▁grpc": 4166,
      "ecret": 4167,
      "EX": 4168,
      "▁Node": 4169,
      "float64": 4170,
      "Cons": 4171,
      "viper": 4172,
      ".Listen": 4173,
      ".Build": 4174,
      "ultiple": 4175,
      "(true": 4176,
      ".Tag": 4177,
      "Params)": 4178,
      "Import": 4179,
      "Window": 4180,
      "v4": 4181,
      "instance": 4182,
      "\",\"": 4183,
      "▁k,": 4184,
      "▁iter": 4185,
      "Packet": 4186,
      "book": 4187,
      "aws/aws-sdk": 4188,
      "func": 4189,
      "socket": 4190,
      "▁St": 4191,
      "▁Request": 4192,
      "grade": 4193,
      "ecutor": 4194,
      "▁indic": 4195,
      "riority": 4196,
      "/api/": 4197,
      "▁Software": 4198,
      "cmd": 4199,
      "iables": 4200,
      "cip": 4201,
      "enerated": 4202,
      "▁provides": 4203,
      "\"},": 4204,
      "lear": 4205,
      "▁An": 4206,
      "Form": 4207,
      "string)": 4208,
      "▁Not": 4209,
      "Char": 4210,
      "Only": 4211,
      "▁ioutil.ReadAll": 4212,
      "Ok": 4213,
      "Member": 4214,
      "▁\t\t\tt.Errorf(\"": 4215,
      "bin": 4216,
      "unable": 4217,
      "▁repository": 4218,
      "▁strings.Join": 4219,
      "Before": 4220,
      "Trace": 4221,
      "▁follow": 4222,
      "voc": 4223,
      "etcd": 4224,
      "loser": 4225,
      ".Deep": 4226,
      "▁struct{}": 4227,
      "Code:": 4228,
      "Encode": 4229,
      "Encoding": 4230,
      "HT": 4231,
      "▁fmt.Sprintf": 4232,
      "actual": 4233,
      ".mu": 4234,
      "Iss": 4235,
      "cache": 4236,
      "Commit": 4237,
      "Im": 4238,
      "omitempty\"`\n": 4239,
      "--------------------------------": 4240,
      "▁\t\"github.com/d": 4241,
      "▁where": 4242,
      "(\"\",": 4243,
      "▁error,": 4244,
      ".Com": 4245,
      "Unlock()\n": 4246,
      "rimary": 4247,
      "s:\n": 4248,
      "iper": 4249,
      "▁color": 4250,
      "fra": 4251,
      "s.P": 4252,
      "Null": 4253,
      "▁Sh": 4254,
      "▁ed": 4255,
      "OK,": 4256,
      "(out": 4257,
      "Document": 4258,
      "(\"test": 4259,
      "Stats": 4260,
      "36": 4261,
      "▁total": 4262,
      "jw": 4263,
      "std": 4264,
      "▁headers": 4265,
      ".Kind": 4266,
      "Db": 4267,
      "ension": 4268,
      "****************": 4269,
      "{Name:": 4270,
      "/common": 4271,
      "Security": 4272,
      "(val": 4273,
      "▁\"n": 4274,
      "on't": 4275,
      "▁search": 4276,
      "(src": 4277,
      "▁exists": 4278,
      "ured": 4279,
      "name=": 4280,
      "bytes,": 4281,
      "▁environment": 4282,
      "▁\t\"math": 4283,
      "Pl": 4284,
      "ually": 4285,
      "▁strings.Has": 4286,
      "toi": 4287,
      "_N": 4288,
      "(token": 4289,
      "Unit": 4290,
      "akes": 4291,
      "Full": 4292,
      "Ind": 4293,
      "▁bool,": 4294,
      "▁uint16": 4295,
      "Par": 4296,
      "▁\tB": 4297,
      "char": 4298,
      ".Index": 4299,
      "Callback": 4300,
      ".Sign": 4301,
      ".Body)\n": 4302,
      "road": 4303,
      "▁support": 4304,
      "▁Time": 4305,
      "Scal": 4306,
      "Release": 4307,
      "▁r)\n": 4308,
      "Encoder": 4309,
      "ether": 4310,
      "ception": 4311,
      "▁\tc.Assert": 4312,
      "▁Package": 4313,
      "(b,": 4314,
      "ancer": 4315,
      "}}\n": 4316,
      "_proto_": 4317,
      "Asset": 4318,
      "▁\"https://": 4319,
      "wd": 4320,
      "▁tc.": 4321,
      "Properties": 4322,
      "pth": 4323,
      "odb": 4324,
      "(type": 4325,
      "verr": 4326,
      "▁ioutil.ReadFile": 4327,
      ")\",": 4328,
      "▁\t\tfmt.Println": 4329,
      "▁false)\n": 4330,
      "*time": 4331,
      "WAR": 4332,
      "▁some": 4333,
      "lone": 4334,
      "▁\tname": 4335,
      "rest": 4336,
      "Parameter": 4337,
      "(app": 4338,
      "Exec": 4339,
      "(param": 4340,
      "Fields": 4341,
      "bidden": 4342,
      "Name\n": 4343,
      "▁stack": 4344,
      "len": 4345,
      "Lock()\n": 4346,
      "oss": 4347,
      "cr": 4348,
      "/n": 4349,
      "teger": 4350,
      "(\"t": 4351,
      "▁raw": 4352,
      "\"})\n": 4353,
      "Of(": 4354,
      "dAt": 4355,
      "gorm": 4356,
      "▁io.": 4357,
      ".ObjectMeta": 4358,
      "):": 4359,
      "repo": 4360,
      "File)\n": 4361,
      "ramework": 4362,
      "UD": 4363,
      ".Block": 4364,
      "FS": 4365,
      "ot.": 4366,
      "▁resources": 4367,
      "NotExist": 4368,
      "▁point": 4369,
      "trace": 4370,
      "▁(bool,": 4371,
      "09": 4372,
      ".From": 4373,
      "Nil)\n": 4374,
      "▁\t\tlog.Fatal(err)\n": 4375,
      "▁.": 4376,
      "▁)": 4377,
      "▁0,\n": 4378,
      "================": 4379,
      ".Hash": 4380,
      "▁strfmt.Registry)": 4381,
      "▁9": 4382,
      "kubernetes": 4383,
      "▁&s": 4384,
      "ged": 4385,
      "▁\tq": 4386,
      "▁\tassert": 4387,
      "().Get": 4388,
      ".Atoi": 4389,
      "_at": 4390,
      "▁\tconn": 4391,
      "bs": 4392,
      "pre": 4393,
      "▁(i": 4394,
      "Binding": 4395,
      ".Warn": 4396,
      "files": 4397,
      "▁+\n": 4398,
      "▁remote": 4399,
      "Lower": 4400,
      "Plan": 4401,
      "▁int64)": 4402,
      "-d": 4403,
      "39": 4404,
      "eeper": 4405,
      "(name,": 4406,
      "iag": 4407,
      "runtime\"\n": 4408,
      "▁messages": 4409,
      "][": 4410,
      "wap": 4411,
      "▁form": 4412,
      "over": 4413,
      "Use:": 4414,
      "help": 4415,
      "reflect\"\n": 4416,
      "▁\tid": 4417,
      "▁b.": 4418,
      "lers": 4419,
      "ym": 4420,
      ",omitempty\"": 4421,
      "▁strconv.Parse": 4422,
      "(HaveOccurred())\n": 4423,
      "uint": 4424,
      "▁bson": 4425,
      "▁strconv.Atoi": 4426,
      "▁nodes": 4427,
      "▁params": 4428,
      "Property": 4429,
      "Tags": 4430,
      ".Header()": 4431,
      ".Debug(\"": 4432,
      "ctl": 4433,
      "▁syscall": 4434,
      "AME": 4435,
      "▁\t\t\tvar": 4436,
      "ular": 4437,
      "▁\trequest": 4438,
      "▁Register": 4439,
      "Generator": 4440,
      "cce": 4441,
      ".NewReader": 4442,
      "▁result\n": 4443,
      "obra.Command{\n": 4444,
      "Term": 4445,
      "tle": 4446,
      "Backend": 4447,
      "options.": 4448,
      "▁\\\"": 4449,
      "▁rule": 4450,
      "could": 4451,
      "▁\"2": 4452,
      "ished": 4453,
      "▁We": 4454,
      "▁\"g": 4455,
      "Writer)": 4456,
      "▁zero": 4457,
      "safe.Pointer": 4458,
      ".Conn": 4459,
      "▁\tType": 4460,
      "▁*d": 4461,
      "▁example": 4462,
      "/logrus": 4463,
      "cos": 4464,
      "So": 4465,
      "onth": 4466,
      "▁\t\"github.com/m": 4467,
      ".Exec": 4468,
      "regexp": 4469,
      "(err.Error())\n": 4470,
      "enchmark": 4471,
      "role": 4472,
      "-9": 4473,
      "card": 4474,
      "▁v\n": 4475,
      "es:": 4476,
      "▁module": 4477,
      "▁Open": 4478,
      "dates": 4479,
      "▁\tID": 4480,
      "▁1,\n": 4481,
      "▁application": 4482,
      "eg": 4483,
      "CR": 4484,
      "(node": 4485,
      "▁\"failed": 4486,
      "▁single": 4487,
      ".Item": 4488,
      "▁2020": 4489,
      "(res": 4490,
      "▁\texpected": 4491,
      "▁sm": 4492,
      "▁xml": 4493,
      "Sort": 4494,
      "▁\t\thttp": 4495,
      "▁\"foo": 4496,
      "Comment": 4497,
      "▁time.Now()\n": 4498,
      "_B": 4499,
      "▁context.With": 4500,
      "bose": 4501,
      "▁\t\t\tt.Fatal": 4502,
      "03": 4503,
      "reshold": 4504,
      "▁associ": 4505,
      "▁\t\tname": 4506,
      ".Post": 4507,
      "k8s.io": 4508,
      "ifact": 4509,
      "Wrapper": 4510,
      "▁prev": 4511,
      "GET\",": 4512,
      "Short:": 4513,
      "Compile": 4514,
      ".html": 4515,
      "KEY": 4516,
      "pack": 4517,
      "actor": 4518,
      "aded": 4519,
      "cons": 4520,
      "irups": 4521,
      "irupsen": 4522,
      "ayer": 4523,
      "irupsen/logrus": 4524,
      "▁\t\t)\n": 4525,
      ".Cluster": 4526,
      "▁%s:": 4527,
      "▁\t\te": 4528,
      "▁\t\t\t\t\t\"": 4529,
      "Response(response": 4530,
      ".Reg": 4531,
      "crypt": 4532,
      "▁fmt.Errorf(\"failed": 4533,
      "/lib": 4534,
      "▁rand": 4535,
      "V2": 4536,
      "▁name)\n": 4537,
      "Signal": 4538,
      "▁&cobra.Command{\n": 4539,
      "w,": 4540,
      "▁running": 4541,
      "▁old": 4542,
      "▁existing": 4543,
      "▁offset": 4544,
      "[j": 4545,
      ".Pod": 4546,
      "▁governed": 4547,
      "▁system": 4548,
      "▁cur": 4549,
      "Id)\n": 4550,
      "Description:": 4551,
      "▁\t\tdata": 4552,
      "▁\"D": 4553,
      "Config\n": 4554,
      "▁parameters": 4555,
      "er:": 4556,
      "tempt": 4557,
      "▁\tUser": 4558,
      "-go-": 4559,
      "aced": 4560,
      "anged": 4561,
      "tegration": 4562,
      "Scan": 4563,
      "▁%s,": 4564,
      "Snapshot": 4565,
      "num": 4566,
      "▁change": 4567,
      "straint": 4568,
      "▁\t\"go.": 4569,
      "ount.": 4570,
      ".String()": 4571,
      "024": 4572,
      "irupsen/logrus\"\n": 4573,
      "interface": 4574,
      "▁&http": 4575,
      "VM": 4576,
      "backend": 4577,
      "FA": 4578,
      "▁uuid": 4579,
      ".de": 4580,
      "▁srv": 4581,
      "▁`json:\"p": 4582,
      "ven": 4583,
      "▁hold": 4584,
      "Each": 4585,
      "irm": 4586,
      "▁parameter": 4587,
      "We": 4588,
      "apac": 4589,
      "Equal(": 4590,
      "▁\t\"github.com/aws/aws-sdk": 4591,
      "kg/errors\"\n": 4592,
      "▁\ti": 4593,
      "▁o.": 4594,
      "interface{})\n": 4595,
      "registry": 4596,
      "rib": 4597,
      "▁entity": 4598,
      "▁fn": 4599,
      "▁\t\tgo": 4600,
      "img": 4601,
      "▁*testing.T,": 4602,
      "▁%+v\",": 4603,
      "rypted": 4604,
      "Random": 4605,
      "▁Status": 4606,
      "▁\tmetav1": 4607,
      "Flags": 4608,
      "mega": 4609,
      "▁author": 4610,
      "▁decode": 4611,
      "Parameters": 4612,
      "Machine": 4613,
      "esis": 4614,
      "services": 4615,
      "▁Send": 4616,
      "After": 4617,
      "oord": 4618,
      "_message": 4619,
      "rpc": 4620,
      "riter": 4621,
      "▁\t\t\t\t\t},\n": 4622,
      "Response\n": 4623,
      "Helper": 4624,
      "Driver": 4625,
      "▁resol": 4626,
      "name)\n": 4627,
      "▁interface{}\n": 4628,
      "(obj": 4629,
      "lin": 4630,
      "istration": 4631,
      "▁backend": 4632,
      "uuid": 4633,
      "active": 4634,
      "▁\tpro": 4635,
      "▁\tcfg": 4636,
      ".Auth": 4637,
      "O_": 4638,
      "ithm": 4639,
      "kit": 4640,
      "/types\"\n": 4641,
      "▁\t\t\t\t\tif": 4642,
      ".Stop": 4643,
      "▁10,": 4644,
      "Value,": 4645,
      "▁FROM": 4646,
      "▁bec": 4647,
      "Subscription": 4648,
      "Expr": 4649,
      ".Debugf(\"": 4650,
      "▁o.Payload": 4651,
      "▁strconv.Itoa": 4652,
      "s\":": 4653,
      "▁\t\t\t\tb": 4654,
      ".Execute": 4655,
      "CL": 4656,
      "▁\t\"github.com/k": 4657,
      "Help": 4658,
      "Mapping": 4659,
      "(\"m": 4660,
      "lug": 4661,
      "▁0x6f,": 4662,
      "0)\n": 4663,
      "aemon": 4664,
      "▁remo": 4665,
      "▁\t\tclient": 4666,
      "URL,": 4667,
      ".Image": 4668,
      "valu": 4669,
      "apacity": 4670,
      "once": 4671,
      ".Print": 4672,
      "Engine": 4673,
      "anaged": 4674,
      "wrap": 4675,
      "ront": 4676,
      "(result": 4677,
      "kt": 4678,
      "List,": 4679,
      "(filepath": 4680,
      "Redis": 4681,
      ".Match": 4682,
      "▁role": 4683,
      "required": 4684,
      "▁\t\"github.com/pkg/errors\"\n": 4685,
      "▁Sub": 4686,
      "▁uint8": 4687,
      ".WriteString(\"": 4688,
      "Remote": 4689,
      "Type\n": 4690,
      "▁temp": 4691,
      "2.": 4692,
      "▁chain": 4693,
      "Iterator": 4694,
      "ByID": 4695,
      "_test\n": 4696,
      "▁fetch": 4697,
      "iffer": 4698,
      "▁\t\tlog.Printf(\"": 4699,
      "erify": 4700,
      "Reply": 4701,
      "▁\tc.": 4702,
      "Git": 4703,
      "v3": 4704,
      ".Label": 4705,
      "source": 4706,
      "ily": 4707,
      "▁Te": 4708,
      "atrix": 4709,
      "▁public": 4710,
      "▁aut": 4711,
      "Errorf": 4712,
      "Name()": 4713,
      "-st": 4714,
      "▁\t}\r\n": 4715,
      "(dir": 4716,
      "pr": 4717,
      ".Serve": 4718,
      "etwe": 4719,
      "▁pas": 4720,
      "Temp": 4721,
      "ead": 4722,
      "ving": 4723,
      ".Comm": 4724,
      "><": 4725,
      "wall": 4726,
      "oml": 4727,
      ".RUnlock()\n": 4728,
      ".Address": 4729,
      "▁2019": 4730,
      "08": 4731,
      "Span": 4732,
      "Cre": 4733,
      "▁pool": 4734,
      "ollection": 4735,
      "▁\tStatus": 4736,
      "▁tool": 4737,
      ".Len": 4738,
      "Game": 4739,
      "▁\tserver": 4740,
      "▁As": 4741,
      "enter": 4742,
      "▁detail": 4743,
      "▁v.": 4744,
      "▁git": 4745,
      ".Has": 4746,
      "ins": 4747,
      "E:": 4748,
      "secure": 4749,
      "▁(g": 4750,
      "olean": 4751,
      "-f": 4752,
      ";\n": 4753,
      "DS": 4754,
      "Global": 4755,
      "Parser": 4756,
      "param": 4757,
      "▁\tapi": 4758,
      "▁http.NewRequest": 4759,
      "▁defines": 4760,
      "-01": 4761,
      "id\"`\n": 4762,
      "m.": 4763,
      "▁see": 4764,
      "flag\"\n": 4765,
      ".MustCompile": 4766,
      "print": 4767,
      "▁\t\tassert.Equal(t,": 4768,
      "▁\t\"k8s.io/apimachinery/pkg/": 4769,
      "Idx": 4770,
      "(field": 4771,
      "▁DB": 4772,
      "hello": 4773,
      "Track": 4774,
      "ducer": 4775,
      "▁dest": 4776,
      "%s]": 4777,
      "▁command\n": 4778,
      "(path,": 4779,
      "▁otherwise": 4780,
      "POST": 4781,
      ".Port": 4782,
      "(strings.": 4783,
      "Price": 4784,
      "dc": 4785,
      "olum": 4786,
      "AWS": 4787,
      "▁setup": 4788,
      "beat": 4789,
      "▁X": 4790,
      "uri": 4791,
      "▁`json:\"m": 4792,
      "▁gin": 4793,
      "ByName": 4794,
      "Items": 4795,
      "▁*models.": 4796,
      "▁variable": 4797,
      "util\"\n": 4798,
      "Attribute": 4799,
      "▁%q\",": 4800,
      "cosmo": 4801,
      "Active": 4802,
      "tachment": 4803,
      "_f": 4804,
      "ycle": 4805,
      "allel": 4806,
      "adline": 4807,
      "ection": 4808,
      "▁gets": 4809,
      "mbed": 4810,
      "onsi/": 4811,
      ".Le": 4812,
      "Metrics": 4813,
      "▁\troot": 4814,
      "hell": 4815,
      "▁client\n": 4816,
      ".Values": 4817,
      "strap": 4818,
      ".Expect": 4819,
      "auge": 4820,
      "▁\"--": 4821,
      "connection": 4822,
      "openapi/": 4823,
      "Verify": 4824,
      "sha": 4825,
      "(type)": 4826,
      "Mark": 4827,
      ".Store": 4828,
      "▁fields": 4829,
      "Bytes,": 4830,
      "ilters": 4831,
      ".WriteHeader(http.Status": 4832,
      "▁*gin.Context)": 4833,
      "\"]\n": 4834,
      "acer": 4835,
      "1234": 4836,
      "domain": 4837,
      "username": 4838,
      "ites": 4839,
      "▁\t\"golang.org/": 4840,
      "▁[]string{": 4841,
      ".Open": 4842,
      "\").\n": 4843,
      "▁0x65,": 4844,
      "options": 4845,
      "▁float32": 4846,
      "▁*t": 4847,
      "▁15": 4848,
      "▁map[string]string{\n": 4849,
      "▁about": 4850,
      "ope": 4851,
      "▁\t\t\texpected": 4852,
      "▁nil,\n": 4853,
      "▁\t\"net\"\n": 4854,
      "▁non-": 4855,
      "bool": 4856,
      "▁\t\"github.com/c": 4857,
      "▁reflect.Value": 4858,
      "Permission": 4859,
      "▁ar": 4860,
      "▁\t\tconfig": 4861,
      "▁16": 4862,
      "▁...string)": 4863,
      "%s/": 4864,
      "MS": 4865,
      "stop": 4866,
      "▁Remove": 4867,
      ".json": 4868,
      "Bit": 4869,
      "▁lock": 4870,
      "▁Handle": 4871,
      "Branch": 4872,
      "ali": 4873,
      "▁\t\t\t\tType:": 4874,
      "▁iss": 4875,
      "redis": 4876,
      "17": 4877,
      "Socket": 4878,
      "Rules": 4879,
      "▁failed:": 4880,
      "▁policy": 4881,
      "ese": 4882,
      "▁*T": 4883,
      "▁random": 4884,
      "▁name\n": 4885,
      "####": 4886,
      "Peer": 4887,
      "▁\"w": 4888,
      "(c)\n": 4889,
      "Signature": 4890,
      "/src": 4891,
      "1]\n": 4892,
      "Retry": 4893,
      "TR": 4894,
      "Failure": 4895,
      "[0]\n": 4896,
      "▁\t\"reflect\"\n": 4897,
      ".Map": 4898,
      "▁Example": 4899,
      "____": 4900,
      "▁map[string]interface{}{\n": 4901,
      "gorithm": 4902,
      "Width": 4903,
      "sdk": 4904,
      "health": 4905,
      ".RLock()\n": 4906,
      "/cobra": 4907,
      "▁filename": 4908,
      "unch": 4909,
      "(message": 4910,
      "▁determ": 4911,
      "Public": 4912,
      "▁\"error": 4913,
      "▁a.": 4914,
      "(filename": 4915,
      "%s)": 4916,
      "df": 4917,
      "ITY": 4918,
      "Details": 4919,
      "▁Value": 4920,
      "▁func(ctx": 4921,
      "oth": 4922,
      "clud": 4923,
      "▁...\n": 4924,
      "▁\t\t\tw": 4925,
      "▁Query": 4926,
      "sumer,": 4927,
      "(4": 4928,
      ".Session": 4929,
      "Lookup": 4930,
      "EB": 4931,
      "▁//\t\t": 4932,
      "Key)\n": 4933,
      "ummy": 4934,
      "▁correct": 4935,
      "Skip": 4936,
      "▁\t\t\t\tcontinue\n": 4937,
      "Forbidden": 4938,
      "Assign": 4939,
      "c.\n": 4940,
      "▁t.": 4941,
      "Type)": 4942,
      "▁def": 4943,
      "(context.TODO": 4944,
      "26": 4945,
      "Cancel": 4946,
      "▁\tsc": 4947,
      "plicas": 4948,
      "▁values\n": 4949,
      "▁opts.": 4950,
      "Dial": 4951,
      ".Output": 4952,
      "([]string": 4953,
      "▁\ttype": 4954,
      "▁\t\t\tr": 4955,
      "uted": 4956,
      "▁{}\n": 4957,
      "54": 4958,
      "▁\tch": 4959,
      "▁to\n": 4960,
      "▁[]string{\n": 4961,
      "▁logging": 4962,
      "sched": 4963,
      "▁unmarshal": 4964,
      "▁0x74,": 4965,
      "etween": 4966,
      "/cobra\"\n": 4967,
      "▁io.Reader": 4968,
      "▁topic": 4969,
      "▁\t\tC": 4970,
      "irection": 4971,
      ".HandleFunc(\"/": 4972,
      "sert.": 4973,
      "(s)\n": 4974,
      ".WriteString": 4975,
      "Operator": 4976,
      "size": 4977,
      "▁\tpath": 4978,
      "▁column": 4979,
      "▁bit": 4980,
      ".Be": 4981,
      "▁location": 4982,
      "concile": 4983,
      "-\"`\n": 4984,
      "Word": 4985,
      "Ready": 4986,
      "▁Error()": 4987,
      "▁Trans": 4988,
      "UUID": 4989,
      "▁cannot": 4990,
      "▁pass": 4991,
      "▁Do": 4992,
      "Option)": 4993,
      "(nil,": 4994,
      "37": 4995,
      "a.": 4996,
      "context.": 4997,
      "▁debug": 4998,
      "▁fmt.Sprintf(\"%s": 4999,
      "GB": 5000,
      "lash": 5001,
      "mock": 5002,
      "Collector": 5003,
      "Alert": 5004,
      "block": 5005,
      "patch": 5006,
      "().\n": 5007,
      "(os.Stderr,": 5008,
      "▁regexp.MustCompile": 5009,
      "▁because": 5010,
      "YP": 5011,
      "▁\"+": 5012,
      "control": 5013,
      "(req)\n": 5014,
      "[]byte": 5015,
      "ackages": 5016,
      ".Mutex": 5017,
      "Hook": 5018,
      "rid": 5019,
      "▁associated": 5020,
      "▁(u": 5021,
      "Response)": 5022,
      ".GET": 5023,
      "rag": 5024,
      "▁tc": 5025,
      "▁tmp": 5026,
      "chedul": 5027,
      "▁graph": 5028,
      "/api": 5029,
      "p,": 5030,
      "ions": 5031,
      "▁des": 5032,
      "▁rest": 5033,
      "ayout": 5034,
      "▁\t\"github.com/spf13/cobra\"\n": 5035,
      ".Write([]byte": 5036,
      "Manager)": 5037,
      "acing": 5038,
      "enerator": 5039,
      "▁make([]string,": 5040,
      "Gen": 5041,
      "▁\t\t\twant": 5042,
      "▁exit": 5043,
      ".StringVar(&": 5044,
      "▁cmd\n": 5045,
      "(map[": 5046,
      "▁Find": 5047,
      "▁\ttoken": 5048,
      "▁doesn't": 5049,
      "database": 5050,
      ".API": 5051,
      "Namespace:": 5052,
      "▁2021": 5053,
      "(r)\n": 5054,
      "roadcast": 5055,
      "(str": 5056,
      "86": 5057,
      "aking": 5058,
      "Status:": 5059,
      "▁creating": 5060,
      "Usage:": 5061,
      "▁done": 5062,
      "▁Describe": 5063,
      "▁org": 5064,
      "Script": 5065,
      "▁\t\tlog.Fatalf(\"": 5066,
      ".Y": 5067,
      "FC": 5068,
      "▁\t\t\t\tExpect": 5069,
      "▁v,": 5070,
      "Frame": 5071,
      "acter": 5072,
      "▁assign": 5073,
      "Suite)": 5074,
      "Runner": 5075,
      "▁})\n": 5076,
      "Client\n": 5077,
      "8s": 5078,
      "Hand": 5079,
      "Runtime": 5080,
      "/proto": 5081,
      "Render": 5082,
      "▁self": 5083,
      "Buf": 5084,
      ".\",": 5085,
      "ude": 5086,
      "▁global": 5087,
      "ferenc": 5088,
      "▁result,": 5089,
      "▁parent": 5090,
      "▁listen": 5091,
      "ynamic": 5092,
      "v,": 5093,
      ".Dial": 5094,
      "Info)": 5095,
      "▁\tmsg": 5096,
      "Timeout:": 5097,
      "(t.": 5098,
      "TER": 5099,
      "▁(int,": 5100,
      "udit": 5101,
      "▁json.New": 5102,
      "amb": 5103,
      "/client-go/": 5104,
      "uring": 5105,
      "ELET": 5106,
      "▁supported": 5107,
      "▁\t\"github.com/b": 5108,
      "posal": 5109,
      "▁writer": 5110,
      "-t": 5111,
      "SL": 5112,
      "▁httptest": 5113,
      "Events": 5114,
      "(key,": 5115,
      "▁Build": 5116,
      "▁assert.": 5117,
      "▁following": 5118,
      "Down": 5119,
      "Scheme": 5120,
      "ross": 5121,
      "▁0xff": 5122,
      "Authorization": 5123,
      "Multi": 5124,
      "case": 5125,
      "dn": 5126,
      "▁2\n": 5127,
      "▁keys": 5128,
      "▁\tassert.Nil(t,": 5129,
      "Message:": 5130,
      "txt": 5131,
      ".NotTo": 5132,
      "/x": 5133,
      "▁\"k8s.io/apimachinery/pkg/": 5134,
      "imes": 5135,
      "▁timestamp": 5136,
      "False": 5137,
      "_key": 5138,
      "eo": 5139,
      "▁\trouter": 5140,
      "▁Dis": 5141,
      "body": 5142,
      "▁ren": 5143,
      "▁gen": 5144,
      "00)\n": 5145,
      "Disk": 5146,
      "▁http.StatusInternalServerError": 5147,
      "/url": 5148,
      "component": 5149,
      "allback": 5150,
      ".EOF": 5151,
      "Notification": 5152,
      "(\"s": 5153,
      "thing": 5154,
      "▁based": 5155,
      "▁\treq,": 5156,
      "Current": 5157,
      "▁again": 5158,
      "▁schema.Type": 5159,
      "Room": 5160,
      "▁Res": 5161,
      "▁\t\tk": 5162,
      "abc": 5163,
      "WithContext": 5164,
      ".Body.Close()\n": 5165,
      "Balance": 5166,
      ".db": 5167,
      "▁\"re": 5168,
      "peer": 5169,
      "▁v)\n": 5170,
      ".Scan": 5171,
      "▁Make": 5172,
      "▁id,": 5173,
      "igrate": 5174,
      ".After": 5175,
      "offset": 5176,
      "▁\t\t\t\t}": 5177,
      "XPECT": 5178,
      "TO": 5179,
      "Pattern": 5180,
      ".Table": 5181,
      "▁defined": 5182,
      "3\n": 5183,
      "▁dst": 5184,
      "06": 5185,
      "Hub": 5186,
      "▁whether": 5187,
      "▁received": 5188,
      ".ID,": 5189,
      "/l": 5190,
      "▁func(cmd": 5191,
      "idx": 5192,
      "zz": 5193,
      "ors": 5194,
      "orout": 5195,
      "▁func(c": 5196,
      "▁[]string,": 5197,
      "Origin": 5198,
      "(tx": 5199,
      "▁kind": 5200,
      "Node)": 5201,
      "vey(\"": 5202,
      "/w": 5203,
      "▁Auth": 5204,
      "Opts": 5205,
      "First": 5206,
      "▁parser": 5207,
      "Strategy": 5208,
      "Config:": 5209,
      "▁\tbody": 5210,
      "Basic": 5211,
      "sv": 5212,
      "▁\"k8s.io/": 5213,
      "acc": 5214,
      "▁errors": 5215,
      "ToString": 5216,
      "▁collection": 5217,
      "IR": 5218,
      "Keys": 5219,
      "Content-Type\",": 5220,
      "▁\"application/json": 5221,
      "VER": 5222,
      "▁\"M": 5223,
      ".Action": 5224,
      "▁flag.String(\"": 5225,
      "localhost:": 5226,
      "▁null": 5227,
      "Execution": 5228,
      "▁trace": 5229,
      "setting": 5230,
      "fully": 5231,
      "paces": 5232,
      "olt": 5233,
      "Name)": 5234,
      "▁structure": 5235,
      "▁tree": 5236,
      "Request{\n": 5237,
      "▁context.Background": 5238,
      "▁io.EOF": 5239,
      "▁\trequire.Equal(t,": 5240,
      "ME": 5241,
      "unexpected": 5242,
      "Fields(": 5243,
      ".Any": 5244,
      "▁\tlist": 5245,
      "▁*f": 5246,
      "▁also": 5247,
      "▁\t/*": 5248,
      "edia": 5249,
      ".Dir": 5250,
      "Select": 5251,
      "Middleware(stack": 5252,
      ".Source": 5253,
      "Lister": 5254,
      "▁certificate": 5255,
      "▁\t\"github.com/t": 5256,
      "▁helper": 5257,
      "Pub": 5258,
      "blem": 5259,
      "igs.": 5260,
      "▁\tassert.Not": 5261,
      "AndServe": 5262,
      ".Status.": 5263,
      "▁Al": 5264,
      "Type)\n": 5265,
      "▁just": 5266,
      ".value": 5267,
      "▁direct": 5268,
      "ToLower": 5269,
      "Controller)": 5270,
      "Instances": 5271,
      "▁&p": 5272,
      "debug": 5273,
      "▁\t\"google.golang.org/": 5274,
      "▁\"github.com/onsi/": 5275,
      "▁AND": 5276,
      "Scope": 5277,
      "▁\t\tos.Exit(1)\n": 5278,
      "▁\"0": 5279,
      "▁\t\"g": 5280,
      "Contract": 5281,
      "ponses": 5282,
      "(r,": 5283,
      "Store)": 5284,
      "s,omitempty\"`\n": 5285,
      "_messageInfo": 5286,
      "alance": 5287,
      "UTC": 5288,
      "Team": 5289,
      "▁panic": 5290,
      "▁packet": 5291,
      "▁\t\t\t\tp": 5292,
      "▁make(map[": 5293,
      "T,": 5294,
      "fact": 5295,
      "structured": 5296,
      "Monitor": 5297,
      "ic/": 5298,
      "v1beta1": 5299,
      ".ID)\n": 5300,
      "(line": 5301,
      "AA": 5302,
      "ights": 5303,
      "ryption": 5304,
      "▁while": 5305,
      "k8s.io/client-go/": 5306,
      "Fin": 5307,
      "atures": 5308,
      ")}\n": 5309,
      "58": 5310,
      "unknown": 5311,
      ".Container": 5312,
      "description": 5313,
      "▁driver": 5314,
      "▁Post": 5315,
      "Watch": 5316,
      "kdir": 5317,
      "ores": 5318,
      "▁credential": 5319,
      "▁len(c": 5320,
      "▁3,": 5321,
      "▁commit": 5322,
      "(event": 5323,
      "uer": 5324,
      "▁\trun": 5325,
      "(data,": 5326,
      ".Context,": 5327,
      "bac": 5328,
      "v6": 5329,
      "▁don't": 5330,
      "pn": 5331,
      "attr": 5332,
      "aly": 5333,
      "▁our": 5334,
      "do": 5335,
      "id)\n": 5336,
      "▁doc": 5337,
      "(0,": 5338,
      "▁\tres,": 5339,
      "(false": 5340,
      "(i,": 5341,
      "OFT": 5342,
      "DNS": 5343,
      "▁32": 5344,
      "ota": 5345,
      "otes": 5346,
      "▁expect": 5347,
      "wn": 5348,
      "▁release": 5349,
      "▁unique": 5350,
      "Data:": 5351,
      "Allowed": 5352,
      "/url\"\n": 5353,
      "0]\n": 5354,
      "_F": 5355,
      "▁diff": 5356,
      "viders": 5357,
      "Me": 5358,
      "1.": 5359,
      "lines": 5360,
      "▁kube": 5361,
      "/meta": 5362,
      "▁2018": 5363,
      "▁Mock": 5364,
      "asset": 5365,
      "▁updated": 5366,
      "▁AWS": 5367,
      "Ext": 5368,
      "▁strings.Replace": 5369,
      "acy": 5370,
      "(th": 5371,
      "▁email": 5372,
      "List)": 5373,
      "ceptor": 5374,
      "▁\t\t\tpanic": 5375,
      "iate": 5376,
      "▁date": 5377,
      ".New()\n": 5378,
      "▁params.": 5379,
      "Resolve": 5380,
      "%s:": 5381,
      "olution": 5382,
      "▁Generate": 5383,
      "▁\t\"os/": 5384,
      "▁*config": 5385,
      "Type()": 5386,
      "▁properties": 5387,
      ")),": 5388,
      "verity": 5389,
      "(m)\n": 5390,
      "ixt": 5391,
      "▁\t\tt.Run": 5392,
      "▁exec.Command": 5393,
      "r)\n": 5394,
      "supported": 5395,
      "▁\t\"flag\"\n": 5396,
      "WARE": 5397,
      "▁deployment": 5398,
      "Day": 5399,
      "uplic": 5400,
      "Cmd.Flags()": 5401,
      "▁registry": 5402,
      "▁float64\n": 5403,
      "uper": 5404,
      "Extension": 5405,
      "olicies": 5406,
      "▁pkg": 5407,
      ".Or": 5408,
      "▁config\n": 5409,
      "▁\t\tdefault:\n": 5410,
      "OFTWARE": 5411,
      "spec": 5412,
      "stroy": 5413,
      "s.Add": 5414,
      "pper": 5415,
      "▁\"http://": 5416,
      "ithy": 5417,
      "▁reader": 5418,
      ".Append": 5419,
      "handler": 5420,
      "Request,": 5421,
      "▁make([]*": 5422,
      "Assert": 5423,
      "▁implementation": 5424,
      "/rand": 5425,
      "▁two": 5426,
      "ifies": 5427,
      "▁differ": 5428,
      "poch": 5429,
      "(model": 5430,
      "Position": 5431,
      "▁proxy": 5432,
      "(addr": 5433,
      "▁t,": 5434,
      "Error\n": 5435,
      "estination": 5436,
      "▁protoimpl": 5437,
      ".Schema": 5438,
      "Pass": 5439,
      "vers": 5440,
      "▁No": 5441,
      "▁os.Stat": 5442,
      "SEL": 5443,
      "▁\t\t\tassert.": 5444,
      "▁\":": 5445,
      "▁Com": 5446,
      "▁->": 5447,
      "Size:": 5448,
      "enu": 5449,
      "Def": 5450,
      "position": 5451,
      "Into": 5452,
      "▁At": 5453,
      "▁\tdefault": 5454,
      "player": 5455,
      "max": 5456,
      "▁XXX": 5457,
      "ouse": 5458,
      "ORT": 5459,
      "Messages": 5460,
      "cluster": 5461,
      "▁*types": 5462,
      "Error)": 5463,
      "▁strings.TrimSpace": 5464,
      "cfg": 5465,
      "zero": 5466,
      "▁a\n": 5467,
      "Allow": 5468,
      "(5": 5469,
      "7.0.0": 5470,
      "bound": 5471,
      "metric": 5472,
      "▁mark": 5473,
      "AML": 5474,
      "Period": 5475,
      "sn": 5476,
      "▁\tjson": 5477,
      "▁SOFTWARE": 5478,
      "▁\tcheck": 5479,
      "timestamp": 5480,
      "▁hex": 5481,
      "memory": 5482,
      "Common": 5483,
      "▁memory": 5484,
      "▁marshal": 5485,
      "▁\t\t\t\terr": 5486,
      "Services": 5487,
      "▁echo": 5488,
      ".NewBuffer": 5489,
      "▁strings.HasPrefix": 5490,
      "▁peer": 5491,
      "▁component": 5492,
      ".config": 5493,
      ".Use": 5494,
      "MP": 5495,
      "▁\tL": 5496,
      "alt": 5497,
      "▁step": 5498,
      "aws.": 5499,
      ".mock": 5500,
      "123": 5501,
      "89": 5502,
      "Wh": 5503,
      "ru": 5504,
      "▁\tlog.Printf(\"": 5505,
      "▁them": 5506,
      "Balancer": 5507,
      "paced": 5508,
      "▁they": 5509,
      "▁[]interface{}": 5510,
      "▁kv": 5511,
      "bytes.Buffer": 5512,
      "http://": 5513,
      "▁uint64\n": 5514,
      "(se": 5515,
      "/service": 5516,
      "current": 5517,
      "▁\"\\n": 5518,
      "▁volume": 5519,
      "gomega": 5520,
      "Variable": 5521,
      "region": 5522,
      "▁\t\tpanic(\"": 5523,
      "asure": 5524,
      "/sql": 5525,
      "Vis": 5526,
      "Reason": 5527,
      ".Task": 5528,
      "rompt": 5529,
      "(data)\n": 5530,
      "▁bytes.Buffer": 5531,
      "▁pr": 5532,
      "▁\t\"net/url\"\n": 5533,
      "ideo": 5534,
      "▁report": 5535,
      "▁2)\n": 5536,
      "▁time.Millisecond": 5537,
      "ensor": 5538,
      "▁time.Time\n": 5539,
      "▁member": 5540,
      ".logger": 5541,
      ".Copy": 5542,
      "▁Inc.\n": 5543,
      "Manifest": 5544,
      "(j": 5545,
      "WT": 5546,
      "id\",": 5547,
      "amily": 5548,
      "▁let": 5549,
      ".Network": 5550,
      "▁acc": 5551,
      "script": 5552,
      ".Minute": 5553,
      "▁test.": 5554,
      "('": 5555,
      "(int": 5556,
      "Find": 5557,
      ".Password": 5558,
      ".Metric": 5559,
      "▁\tdata,": 5560,
      "UG": 5561,
      "▁full": 5562,
      "encies": 5563,
      "▁pulumi.String": 5564,
      "arb": 5565,
      "commit": 5566,
      "Error:": 5567,
      "▁\t\tt.Fatal(\"": 5568,
      "2:": 5569,
      "name\",": 5570,
      "Listen": 5571,
      "lux": 5572,
      "register": 5573,
      "▁\"The": 5574,
      "▁Max": 5575,
      ".HTTP": 5576,
      "▁uintptr": 5577,
      "35": 5578,
      "bar": 5579,
      "(\"GET\",": 5580,
      "▁manager": 5581,
      "▁!strings.": 5582,
      "▁try": 5583,
      "contain": 5584,
      "lemetry": 5585,
      ".(string)\n": 5586,
      "Err:": 5587,
      "▁Token": 5588,
      "URL:": 5589,
      "▁data\n": 5590,
      "▁os.Open": 5591,
      "ELETE": 5592,
      "▁every": 5593,
      "▁like": 5594,
      "andid": 5595,
      "▁Or": 5596,
      "Contact": 5597,
      "/rand\"\n": 5598,
      "ape": 5599,
      "▁present": 5600,
      "▁construct": 5601,
      ".Elem": 5602,
      "Timer": 5603,
      "Accept": 5604,
      ")(nil": 5605,
      "▁\t\t\t\tName:": 5606,
      "▁loop": 5607,
      "fl": 5608,
      "f(err,": 5609,
      "ignal": 5610,
      "▁services": 5611,
      "**\n": 5612,
      "▁\toutput": 5613,
      "▁mux": 5614,
      "opkg": 5615,
      "▁Test_": 5616,
      "Could": 5617,
      "▁\t\tkey": 5618,
      "utton": 5619,
      ".Client\n": 5620,
      "Options{\n": 5621,
      "(context.TODO(),": 5622,
      "Print": 5623,
      "▁region": 5624,
      "Hello": 5625,
      "▁passed": 5626,
      "-1]": 5627,
      "ose": 5628,
      "▁viper": 5629,
      "ives": 5630,
      "▁it's": 5631,
      "▁holds": 5632,
      "▁context.Background()\n": 5633,
      "▁between": 5634,
      "▁reference": 5635,
      "▁\tvalue": 5636,
      "comment": 5637,
      ".WaitGroup": 5638,
      "/app": 5639,
      "[key": 5640,
      "▁big": 5641,
      "ashboard": 5642,
      "▁status.": 5643,
      "sl": 5644,
      ".Al": 5645,
      "Unable": 5646,
      "(float64": 5647,
      ".Error(err)\n": 5648,
      "▁checks": 5649,
      "▁e.": 5650,
      "iction": 5651,
      "▁\t{\n": 5652,
      "▁\t\t\tn": 5653,
      "True(t,": 5654,
      "▁\tthis.": 5655,
      "▁&v": 5656,
      ".Name,\n": 5657,
      "▁username": 5658,
      ".Done()\n": 5659,
      "opkg.in": 5660,
      "empty": 5661,
      "▁github": 5662,
      "ID)": 5663,
      "▁render": 5664,
      "ov": 5665,
      "▁pointer": 5666,
      "ely": 5667,
      "(payload": 5668,
      "▁params\n": 5669,
      "▁}}": 5670,
      "ABLE": 5671,
      "ed.": 5672,
      "▁down": 5673,
      "▁OT": 5674,
      "Each(func()": 5675,
      "0.": 5676,
      "▁\\": 5677,
      "▁private": 5678,
      "ixed": 5679,
      "(bytes": 5680,
      "▁\t\tin": 5681,
      "ext.": 5682,
      ".Secret": 5683,
      "lusters": 5684,
      "condition": 5685,
      "tries": 5686,
      "Meta:": 5687,
      "-n": 5688,
      "▁\turl": 5689,
      "▁func(w": 5690,
      "Err)\n": 5691,
      "(time.Now": 5692,
      "Aggreg": 5693,
      "Edge": 5694,
      "/in": 5695,
      "UB": 5696,
      "oauth": 5697,
      "▁\t\"github.com/g": 5698,
      "zone": 5699,
      "▁\t\t*": 5700,
      "lim": 5701,
      "endor": 5702,
      "QU": 5703,
      "▁uint32\n": 5704,
      "_R": 5705,
      "▁,": 5706,
      "bot": 5707,
      "si": 5708,
      "▁Field": 5709,
      "lue": 5710,
      "def": 5711,
      "▁prometheus.": 5712,
      "Loop": 5713,
      "_id\"`\n": 5714,
      "Flow": 5715,
      "rase": 5716,
      "▁batch": 5717,
      "▁Comp": 5718,
      "/cmd": 5719,
      "Logger)": 5720,
      ".Wait()\n": 5721,
      "ae": 5722,
      "▁\tquery": 5723,
      "▁rec": 5724,
      "▁response\n": 5725,
      "SELECT": 5726,
      ".key": 5727,
      "▁Response": 5728,
      "▁assert": 5729,
      "(s,": 5730,
      "27": 5731,
      "Directory": 5732,
      "(m,": 5733,
      "(b)\n": 5734,
      "Result,": 5735,
      "Left": 5736,
      "▁\t\treq": 5737,
      "▁https://github.com/": 5738,
      "▁instead": 5739,
      "7.0.0.1": 5740,
      "Category": 5741,
      "bb": 5742,
      "er/": 5743,
      "device": 5744,
      "Child": 5745,
      "▁*sql": 5746,
      "07": 5747,
      "▁*log": 5748,
      ".Record": 5749,
      "iteral": 5750,
      "HTTPClient": 5751,
      "'\n": 5752,
      "Codec": 5753,
      "▁enum": 5754,
      "Routes": 5755,
      "apis/meta": 5756,
      "igs.k8s.io/": 5757,
      "Nano": 5758,
      "gg": 5759,
      "chat": 5760,
      ".AddCommand": 5761,
      "▁\tctx,": 5762,
      "▁perform": 5763,
      "(_": 5764,
      "pm": 5765,
      "(tt.": 5766,
      "cluded": 5767,
      ")\")\n": 5768,
      "String,\n": 5769,
      "▁<-chan": 5770,
      "ways": 5771,
      "HERE": 5772,
      "amples": 5773,
      "verride": 5774,
      "regexp\"\n": 5775,
      ".(type)": 5776,
      "Off": 5777,
      "shift": 5778,
      "Uint64": 5779,
      "▁cloud": 5780,
      "ics": 5781,
      "Data)": 5782,
      "▁child": 5783,
      "Argument": 5784,
      "Members": 5785,
      "Done": 5786,
      "Config)\n": 5787,
      ".Header().Set(\"": 5788,
      "mon": 5789,
      "▁\tex": 5790,
      "▁\tRun": 5791,
      ".Pre": 5792,
      "Devices": 5793,
      "ootstrap": 5794,
      "Worker": 5795,
      "#v": 5796,
      "uture": 5797,
      "(\"p": 5798,
      "allet": 5799,
      "azure": 5800,
      "Closer": 5801,
      "PL": 5802,
      "ling": 5803,
      "loader": 5804,
      "▁ph": 5805,
      "Info\n": 5806,
      "Int32": 5807,
      "Box": 5808,
      "▁Resource": 5809,
      "▁\t\tfile": 5810,
      "▁\tassert.Equal": 5811,
      "▁jw": 5812,
      "opt,": 5813,
      ".r": 5814,
      "Generate": 5815,
      "ialized": 5816,
      "icorp": 5817,
      ".Where": 5818,
      "▁matches": 5819,
      "Doc": 5820,
      "Sha": 5821,
      "render": 5822,
      "aging": 5823,
      "▁req)\n": 5824,
      "▁OTHER": 5825,
      "▁fin": 5826,
      ".0,": 5827,
      "▁value,": 5828,
      "(path)\n": 5829,
      "Fetch": 5830,
      "eries": 5831,
      "▁pub": 5832,
      "▁<<": 5833,
      "EnvVar": 5834,
      "-style": 5835,
      ".Content": 5836,
      "ene": 5837,
      "(key)\n": 5838,
      "▁\t\t\tlog.Fatal": 5839,
      "▁\t\"github.com/go-openapi/": 5840,
      "38": 5841,
      "▁\t\tnew": 5842,
      "▁multiple": 5843,
      "umb": 5844,
      "olumes": 5845,
      ".GetString(\"": 5846,
      ".Bind": 5847,
      ".Hel": 5848,
      ".Decode(&": 5849,
      ".Template": 5850,
      "History": 5851,
      "ools/": 5852,
      "▁\tsuite": 5853,
      "▁key)\n": 5854,
      "hashicorp": 5855,
      "▁signature": 5856,
      "▁64)\n": 5857,
      "(v)\n": 5858,
      "2p": 5859,
      "sTo": 5860,
      "▁ret.Get": 5861,
      "CA": 5862,
      "▁class": 5863,
      "▁product": 5864,
      "▁server\n": 5865,
      "▁([]*": 5866,
      "(err).NotTo": 5867,
      "▁man": 5868,
      "▁http.StatusBadRequest": 5869,
      "49": 5870,
      "▁ct": 5871,
      "extension": 5872,
      "▁resp.StatusCode": 5873,
      "light": 5874,
      "s\"": 5875,
      ".Metadata": 5876,
      "▁time.Duration)": 5877,
      "(logger": 5878,
      "▁amount": 5879,
      "▁object\n": 5880,
      "Arch": 5881,
      ".data": 5882,
      "Id\n": 5883,
      ".Op": 5884,
      "▁admin": 5885,
      "ILITY": 5886,
      "Cases": 5887,
      "Filename": 5888,
      "vt": 5889,
      "iness": 5890,
      "▁\t\t\t_,": 5891,
      "▁testing": 5892,
      "01,": 5893,
      "▁os.Remove": 5894,
      "Stdout": 5895,
      "kubebuilder": 5896,
      "pleted": 5897,
      "▁\tresp": 5898,
      "duce": 5899,
      "aaaa": 5900,
      "(unsafe.Pointer": 5901,
      "ied": 5902,
      "▁\tx": 5903,
      "▁sure": 5904,
      "▁`protobuf": 5905,
      "Attributes": 5906,
      "/or": 5907,
      "▁s)\n": 5908,
      "▁agent": 5909,
      "-api": 5910,
      "57": 5911,
      "iration": 5912,
      "▁execute": 5913,
      "▁depend": 5914,
      "Put": 5915,
      "_KEY": 5916,
      "▁\targs": 5917,
      "▁cop": 5918,
      "▁\"a": 5919,
      "▁Has": 5920,
      "▁retry": 5921,
      "▁indicates": 5922,
      "r.mock": 5923,
      "aller": 5924,
      ".Error(w,": 5925,
      "▁\t\t},": 5926,
      ".Parse()\n": 5927,
      ".Project": 5928,
      "%d]": 5929,
      "pletion": 5930,
      "Sum": 5931,
      "▁\tA": 5932,
      "▁(x": 5933,
      "▁\t\"regexp\"\n": 5934,
      "Groups": 5935,
      "driver": 5936,
      "▁\t\tselect": 5937,
      "▁error\")\n": 5938,
      "ereum": 5939,
      "Backup": 5940,
      "resources": 5941,
      "▁BSD": 5942,
      ".HandlerFunc": 5943,
      "▁`protobuf:\"": 5944,
      "Lines": 5945,
      "ically": 5946,
      "▁0.": 5947,
      "▁accept": 5948,
      "▁Source": 5949,
      "▁data,": 5950,
      "▁Ed": 5951,
      "▁path,": 5952,
      "Mux": 5953,
      "sd": 5954,
      "▁through": 5955,
      "▁httptest.New": 5956,
      "▁different": 5957,
      "ested": 5958,
      "▁lib": 5959,
      ".Channel": 5960,
      "(query": 5961,
      "29": 5962,
      "▁cr": 5963,
      "▁asset": 5964,
      "voice": 5965,
      "Pipeline": 5966,
      "Ingress": 5967,
      "Equal,": 5968,
      "▁value)\n": 5969,
      "worker": 5970,
      "▁request\n": 5971,
      "▁Deep": 5972,
      "_re": 5973,
      "mer": 5974,
      "part": 5975,
      "▁is\n": 5976,
      "arge": 5977,
      "Running": 5978,
      ".Should(": 5979,
      "(sc": 5980,
      "Gauge": 5981,
      "ares": 5982,
      "▁\tSet": 5983,
      "▁s\n": 5984,
      "▁being": 5985,
      "pires": 5986,
      "▁base64": 5987,
      "Folder": 5988,
      "▁red": 5989,
      "rip": 5990,
      "-8": 5991,
      "WMutex": 5992,
      "icate": 5993,
      "▁binding": 5994,
      "elet": 5995,
      ").Info": 5996,
      "opt,name=": 5997,
      "ges": 5998,
      "▁*List": 5999,
      "validator": 6000,
      "Kube": 6001,
      "▁duration": 6002,
      "Data)\n": 6003,
      "/config\"\n": 6004,
      ".Addr": 6005,
      ".g.": 6006,
      ".Count": 6007,
      "Example": 6008,
      "plat": 6009,
      "▁\"github.com/s": 6010,
      "Convey(\"": 6011,
      "Head": 6012,
      "▁time.Duration\n": 6013,
      "▁Close()": 6014,
      "CE": 6015,
      "▁\t\ttest": 6016,
      "product": 6017,
      "2e": 6018,
      ".Persistent": 6019,
      "Time:": 6020,
      "▁0x72,": 6021,
      ".\",\n": 6022,
      "▁\tj": 6023,
      "▁FOR": 6024,
      "kubebuilder:": 6025,
      "HA": 6026,
      "pkg/": 6027,
      "▁\"user": 6028,
      "Decode": 6029,
      "Exception": 6030,
      "▁\twg": 6031,
      "▁[]int{": 6032,
      "*time.Second": 6033,
      "IB": 6034,
      "]*": 6035,
      "▁sent": 6036,
      "▁my": 6037,
      ".Account": 6038,
      ".Add(\"": 6039,
      "ALL": 6040,
      "Pos": 6041,
      "gh": 6042,
      "▁*User": 6043,
      ".Hour": 6044,
      "(http.StatusOK,": 6045,
      "▁help": 6046,
      "ci": 6047,
      "▁cl": 6048,
      "▁Command": 6049,
      ".ctrl": 6050,
      "Config()\n": 6051,
      "])": 6052,
      "▁1024": 6053,
      "▁interface.\n": 6054,
      "Delet": 6055,
      "▁Returns": 6056,
      "ower": 6057,
      "▁`json:\"-\"`\n": 6058,
      ".NewClient": 6059,
      "eers": 6060,
      "▁until": 6061,
      "▁\tset": 6062,
      "(conf": 6063,
      "▁\tnode": 6064,
      "▁\tconst": 6065,
      "TCP": 6066,
      "atomic": 6067,
      "▁could": 6068,
      ".Local": 6069,
      "title": 6070,
      "yml": 6071,
      "Unmarshal": 6072,
      "lying": 6073,
      "▁select": 6074,
      "Exists": 6075,
      "REATE": 6076,
      "Fake": 6077,
      "false": 6078,
      "lated": 6079,
      "s.C": 6080,
      "ision": 6081,
      "archive": 6082,
      "Score": 6083,
      "</": 6084,
      "rary": 6085,
      "▁\t\tIt(\"": 6086,
      "▁pb": 6087,
      "igit": 6088,
      "Username": 6089,
      ".Exp": 6090,
      "▁person": 6091,
      "Processor": 6092,
      "▁\t\t\t\tt.Errorf(\"": 6093,
      "▁bytes.Buffer\n": 6094,
      "irewall": 6095,
      "correct": 6096,
      "updated": 6097,
      "CPU": 6098,
      "Webhook": 6099,
      "ULL": 6100,
      "TS": 6101,
      "▁\tstr": 6102,
      "force": 6103,
      "Enable": 6104,
      "Id\"`\n": 6105,
      "escrib": 6106,
      "Input\n": 6107,
      "(start": 6108,
      "vocation": 6109,
      ".is": 6110,
      "Errors": 6111,
      "▁LI": 6112,
      "▁equal": 6113,
      "-gen": 6114,
      "Now": 6115,
      "ous": 6116,
      "table": 6117,
      "▁\tval": 6118,
      "Response{\n": 6119,
      "▁constant": 6120,
      "▁usage": 6121,
      ".ListenAndServe": 6122,
      "Over": 6123,
      "▁\t\t\thttp": 6124,
      "left": 6125,
      "▁Path": 6126,
      "▁fmt.P": 6127,
      "Annotation": 6128,
      "IO": 6129,
      "▁skip": 6130,
      "lied": 6131,
      ".e": 6132,
      "m,": 6133,
      "aj": 6134,
      "hip": 6135,
      "▁owner": 6136,
      "column": 6137,
      "▁\tresult,": 6138,
      "▁handles": 6139,
      "▁float64)": 6140,
      "Mkdir": 6141,
      "▁\tDefault": 6142,
      "▁\t\texpected": 6143,
      "▁*Server)": 6144,
      "▁view": 6145,
      "▁args.": 6146,
      "▁encode": 6147,
      "▁%d,": 6148,
      "Optional": 6149,
      ".Cons": 6150,
      "Expression": 6151,
      "session": 6152,
      "▁missing": 6153,
      "ulk": 6154,
      "▁extract": 6155,
      ".Form": 6156,
      "raft": 6157,
      ".Proto": 6158,
      "/require": 6159,
      "\\r": 6160,
      "d)\n": 6161,
      "▁\t\to": 6162,
      "perations": 6163,
      "validation": 6164,
      "▁id)\n": 6165,
      "Hex": 6166,
      "port.": 6167,
      "with": 6168,
      "(item": 6169,
      "▁\"A": 6170,
      "▁sha": 6171,
      "END": 6172,
      "2\",": 6173,
      "▁State": 6174,
      "▁Handler": 6175,
      ".Save": 6176,
      "scriber": 6177,
      "[0],": 6178,
      "schema.Resource": 6179,
      "▁might": 6180,
      "Stub": 6181,
      "qui": 6182,
      "▁\t\tcmd": 6183,
      "/cli": 6184,
      "Transfer": 6185,
      "▁Lookup": 6186,
      "0,\n": 6187,
      "my": 6188,
      "task": 6189,
      "▁includ": 6190,
      "▁added": 6191,
      "ABILITY": 6192,
      "▁time.Second)\n": 6193,
      ".*": 6194,
      "ws": 6195,
      "▁scanner": 6196,
      "3.": 6197,
      "Top": 6198,
      "▁f.": 6199,
      "ager": 6200,
      "s.Set": 6201,
      "Dev": 6202,
      "▁int64,": 6203,
      "int64,": 6204,
      "▁http.HandlerFunc": 6205,
      "Schedule": 6206,
      "()),\n": 6207,
      "▁runtime.Client": 6208,
      "Settings": 6209,
      "[j]": 6210,
      "▁\t\"github.com/aws/aws-sdk-go/": 6211,
      "istrib": 6212,
      "1)": 6213,
      "KV": 6214,
      "Marshal": 6215,
      "_time": 6216,
      "▁art": 6217,
      "▁engine": 6218,
      "oto": 6219,
      "▁allows": 6220,
      "ridge": 6221,
      "Right": 6222,
      "▁ins": 6223,
      "go\"\n": 6224,
      "▁track": 6225,
      "Context(\"": 6226,
      "▁errors.Wrapf(err,": 6227,
      "')\n": 6228,
      "Dec": 6229,
      "bove": 6230,
      "cated": 6231,
      "yper": 6232,
      "▁\tevent": 6233,
      "▁Cloud": 6234,
      "ledger": 6235,
      "scheme": 6236,
      "▁resp,": 6237,
      "inator": 6238,
      "iting": 6239,
      "▁MIT": 6240,
      "▁results": 6241,
      "▁bufio": 6242,
      "Card": 6243,
      "UI": 6244,
      "chron": 6245,
      "▁insert": 6246,
      "▁values.\n": 6247,
      "▁comment": 6248,
      "/require\"\n": 6249,
      "(target": 6250,
      "FilePath": 6251,
      "▁original": 6252,
      "▁allowed": 6253,
      "positories": 6254,
      "▁\"k8s.io/apimachinery/pkg/apis/meta": 6255,
      "▁pattern": 6256,
      "elf": 6257,
      "VarP": 6258,
      "▁items": 6259,
      "ittle": 6260,
      "▁\t\t\t{\n": 6261,
      "▁ignore": 6262,
      "▁d.": 6263,
      "▁\t//\t": 6264,
      "go:": 6265,
      "corev1": 6266,
      "-4": 6267,
      "/e": 6268,
      "oice": 6269,
      "▁\t\n": 6270,
      "▁\t\ta": 6271,
      "eeded": 6272,
      "roach": 6273,
      "ress.": 6274,
      "External": 6275,
      "▁*testing.B": 6276,
      ".RWMutex": 6277,
      ".Name\n": 6278,
      "▁ensure": 6279,
      "▁verify": 6280,
      "Issue": 6281,
      "Cli": 6282,
      "Insert": 6283,
      "▁lines": 6284,
      "struction": 6285,
      "(raw": 6286,
      "▁height": 6287,
      "Threshold": 6288,
      "▁*Re": 6289,
      ".Remove": 6290,
      "Regex": 6291,
      "127.0.0.1": 6292,
      "▁rows.": 6293,
      "-server": 6294,
      "Type,\n": 6295,
      "atches": 6296,
      "▁idx": 6297,
      "▁validation": 6298,
      "Builder)": 6299,
      "Bind": 6300,
      "Mask": 6301,
      "itive": 6302,
      "▁o\n": 6303,
      "izes": 6304,
      "short": 6305,
      "(c.": 6306,
      "-in": 6307,
      ".Date": 6308,
      "▁scope": 6309,
      "▁true},\n": 6310,
      "Close()\n": 6311,
      "▁\"k8s.io/apimachinery/pkg/apis/meta/v1\"\n": 6312,
      "ever": 6313,
      "id:": 6314,
      "artbeat": 6315,
      "platform": 6316,
      ".Sum": 6317,
      ".Ab": 6318,
      "Users": 6319,
      "ForCall": 6320,
      "\\\":": 6321,
      "kv": 6322,
      "ky": 6323,
      "▁svc": 6324,
      "▁definition": 6325,
      "▁split": 6326,
      "▁*string\n": 6327,
      "/go/": 6328,
      "RS": 6329,
      "▁perm": 6330,
      "Export": 6331,
      "ourse": 6332,
      "st,": 6333,
      "atched": 6334,
      "▁tf": 6335,
      "team": 6336,
      "▁since": 6337,
      "▁wg": 6338,
      "▁path.Join": 6339,
      "▁\t\"github.com/stretchr/testify/require\"\n": 6340,
      "▁w.": 6341,
      "ynt": 6342,
      "interval": 6343,
      "Static": 6344,
      "1111": 6345,
      "8080": 6346,
      "0:": 6347,
      "fc": 6348,
      "▁Stop": 6349,
      "▁\t\t\tg": 6350,
      ".Rout": 6351,
      "ossible": 6352,
      "/log\"\n": 6353,
      "▁\trow": 6354,
      "▁swag": 6355,
      ".Big": 6356,
      "▁Base": 6357,
      ".Out": 6358,
      "URL)\n": 6359,
      "Results": 6360,
      "Consumer": 6361,
      "verter": 6362,
      "▁+build": 6363,
      "StatusCode": 6364,
      "▁\t\tlog.Println(\"": 6365,
      "▁\t\tfmt.Fprintf": 6366,
      "▁options.": 6367,
      "Blob": 6368,
      "Must": 6369,
      "k]": 6370,
      "ta": 6371,
      "▁long": 6372,
      "naly": 6373,
      "▁Authors.\n": 6374,
      "ataset": 6375,
      "uble": 6376,
      ".Description": 6377,
      "▁login": 6378,
      "/terraform": 6379,
      "(name)\n": 6380,
      ".Mutex\n": 6381,
      "-runtime": 6382,
      ".Res": 6383,
      "Coin": 6384,
      "src": 6385,
      "Style": 6386,
      "args.": 6387,
      ".Value,": 6388,
      "ingress": 6389,
      "▁2017": 6390,
      "Returns": 6391,
      "▁reflect.TypeOf(": 6392,
      "Bus": 6393,
      "err\n": 6394,
      ".Target": 6395,
      "▁`json:\"name\"`\n": 6396,
      "Value(\"": 6397,
      "Upgrade": 6398,
      "!\")\n": 6399,
      "▁\tlog.Println(\"": 6400,
      "operation": 6401,
      "(pro": 6402,
      "▁\tId": 6403,
      "▁\tIs": 6404,
      "eded": 6405,
      "os/": 6406,
      "t,": 6407,
      "Chat": 6408,
      "uch": 6409,
      "ached": 6410,
      "home": 6411,
      "INF": 6412,
      "idget": 6413,
      "Size)\n": 6414,
      "▁previous": 6415,
      "(content": 6416,
      "1\",\n": 6417,
      ".Model": 6418,
      "ynchron": 6419,
      ".Work": 6420,
      "\"])\n": 6421,
      "▁formats": 6422,
      "hex": 6423,
      "Stage": 6424,
      "▁name:": 6425,
      ".yaml": 6426,
      "100": 6427,
      "CC": 6428,
      "():\n": 6429,
      "Parallel": 6430,
      "Azure": 6431,
      "iant": 6432,
      "▁\t\tresponse": 6433,
      "▁apply": 6434,
      ".Nil": 6435,
      "s[0]\n": 6436,
      "Display": 6437,
      "labs/": 6438,
      "Organization": 6439,
      "itude": 6440,
      "shared": 6441,
      "Mgr": 6442,
      "Sample": 6443,
      "UP": 6444,
      "has": 6445,
      "▁docker": 6446,
      "▁describ": 6447,
      "Str,": 6448,
      "▁http.Method": 6449,
      "plica": 6450,
      "MockRecorder": 6451,
      "▁-1)\n": 6452,
      "istribution": 6453,
      "));": 6454,
      "▁cap": 6455,
      "▁(in": 6456,
      "▁s,": 6457,
      "▁save": 6458,
      "color": 6459,
      "▁callback": 6460,
      "▁\ttests": 6461,
      "Platform": 6462,
      "▁c,": 6463,
      "Informer": 6464,
      "Addr,": 6465,
      "▁left": 6466,
      "auto": 6467,
      "c)\n": 6468,
      "Unexpected": 6469,
      "▁listener": 6470,
      "▁service\n": 6471,
      "(time.Second": 6472,
      "▁worker": 6473,
      "Phase": 6474,
      "n,": 6475,
      "id\n": 6476,
      "oder": 6477,
      "▁Output": 6478,
      "▁\tflag.Parse()\n": 6479,
      "▁DeepCopy": 6480,
      "SER": 6481,
      "eatures": 6482,
      "▁\tis": 6483,
      "unic": 6484,
      "▁\t\t\ts.": 6485,
      "▁\t\"k8s.io/client-go/": 6486,
      "Set)": 6487,
      "State)": 6488,
      "Flags()": 6489,
      "▁payload\n": 6490,
      "postgres": 6491,
      "/models\"\n": 6492,
      "▁\t\t\tt.Fatalf(\"": 6493,
      "man": 6494,
      "istance": 6495,
      "▁\t\"github.com/hashicorp": 6496,
      "Config()": 6497,
      "▁+kubebuilder:": 6498,
      "▁Proto": 6499,
      "87": 6500,
      "o/": 6501,
      "▁\t\tUser": 6502,
      "▁pop": 6503,
      "ident": 6504,
      "▁args...)\n": 6505,
      "▁Kubernetes": 6506,
      "lative": 6507,
      "▁retrieve": 6508,
      "Core": 6509,
      "length": 6510,
      "▁\t\twant": 6511,
      "BeforeEach(func()": 6512,
      "25": 6513,
      "▁low": 6514,
      "▁calc": 6515,
      "▁func(*": 6516,
      "vide": 6517,
      "▁xxx": 6518,
      "(q": 6519,
      "▁title": 6520,
      "▁implemented": 6521,
      "▁how": 6522,
      "Func:": 6523,
      "havi": 6524,
      "import": 6525,
      "Cookie": 6526,
      "pret": 6527,
      "upt": 6528,
      "Error)\n": 6529,
      ".Push": 6530,
      ".Database": 6531,
      "v1/": 6532,
      "▁control": 6533,
      "▁\tb,": 6534,
      "Show": 6535,
      "▁Decode": 6536,
      "Ctx,": 6537,
      "▁receiver": 6538,
      "OW": 6539,
      "UM": 6540,
      "▁Le": 6541,
      "(namespace": 6542,
      "▁0x61,": 6543,
      ".dev": 6544,
      "201": 6545,
      "=%": 6546,
      "▁gorout": 6547,
      "IDs": 6548,
      "▁\t\"github.com/google": 6549,
      "Logf(\"": 6550,
      "▁Object": 6551,
      "string)\n": 6552,
      "Signing": 6553,
      "▁\tinfo": 6554,
      "-re": 6555,
      "▁},\n": 6556,
      "int]": 6557,
      "▁changes": 6558,
      "udio": 6559,
      "▁Setup": 6560,
      "velope": 6561,
      "VarP(&": 6562,
      "-operator": 6563,
      "3)\n": 6564,
      "Describe": 6565,
      "Tok": 6566,
      "▁Ad": 6567,
      "▁means": 6568,
      "g,": 6569,
      "▁above": 6570,
      "Progress": 6571,
      "▁calls": 6572,
      ".GET(\"/": 6573,
      "day": 6574,
      "▁program": 6575,
      "ffff": 6576,
      "▁Wait": 6577,
      "Token,": 6578,
      "Address:": 6579,
      "/model\"\n": 6580,
      "ited": 6581,
      "height": 6582,
      "Chunk": 6583,
      "▁what": 6584,
      "Alias": 6585,
      "(args": 6586,
      "▁machine": 6587,
      "▁ShouldEqual,": 6588,
      "Simple": 6589,
      "▁err))\n": 6590,
      "▁\t\t\tresult": 6591,
      "ething": 6592,
      "▁show": 6593,
      "?\n": 6594,
      "Depend": 6595,
      "plain": 6596,
      "▁Reg": 6597,
      "▁\tinput": 6598,
      "gorm:\"": 6599,
      "▁*testing.B)": 6600,
      "(api": 6601,
      "(service": 6602,
      "▁Store": 6603,
      "templates": 6604,
      "().": 6605,
      "▁word": 6606,
      "▁\tf,": 6607,
      "(session": 6608,
      "Install": 6609,
      "(err).NotTo(HaveOccurred())\n": 6610,
      "▁operator": 6611,
      "Log(\"": 6612,
      ".Logger\n": 6613,
      "lastic": 6614,
      "PU": 6615,
      "ackend": 6616,
      "▁DE": 6617,
      "▁builder": 6618,
      "conciler": 6619,
      "2)": 6620,
      "rain": 6621,
      "String,": 6622,
      "▁variables": 6623,
      ".WriteFile": 6624,
      "Subnet": 6625,
      "▁\tstart": 6626,
      "Vector": 6627,
      "gre": 6628,
      "▁pair": 6629,
      ".Last": 6630,
      "▁Encode": 6631,
      "only": 6632,
      "▁clo": 6633,
      "ship": 6634,
      "▁[]string{}\n": 6635,
      ".Client,": 6636,
      "Feature": 6637,
      "ks": 6638,
      "▁rules": 6639,
      "uple": 6640,
      "▁metrics": 6641,
      "▁json.NewDecoder": 6642,
      "/{": 6643,
      "ring": 6644,
      "Constraint": 6645,
      "▁router": 6646,
      "Mount": 6647,
      "[2]": 6648,
      "▁typ": 6649,
      "ale": 6650,
      "Executor": 6651,
      "▁extension": 6652,
      "▁\t\t\tlogger": 6653,
      "NAME": 6654,
      "▁Reset": 6655,
      ".Num": 6656,
      "▁\t\t\t\t\t\t\"": 6657,
      "▁strings.ToLower": 6658,
      "▁subject": 6659,
      "media": 6660,
      "Available": 6661,
      "WR": 6662,
      "aunch": 6663,
      "▁`gorm:\"": 6664,
      "▁rout": 6665,
      ".Header.Set(\"": 6666,
      "▁signal": 6667,
      "_RE": 6668,
      "rot": 6669,
      "▁notice": 6670,
      "Statement": 6671,
      "▁fmt.Errorf(\"error": 6672,
      "Args(": 6673,
      ".Response,": 6674,
      "▁Execute": 6675,
      "▁\t\t\t\tbreak\n": 6676,
      "▁takes": 6677,
      ".Commit": 6678,
      "(1,": 6679,
      "available": 6680,
      "Refresh": 6681,
      "▁\t\ti": 6682,
      "▁merge": 6683,
      ".Tx": 6684,
      "▁events": 6685,
      "crement": 6686,
      "_messageInfo_": 6687,
      "(int64": 6688,
      "Bundle": 6689,
      "Float64": 6690,
      "PublicKey": 6691,
      ".Title": 6692,
      "▁\tsub": 6693,
      "Can": 6694,
      "b.": 6695,
      "hing": 6696,
      "mq": 6697,
      "ilities": 6698,
      "(err))\n": 6699,
      "▁install": 6700,
      "Long:": 6701,
      "cceed": 6702,
      "▁\tG": 6703,
      "utf": 6704,
      "▁Save": 6705,
      "show": 6706,
      "▁TestGet": 6707,
      "redicate": 6708,
      "▁Inc.": 6709,
      "▁validator": 6710,
      "names": 6711,
      "raph": 6712,
      "▁game": 6713,
      "▁Sign": 6714,
      "alleng": 6715,
      "ec2": 6716,
      "▁len(arg": 6717,
      "▁strings.Contains(": 6718,
      "(buf,": 6719,
      "▁\t\"google.golang.org/grpc": 6720,
      "password": 6721,
      ".Column": 6722,
      "▁Param": 6723,
      "(sub": 6724,
      "▁Value:": 6725,
      "▁\"de": 6726,
      ":\"required": 6727,
      "Writer\n": 6728,
      "Field(\"": 6729,
      ".Qu": 6730,
      "23": 6731,
      "▁sort": 6732,
      "▁span": 6733,
      "▁branch": 6734,
      "term": 6735,
      "Prop": 6736,
      "Args:": 6737,
      "▁err.Error(),": 6738,
      "▁\t\"sigs.k8s.io/": 6739,
      "My": 6740,
      "▁Equal": 6741,
      "▁data)\n": 6742,
      "security": 6743,
      "▁http.StatusOK": 6744,
      "ferences": 6745,
      "▁\tproto": 6746,
      "▁err:": 6747,
      "▁simple": 6748,
      "ig.Int": 6749,
      "▁Block": 6750,
      "▁Benchmark": 6751,
      ".Input": 6752,
      "UTH": 6753,
      "Shard": 6754,
      "▁schema.TypeString,\n": 6755,
      "Main": 6756,
      "]+": 6757,
      "l,": 6758,
      "▁require": 6759,
      "coming": 6760,
      "▁contract": 6761,
      "eneric": 6762,
      "coin": 6763,
      "Nil())\n": 6764,
      "▁bytes.NewBuffer": 6765,
      "▁\t\t\tlog.Printf(\"": 6766,
      ".Temp": 6767,
      "plane": 6768,
      "▁day": 6769,
      "Type(": 6770,
      ".NewInt": 6771,
      "(code": 6772,
      "path,": 6773,
      "▁reading": 6774,
      "ObjectMeta:": 6775,
      "Labels": 6776,
      "3\"": 6777,
      "▁Action": 6778,
      "▁WHERE": 6779,
      "pipe": 6780,
      "Dir)\n": 6781,
      "(context.Background())\n": 6782,
      "flux": 6783,
      "(base": 6784,
      "5678": 6785,
      "Save": 6786,
      "_r": 6787,
      "ulation": 6788,
      "▁\t\"encoding/b": 6789,
      "▁display": 6790,
      "/v3": 6791,
      "dat": 6792,
      "Info{\n": 6793,
      "▁errors.Errorf(\"": 6794,
      ".Level": 6795,
      "▁//go:": 6796,
      "lict": 6797,
      "Workflow": 6798,
      "▁modify": 6799,
      ".Transaction": 6800,
      "▁\tV": 6801,
      "entr": 6802,
      "▁interface\n": 6803,
      ".Timestamp": 6804,
      "Input)": 6805,
      "▁\t\t\tfmt.Printf(\"": 6806,
      "(host": 6807,
      "watch": 6808,
      "incip": 6809,
      "▁error\",": 6810,
      "Deadline": 6811,
      "▁kubernetes": 6812,
      "▁users": 6813,
      ".Lookup": 6814,
      "apture": 6815,
      "-runtime/pkg/": 6816,
      "Docker": 6817,
      "pg": 6818,
      "▁SPD": 6819,
      "errors": 6820,
      "Initial": 6821,
      "▁tt.want": 6822,
      "Images": 6823,
      "Private": 6824,
      "_user": 6825,
      "cannot": 6826,
      "▁\tData": 6827,
      "▁tt": 6828,
      "▁execut": 6829,
      "Client:": 6830,
      "cogn": 6831,
      "listener": 6832,
      "Identifier:": 6833,
      "IF": 6834,
      "page": 6835,
      "▁\"B": 6836,
      "(tmp": 6837,
      "▁Tag": 6838,
      "▁Task": 6839,
      "(flag": 6840,
      "▁BSD-style": 6841,
      ".BigEndian": 6842,
      "c\n": 6843,
      "ku": 6844,
      "▁frame": 6845,
      ".Mod": 6846,
      "ethereum": 6847,
      ".Name())\n": 6848,
      ".Go": 6849,
      "Output,": 6850,
      ").To(Equal": 6851,
      "▁gin.H": 6852,
      "▁ctrl": 6853,
      "▁\"k": 6854,
      "▁position": 6855,
      "▁ap": 6856,
      "Series": 6857,
      "▁\tmux": 6858,
      ".Email": 6859,
      "▁*http.Request,": 6860,
      "▁-1\n": 6861,
      "▁*Fake": 6862,
      "▁\t\t\tdefer": 6863,
      "ixture": 6864,
      "map[string]": 6865,
      "▁supp": 6866,
      "▁append(res,": 6867,
      "listen": 6868,
      "-io/": 6869,
      "▁m,": 6870,
      "ockroach": 6871,
      "▁Inter": 6872,
      "Port:": 6873,
      "mt.Fprintln": 6874,
      "▁ret.Get(0": 6875,
      "Language": 6876,
      "Symbol": 6877,
      "When": 6878,
      "ike": 6879,
      "s),": 6880,
      "▁\tse": 6881,
      "▁requests": 6882,
      "Scanner": 6883,
      "exec\"\n": 6884,
      "Player": 6885,
      "ns.": 6886,
      "ats": 6887,
      "▁it\n": 6888,
      "▁\"bar": 6889,
      "Round": 6890,
      "▁Image": 6891,
      "▁NewGet": 6892,
      "▁10)\n": 6893,
      "ArgsForCall": 6894,
      "2006": 6895,
      "war": 6896,
      "▁Info": 6897,
      "Idle": 6898,
      "Token:": 6899,
      "▁\tclient,": 6900,
      "-02": 6901,
      "target": 6902,
      "tcd": 6903,
      "▁\t\tdb": 6904,
      "unnel": 6905,
      "▁\t\t\tSo": 6906,
      "omething": 6907,
      "Str)\n": 6908,
      "▁file:": 6909,
      ".Remote": 6910,
      "s[0],": 6911,
      "9999": 6912,
      ".name": 6913,
      "PO": 6914,
      "▁\t\tuser": 6915,
      "▁copyright": 6916,
      "ustomer": 6917,
      "graphql": 6918,
      "):\n": 6919,
      "iam": 6920,
      "acon": 6921,
      "▁download": 6922,
      "Serial": 6923,
      "▁flags": 6924,
      "rawDesc": 6925,
      "(?": 6926,
      "(root": 6927,
      ".txt": 6928,
      "1,\n": 6929,
      "▁\t\tret": 6930,
      "▁publish": 6931,
      "▁Cluster": 6932,
      "▁res,": 6933,
      ".String(),\n": 6934,
      "▁updates": 6935,
      "▁0x69,": 6936,
      "28": 6937,
      "CK": 6938,
      "ze": 6939,
      "▁\tUse:": 6940,
      "▁\t\"go": 6941,
      "ambda": 6942,
      "yntax": 6943,
      "Push": 6944,
      "_config": 6945,
      "d5": 6946,
      "rand": 6947,
      "▁\t\t_": 6948,
      "▁c\n": 6949,
      "heet": 6950,
      "▁AS": 6951,
      "▁Pre": 6952,
      "▁id\n": 6953,
      "ORS": 6954,
      "▁time.Time)": 6955,
      "4)\n": 6956,
      "MD": 6957,
      "Parent": 6958,
      "[len(": 6959,
      "▁\t\tout": 6960,
      "▁iot": 6961,
      "▁did": 6962,
      ".First": 6963,
      "ventory": 6964,
      "▁short": 6965,
      "/core/v1\"\n": 6966,
      "-run": 6967,
      "Panic": 6968,
      "▁\tShort:": 6969,
      "▁string,\n": 6970,
      "Entries": 6971,
      ".Ad": 6972,
      "imer": 6973,
      "ivid": 6974,
      "posite": 6975,
      ".Generate": 6976,
      "▁val,": 6977,
      "▁auto": 6978,
      "▁real": 6979,
      "Execute": 6980,
      ".Author": 6981,
      ".Describe": 6982,
      ".Row": 6983,
      "▁\t\t\trequire": 6984,
      "▁et": 6985,
      "Rune": 6986,
      "▁Int": 6987,
      "Containers": 6988,
      "'re": 6989,
      ").Error": 6990,
      "_ST": 6991,
      "tc": 6992,
      "▁\t\tinput": 6993,
      "▁clean": 6994,
      "▁\"*": 6995,
      "▁dat": 6996,
      "Name(\"": 6997,
      "▁\t\"github.com/h": 6998,
      "▁\t\t\t\t\t\t},\n": 6999,
      "used": 7000,
      "▁metav1.ObjectMeta": 7001,
      "(output": 7002,
      "_1": 7003,
      "▁via": 7004,
      "▁NO": 7005,
      ".Run()\n": 7006,
      "▁claim": 7007,
      "▁`json": 7008,
      "▁set,": 7009,
      "▁0x6e,": 7010,
      "▁\t\tmsg": 7011,
      "▁parsed": 7012,
      "HTML": 7013,
      "▁xml:\"": 7014,
      "total": 7015,
      "▁\tUpdate": 7016,
      "▁\"h": 7017,
      "reset": 7018,
      "mport": 7019,
      "▁Note": 7020,
      "▁\tstate": 7021,
      "EG": 7022,
      "[3": 7023,
      "step": 7024,
      "▁\"fmt\"\n": 7025,
      "▁rpc": 7026,
      "▁Account": 7027,
      "orev1": 7028,
      "▁key\n": 7029,
      "Any": 7030,
      "(index": 7031,
      "▁\thandler": 7032,
      "53": 7033,
      "Request\n": 7034,
      "ixel": 7035,
      ".Instance": 7036,
      "Append": 7037,
      "EBUG": 7038,
      "incipal": 7039,
      "DER": 7040,
      "Single": 7041,
      "ca": 7042,
      "headers": 7043,
      "olint": 7044,
      "▁window": 7045,
      "▁l.": 7046,
      "transport": 7047,
      "▁\t\"golang.org/x/": 7048,
      "/server": 7049,
      "yun": 7050,
      "▁\tos.": 7051,
      "utor": 7052,
      "▁1000": 7053,
      "▁[%s]": 7054,
      "▁0x70,": 7055,
      "(i)\n": 7056,
      "▁v1alpha1": 7057,
      "▁\t\tSo": 7058,
      "▁\t\trequire.NoError(t,": 7059,
      "install": 7060,
      ".Endpoint": 7061,
      "TP": 7062,
      "▁scheme": 7063,
      "exit": 7064,
      "▁profile": 7065,
      "▁additional": 7066,
      ".End": 7067,
      "/j": 7068,
      "iber": 7069,
      "reet": 7070,
      "ings": 7071,
      "strument": 7072,
      "respond": 7073,
      "▁%#v": 7074,
      "result,": 7075,
      "▁Verify": 7076,
      "▁out,": 7077,
      "Options{})\n": 7078,
      "Management": 7079,
      "IMIT": 7080,
      "Board": 7081,
      "[1:": 7082,
      "}},\n": 7083,
      "▁Z": 7084,
      "▁`json:\"id\"`\n": 7085,
      "Context(ctx": 7086,
      "Sequence": 7087,
      "4\n": 7088,
      "96": 7089,
      "atible": 7090,
      "▁crypto": 7091,
      "ort\"\n": 7092,
      ".Insert": 7093,
      "▁always": 7094,
      "▁SPDX-": 7095,
      "(server": 7096,
      "Feed": 7097,
      "PrivateKey": 7098,
      "uint64": 7099,
      "Rec": 7100,
      "logy": 7101,
      "irc": 7102,
      "ATH": 7103,
      "Async": 7104,
      "Formatter": 7105,
      "▁MarshalJSON": 7106,
      ".Reset": 7107,
      "k,": 7108,
      "inate": 7109,
      "▁counter": 7110,
      ".Make": 7111,
      "name\":": 7112,
      "▁0x73,": 7113,
      "BeNil())\n": 7114,
      "▁such": 7115,
      "▁nil\")\n": 7116,
      "()\r\n": 7117,
      "FileName": 7118,
      "▁reads": 7119,
      "▁cancel()\n": 7120,
      "Impl)": 7121,
      "CI": 7122,
      "Payment": 7123,
      "dp": 7124,
      "icon": 7125,
      "omat": 7126,
      "▁(self": 7127,
      "Ins": 7128,
      "scope": 7129,
      "ongodb": 7130,
      "[0])\n": 7131,
      "Token(": 7132,
      "manager": 7133,
      "▁*model": 7134,
      "▁`t": 7135,
      "fined": 7136,
      "Credentials": 7137,
      "IX": 7138,
      "▁\tadd": 7139,
      "tect": 7140,
      "▁plan": 7141,
      "reated": 7142,
      "▁within": 7143,
      "▁runtime.Con": 7144,
      "Delay": 7145,
      "▁\"k8s.io/api": 7146,
      "Pipe": 7147,
      "Sm": 7148,
      "TML": 7149,
      "profile": 7150,
      "time.Time": 7151,
      "▁\ttx": 7152,
      "▁fmt.Sprintf(\"[": 7153,
      "draw": 7154,
      "allow": 7155,
      "▁\t\t\tType:": 7156,
      "▁put": 7157,
      "▁\t\"github.com/go": 7158,
      "lick": 7159,
      "▁swagger:": 7160,
      ".J": 7161,
      "the": 7162,
      "▁\tservice": 7163,
      "▁\t\t\tctx": 7164,
      ".Scheme": 7165,
      ".EXPECT": 7166,
      "Weight": 7167,
      ".Stop()\n": 7168,
      "▁\t\"gopkg.in": 7169,
      "/config": 7170,
      "cap": 7171,
      "antity": 7172,
      "Output)": 7173,
      "ertificates": 7174,
      "▁failed\")\n": 7175,
      "////////////////////////////////": 7176,
      "interface{}\n": 7177,
      "▁\"application/json\")\n": 7178,
      "quires": 7179,
      "▁encoding": 7180,
      "▁*L": 7181,
      "▁[]error": 7182,
      "▁unit": 7183,
      "owner": 7184,
      "▁\tDescription": 7185,
      "Missing": 7186,
      "Media": 7187,
      "Perm": 7188,
      "_token": 7189,
      "mod": 7190,
      "next": 7191,
      "▁h.": 7192,
      "track": 7193,
      "▁Put": 7194,
      "▁Null": 7195,
      "Handler)\n": 7196,
      "Map,": 7197,
      "▁representation": 7198,
      "USER": 7199,
      "▁runtime.ClientResponse,": 7200,
      "[name": 7201,
      "_url": 7202,
      "bl": 7203,
      "▁Min": 7204,
      "-to": 7205,
      "nown": 7206,
      "sw": 7207,
      "▁\tselect": 7208,
      "▁redis": 7209,
      "▁replace": 7210,
      ".Mem": 7211,
      "64,": 7212,
      "File)": 7213,
      ".Null": 7214,
      "▁\tbase": 7215,
      "Cmd)\n": 7216,
      "Adapter": 7217,
      "Uint32": 7218,
      "filter": 7219,
      "▁\t\targs": 7220,
      "rok": 7221,
      "▁basic": 7222,
      "rimit": 7223,
      "buff": 7224,
      "s/{": 7225,
      "▁Work": 7226,
      "/pkg/apis": 7227,
      "Cap": 7228,
      "|os.": 7229,
      "▁\"e": 7230,
      "loaded": 7231,
      ".Cmd": 7232,
      "Value\n": 7233,
      "▁[]byte{": 7234,
      "illa": 7235,
      "▁ali": 7236,
      "▁found\")\n": 7237,
      "▁regexp.MustCompile(`": 7238,
      "Err\n": 7239,
      "▁error.\n": 7240,
      "abric": 7241,
      "▁\tparam": 7242,
      "▁writing": 7243,
      "▁\tR": 7244,
      "acle": 7245,
      "▁reply": 7246,
      "IDR": 7247,
      "▁type\n": 7248,
      "▁dev": 7249,
      "▁\tsort.": 7250,
      "Setup": 7251,
      "bufio\"\n": 7252,
      "Subject": 7253,
      "▁interval": 7254,
      "Edit": 7255,
      "_proto_rawDesc": 7256,
      "ittleEndian": 7257,
      "▁Context": 7258,
      "inger": 7259,
      "▁manifest": 7260,
      "cepted": 7261,
      "Proc": 7262,
      "/mock": 7263,
      "(filepath.Join": 7264,
      "(ip": 7265,
      "Svc": 7266,
      "]byte": 7267,
      "▁in\n": 7268,
      "▁\treg": 7269,
      "INT": 7270,
      "Discovery": 7271,
      "▁scan": 7272,
      "/ex": 7273,
      "▁\t\tType:": 7274,
      "▁t)\n": 7275,
      "ulator": 7276,
      "test\"\n": 7277,
      "▁these": 7278,
      "▁\t\t\t\t\t//": 7279,
      "Args)": 7280,
      "icket": 7281,
      "Alloc": 7282,
      "▁Process": 7283,
      "Error,": 7284,
      "(tag": 7285,
      "tls.": 7286,
      "▁parsing": 7287,
      "Ab": 7288,
      "sr": 7289,
      "s(t,": 7290,
      "▁reset": 7291,
      "▁\tmax": 7292,
      "Segment": 7293,
      "Bin": 7294,
      "uard": 7295,
      ".Panic": 7296,
      "gink": 7297,
      "▁*bool": 7298,
      "▁len(args)": 7299,
      "-id": 7300,
      "LA": 7301,
      "p.": 7302,
      "--\n": 7303,
      "▁\tcopy": 7304,
      "v1\"\n": 7305,
      ".Role": 7306,
      "Notify": 7307,
      "fgame": 7308,
      "Cmd.AddCommand": 7309,
      "enticated": 7310,
      "▁int32\n": 7311,
      "▁copies": 7312,
      "Site": 7313,
      "a\",": 7314,
      "76": 7315,
      "bed": 7316,
      "las": 7317,
      "▁\tMessage": 7318,
      "ifec": 7319,
      "login": 7320,
      "▁name,\n": 7321,
      "Force": 7322,
      "record": 7323,
      "▁ca": 7324,
      "▁\t\"github.com/n": 7325,
      "(rand": 7326,
      "es)": 7327,
      "▁during": 7328,
      "▁set.\n": 7329,
      "▁uint64)": 7330,
      "CD": 7331,
      "kin": 7332,
      "▁ast": 7333,
      "ather": 7334,
      ".Names": 7335,
      "▁corev1": 7336,
      "▁needs": 7337,
      "jwt": 7338,
      "=%s": 7339,
      "ness": 7340,
      "▁*v1": 7341,
      "peri": 7342,
      "Logs": 7343,
      "▁logs": 7344,
      "rune": 7345,
      "cessed": 7346,
      "▁writes": 7347,
      "▁entries": 7348,
      "uber.org/": 7349,
      "8\n": 7350,
      "zon": 7351,
      "▁\tobj": 7352,
      "routes": 7353,
      "▁\tassert.True(t,": 7354,
      "▁strconv.Format": 7355,
      "reflect.Deep": 7356,
      ".Wrap": 7357,
      "win": 7358,
      "▁\tenv": 7359,
      "tech": 7360,
      "▁\t\tclose": 7361,
      ".Storage": 7362,
      "iddlew": 7363,
      ".Process": 7364,
      "▁0x2e,": 7365,
      "rieve": 7366,
      "Home": 7367,
      "▁\t\"k8s.io/": 7368,
      "t.\n": 7369,
      "Loader": 7370,
      ".Select": 7371,
      "Spec{\n": 7372,
      ".Mock": 7373,
      "▁Next": 7374,
      "▁API\n": 7375,
      "▁\t\"sort\"\n": 7376,
      "transaction": 7377,
      ".next": 7378,
      "Diff": 7379,
      "generate": 7380,
      "unit": 7381,
      "▁n)\n": 7382,
      "iry": 7383,
      "Dir()": 7384,
      "▁upload": 7385,
      "▁map[string]string\n": 7386,
      "weet": 7387,
      "Activity": 7388,
      "precated": 7389,
      "uplicate": 7390,
      "havior": 7391,
      "Sql": 7392,
      "▁b\n": 7393,
      "▁own": 7394,
      "▁Must": 7395,
      "▁os.Create": 7396,
      "Input{\n": 7397,
      "IsNotExist": 7398,
      "VAL": 7399,
      "▁\"<": 7400,
      "▁*R": 7401,
      "▁\t\tt.Error(err)\n": 7402,
      "Result)": 7403,
      "74": 7404,
      "A,": 7405,
      "Publish": 7406,
      "gin-g": 7407,
      "[i]\n": 7408,
      "Det": 7409,
      "bson": 7410,
      "fe": 7411,
      "peed": 7412,
      "(\"\")\n": 7413,
      "livery": 7414,
      "▁append(p": 7415,
      "Attachment": 7416,
      "scale": 7417,
      "Upper": 7418,
      "▁*api": 7419,
      "▁\t\"bufio\"\n": 7420,
      "(f)\n": 7421,
      ".Stream": 7422,
      ".On(\"": 7423,
      "servic": 7424,
      ".lock": 7425,
      "Patch": 7426,
      "}\",": 7427,
      "▁\topts": 7428,
      "ert.": 7429,
      "onic/": 7430,
      "dest": 7431,
      "▁sample": 7432,
      ".Since": 7433,
      "▁\tr,": 7434,
      ".Uint": 7435,
      "59": 7436,
      "zh": 7437,
      ".Func": 7438,
      "Logging": 7439,
      "User,": 7440,
      "▁\tsession": 7441,
      "▁{\"": 7442,
      "\"],": 7443,
      "gin-gonic/": 7444,
      "Sys": 7445,
      "▁their": 7446,
      "▁Web": 7447,
      "▁url,": 7448,
      "-1]\n": 7449,
      ".Var": 7450,
      "▁\tError": 7451,
      "▁property": 7452,
      "(method": 7453,
      "ly\n": 7454,
      "(source": 7455,
      "▁getting": 7456,
      "FAUL": 7457,
      ".RWMutex\n": 7458,
      "(json": 7459,
      "ario": 7460,
      "▁\"r": 7461,
      "utable": 7462,
      "▁Be": 7463,
      "▁From": 7464,
      "...\")\n": 7465,
      "▁Hash": 7466,
      "controller-runtime/pkg/": 7467,
      "Article": 7468,
      "Cred": 7469,
      "etime": 7470,
      "Information": 7471,
      "▁Format": 7472,
      "▁\t\tlogrus.": 7473,
      "▁look": 7474,
      "(msg)\n": 7475,
      "▁reflect.TypeOf((*": 7476,
      "▁iota\n": 7477,
      "ifecycle": 7478,
      "▁\"F": 7479,
      "result.": 7480,
      "abilities": 7481,
      "▁1;": 7482,
      "Response)\n": 7483,
      "Rows": 7484,
      "▁yaml:\"": 7485,
      "riteria": 7486,
      "Tenant": 7487,
      "docker": 7488,
      "requ": 7489,
      "▁ext": 7490,
      "License-": 7491,
      "(true)\n": 7492,
      "_A": 7493,
      "ai": 7494,
      "▁\t\tRun": 7495,
      "agination": 7496,
      "▁multi": 7497,
      "▁desc": 7498,
      "Result.": 7499,
      "astic": 7500,
      "Trigger": 7501,
      "Code,": 7502,
      "boot": 7503,
      "▁4,": 7504,
      "▁enabled": 7505,
      "[]string{\"": 7506,
      "gin-gonic/gin": 7507,
      "fd": 7508,
      "▁5,": 7509,
      "▁c.Get": 7510,
      "Require": 7511,
      "▁>>": 7512,
      "proto3\"": 7513,
      "▁\tflag.StringVar(&": 7514,
      "▁\t\"go.uber.org/": 7515,
      "License-Identifier:": 7516,
      "▁free": 7517,
      "▁*ast": 7518,
      "▁&pb": 7519,
      "▁NULL": 7520,
      "Node\n": 7521,
      "▁uses": 7522,
      "APP": 7523,
      "iled": 7524,
      "verify": 7525,
      "▁fmt.Errorf(\"unable": 7526,
      ".Empty": 7527,
      "Addr:": 7528,
      "▁got,": 7529,
      "ategories": 7530,
      "▁\"my": 7531,
      "PR": 7532,
      "ourn": 7533,
      "▁\tKey": 7534,
      "▁\thost": 7535,
      "▁push": 7536,
      "▁TLS": 7537,
      "Decl": 7538,
      "▁\t\tfunc": 7539,
      "cp\",": 7540,
      "\\x00": 7541,
      "▁assert.New": 7542,
      "▁\ttime.Sleep": 7543,
      "▁\t\tbuf": 7544,
      "Relation": 7545,
      "▁res\n": 7546,
      "▁Map": 7547,
      "ermint": 7548,
      "(block": 7549,
      "▁tags": 7550,
      "▁identifier": 7551,
      "Yaml": 7552,
      "eigh": 7553,
      "tity": 7554,
      "etter": 7555,
      "▁20": 7556,
      ".ServeHTTP": 7557,
      "DR": 7558,
      "hub": 7559,
      "▁\t\t\t&": 7560,
      "uman": 7561,
      "▁ui": 7562,
      "ignore": 7563,
      "▁join": 7564,
      "Conn)": 7565,
      ".PersistentFlags()": 7566,
      ".set": 7567,
      "▁\tIn": 7568,
      "▁\tconf": 7569,
      "▁\t\tUse:": 7570,
      "serve": 7571,
      "Options.": 7572,
      "▁active": 7573,
      "foundry": 7574,
      "▁SPDX-License-Identifier:": 7575,
      "uzz": 7576,
      "▁c)\n": 7577,
      "▁i)\n": 7578,
      "Chart": 7579,
      "CreatedAt": 7580,
      "▁boolean": 7581,
      "▁destination": 7582,
      "iddlewares": 7583,
      "vg": 7584,
      "▁Qu": 7585,
      "▁\t\tapp": 7586,
      "ond": 7587,
      "ing:": 7588,
      "arsed": 7589,
      "path)\n": 7590,
      "▁[]int)": 7591,
      "(C": 7592,
      ":00": 7593,
      "TY": 7594,
      "],\n": 7595,
      "aut": 7596,
      "▁\tN": 7597,
      "▁\t\t\t\ts": 7598,
      "▁\t\t\t\tre": 7599,
      "contract": 7600,
      "Getter": 7601,
      ".Color": 7602,
      "text/": 7603,
      "▁ev": 7604,
      "Id,\n": 7605,
      "\")\r\n": 7606,
      "▁Rights": 7607,
      "rivile": 7608,
      "▁expected,": 7609,
      "Compute": 7610,
      "s[0])\n": 7611,
      "▁ShouldBe": 7612,
      "oml:\"": 7613,
      "tn": 7614,
      "er)\n": 7615,
      "▁*Config)": 7616,
      "▁!reflect.Deep": 7617,
      "▁ready": 7618,
      "▁?\",": 7619,
      "(env": 7620,
      "-name": 7621,
      "Standard": 7622,
      "Deploy": 7623,
      "Address,": 7624,
      "Authentication": 7625,
      "parator": 7626,
      "=%s\",": 7627,
      "Play": 7628,
      "▁\t\tvalue": 7629,
      "▁normal": 7630,
      "▁\"Error": 7631,
      "alln": 7632,
      "▁model\n": 7633,
      "▁resp.Body.Close()\n": 7634,
      "▁\tstatus": 7635,
      "▁url.Parse": 7636,
      "▁\tValue": 7637,
      "▁\tstore": 7638,
      "origin": 7639,
      "leases": 7640,
      "(table": 7641,
      "aren": 7642,
      ".Add(1)\n": 7643,
      "Size,": 7644,
      "▁x[": 7645,
      "▁3\n": 7646,
      "Method:": 7647,
      "schedul": 7648,
      "/:": 7649,
      "Sim": 7650,
      "▁b,": 7651,
      "scan": 7652,
      "Path,\n": 7653,
      "▁once": 7654,
      "_msg": 7655,
      "▁img": 7656,
      "2,\n": 7657,
      "84": 7658,
      "TL": 7659,
      "_data": 7660,
      "▁(k": 7661,
      "Stmt": 7662,
      "▁thread": 7663,
      ".Repository": 7664,
      ".Add(": 7665,
      "Message)": 7666,
      "Open(": 7667,
      "▁static": 7668,
      ".UnixNano": 7669,
      "Direct": 7670,
      "arer": 7671,
      "▁\tclose": 7672,
      "s[key": 7673,
      "▁len(m": 7674,
      "▁Filter": 7675,
      "State,": 7676,
      "Updated": 7677,
      "Parallel()\n": 7678,
      "-test": 7679,
      "▁final": 7680,
      "▁\"true": 7681,
      "pem": 7682,
      "▁\t\"path\"\n": 7683,
      "lis": 7684,
      "▁time.Minute": 7685,
      "▁libr": 7686,
      "▁selector": 7687,
      "(run": 7688,
      "etrics": 7689,
      "▁(client": 7690,
      "iiii": 7691,
      "bined": 7692,
      "cosmos": 7693,
      "gt": 7694,
      "▁\t\t\t\t})\n": 7695,
      "amount": 7696,
      "▁include": 7697,
      "▁1.": 7698,
      "▁\tPayload": 7699,
      "▁([]string,": 7700,
      "▁Connect": 7701,
      "Connector": 7702,
      "A-": 7703,
      "Age": 7704,
      "first": 7705,
      "nd": 7706,
      "upload": 7707,
      "▁of\n": 7708,
      "Key)": 7709,
      ".For": 7710,
      "▁os.Mkdir": 7711,
      "openapi": 7712,
      "-cli": 7713,
      "sync": 7714,
      "▁\t\tch": 7715,
      "▁\"_": 7716,
      "▁b)\n": 7717,
      "▁both": 7718,
      "▁external": 7719,
      ".New(\"": 7720,
      "▁Index": 7721,
      "rowser": 7722,
      "▁\to.Payload": 7723,
      "▁\tdb,": 7724,
      "system": 7725,
      "▁Session": 7726,
      "▁AR": 7727,
      "Sprint": 7728,
      "%s\\n\",": 7729,
      "/sdk": 7730,
      "▁Search": 7731,
      "▁syscall.S": 7732,
      "Download": 7733,
      "uint32": 7734,
      "▁\tE": 7735,
      "lev": 7736,
      "(task": 7737,
      "▁execution": 7738,
      "▁len(b": 7739,
      "ginx": 7740,
      "▁attempt": 7741,
      "(err).To(": 7742,
      "ensus": 7743,
      "-de": 7744,
      "Latest": 7745,
      "▁Group": 7746,
      "▁\t\tq": 7747,
      "▁pos": 7748,
      "▁sim": 7749,
      "orm:\"": 7750,
      "(context.Context,": 7751,
      "▁stored": 7752,
      "cipient": 7753,
      "Book": 7754,
      "▁\tMax": 7755,
      ".PublicKey": 7756,
      "(cluster": 7757,
      ".Internal": 7758,
      "▁r.URL": 7759,
      "▁\t\"math/rand\"\n": 7760,
      "▁\tCreate": 7761,
      "errupt": 7762,
      "▁needed": 7763,
      "▁\"v": 7764,
      "▁bind": 7765,
      "Value)": 7766,
      "▁health": 7767,
      "TTL": 7768,
      "(10": 7769,
      "(state": 7770,
      "(formats": 7771,
      "▁`json:\",": 7772,
      "uild": 7773,
      ".Access": 7774,
      "▁\t\"encoding/": 7775,
      "▁0x2f,": 7776,
      "▁closed": 7777,
      "▁reflect.ValueOf": 7778,
      ".test": 7779,
      "Cell": 7780,
      "alert": 7781,
      "▁\t\t\t\tfor": 7782,
      "▁watch": 7783,
      "▁x509": 7784,
      "k8s": 7785,
      "▁suite": 7786,
      ".mu.Unlock()\n": 7787,
      "pin": 7788,
      "▁pk": 7789,
      "▁\t\"github.com/gin-gonic/gin": 7790,
      "../": 7791,
      "igned": 7792,
      "▁\tparams": 7793,
      "ysis": 7794,
      "▁disk": 7795,
      ".Do(req)\n": 7796,
      "::": 7797,
      "inux": 7798,
      "ana": 7799,
      "▁\"Failed": 7800,
      "ceive": 7801,
      "constant": 7802,
      "Error{": 7803,
      "▁and/or": 7804,
      "▁section": 7805,
      "cheduler": 7806,
      "/pro": 7807,
      "latest": 7808,
      "atalln": 7809,
      "▁vm": 7810,
      "▁(map[string]": 7811,
      ".Intn": 7812,
      ".Methods(\"": 7813,
      "▁\t\t\tswitch": 7814,
      "(op": 7815,
      "3\",": 7816,
      "width": 7817,
      "▁\tW": 7818,
      "▁\"invalid": 7819,
      "▁rf": 7820,
      "▁25": 7821,
      "(context": 7822,
      "lta": 7823,
      "(time.Now()": 7824,
      ".add": 7825,
      "Slot": 7826,
      "ant.": 7827,
      "▁too": 7828,
      "▁included": 7829,
      "Ids": 7830,
      "(resp.Body)\n": 7831,
      "Times": 7832,
      "created": 7833,
      "Rol": 7834,
      "Virtual": 7835,
      "_file": 7836,
      "tele": 7837,
      "▁rate": 7838,
      "▁\tc,": 7839,
      "ibility": 7840,
      ".Apply": 7841,
      "SM": 7842,
      "ef": 7843,
      "▁n,": 7844,
      "tpl": 7845,
      "▁\t\"github.com/f": 7846,
      "ConfigMap": 7847,
      "Proposal": 7848,
      "▁0x63,": 7849,
      ".WithFields(": 7850,
      "▁\t\"os/exec\"\n": 7851,
      ".Consume": 7852,
      "56789": 7853,
      "▁\"un": 7854,
      "▁*r": 7855,
      "room": 7856,
      "artition": 7857,
      ".Search": 7858,
      "Nullable": 7859,
      "▁strconv.ParseInt": 7860,
      "andidate": 7861,
      "Pull": 7862,
      "WOR": 7863,
      "i)\n": 7864,
      "atar": 7865,
      "▁*test": 7866,
      "▁path\n": 7867,
      "▁\"/\"": 7868,
      ".Kind()": 7869,
      "▁fs.": 7870,
      "ID()": 7871,
      "▁`json:\"c": 7872,
      "Util": 7873,
      "(reg": 7874,
      "▁zone": 7875,
      "gitlab": 7876,
      "rimitive": 7877,
      "<<": 7878,
      "Destination": 7879,
      "GC": 7880,
      "affic": 7881,
      "▁cases": 7882,
      "▁serial": 7883,
      "▁path)\n": 7884,
      "epc": 7885,
      "include": 7886,
      "leet": 7887,
      "Extra": 7888,
      ".Flush": 7889,
      "Time,": 7890,
      "openshift": 7891,
      "Percent": 7892,
      "▁UnmarshalJSON": 7893,
      "Sig": 7894,
      "vr": 7895,
      "eser": 7896,
      "▁\t\t\t\tm": 7897,
      "▁Access": 7898,
      "rintln(\"": 7899,
      "(res.": 7900,
      "▁Host": 7901,
      ">>": 7902,
      "Pr": 7903,
      "_g": 7904,
      "ba": 7905,
      "▁\tget": 7906,
      "encoded": 7907,
      "▁*in": 7908,
      ".LittleEndian": 7909,
      ".ToNot": 7910,
      "Reader)": 7911,
      "▁sync.Mutex\n": 7912,
      "▁context.WithTimeout": 7913,
      "▁\"k8s.io/api/core/v1\"\n": 7914,
      "▁assert.New(t)\n": 7915,
      "rray": 7916,
      "▁way": 7917,
      "ctx,": 7918,
      "▁routes": 7919,
      "v2/": 7920,
      "▁ioutil.WriteFile": 7921,
      "(id)\n": 7922,
      ".Bool(\"": 7923,
      "▁against": 7924,
      "▁Reserved.\n": 7925,
      "IsNotExist(err)": 7926,
      "sBy": 7927,
      "▁Logger": 7928,
      "▁pipeline": 7929,
      "....": 7930,
      "▁fmt.Errorf": 7931,
      "Version,": 7932,
      "formats);": 7933,
      "▁methods": 7934,
      "Chan)\n": 7935,
      "Contains(t,": 7936,
      "YPE_": 7937,
      ".Valid": 7938,
      "Ignore": 7939,
      "wait": 7940,
      "▁\"T": 7941,
      "▁(C": 7942,
      "▁reason": 7943,
      "File\n": 7944,
      "obile": 7945,
      "▁with\n": 7946,
      "s[i": 7947,
      "GBA": 7948,
      "(this.": 7949,
      "containers": 7950,
      "(project": 7951,
      "-service": 7952,
      "▁\tcontent": 7953,
      "▁\t\t\th": 7954,
      "chor": 7955,
      "▁C.": 7956,
      "ird": 7957,
      "▁Print": 7958,
      "Data\n": 7959,
      "Options(": 7960,
      "allenge": 7961,
      ".j": 7962,
      "31": 7963,
      "▁\tauth": 7964,
      "▁platform": 7965,
      "▁sum": 7966,
      "▁mapping": 7967,
      "▁Call": 7968,
      "args,": 7969,
      "▁Fetch": 7970,
      "/cloud": 7971,
      "▁request.\n": 7972,
      "▁Debug": 7973,
      "epcopy": 7974,
      "='": 7975,
      "AX": 7976,
      "license": 7977,
      "▁Result": 7978,
      "▁\t\tresp": 7979,
      "ressed": 7980,
      ".Core": 7981,
      "▁\t\"github.com/golang": 7982,
      ".WriteString(": 7983,
      ".mutex": 7984,
      ".Volume": 7985,
      "▁\t\t\tfmt.Println(\"": 7986,
      "▁script": 7987,
      "maining": 7988,
      "▁\"github.com/sirupsen/logrus\"\n": 7989,
      "S3": 7990,
      "_code": 7991,
      "cf": 7992,
      "▁ts.": 7993,
      "▁foo": 7994,
      "ention": 7995,
      "▁Table": 7996,
      "net/": 7997,
      "▁Found": 7998,
      "optional\n": 7999,
      "(file)\n": 8000,
      "▁wrapper": 8001,
      "factory": 8002,
      "Bot": 8003,
      "ccept": 8004,
      "▁r\n": 8005,
      "▁make(map[string]string)\n": 8006,
      "(ex": 8007,
      "Cr": 8008,
      "▁\t\t\te": 8009,
      "resol": 8010,
      "▁recover": 8011,
      "▁+optional\n": 8012,
      "Apply": 8013,
      ".Client)": 8014,
      "▁opts...)\n": 8015,
      "▁`toml:\"": 8016,
      "▁\t\"github.com/gin-gonic/gin\"\n": 8017,
      "▁\t\tShort:": 8018,
      "id\":": 8019,
      "▁file_": 8020,
      "Handler:": 8021,
      "128": 8022,
      "2\"\n": 8023,
      "Vec": 8024,
      "XML": 8025,
      "nat": 8026,
      "ping": 8027,
      "tmp": 8028,
      "er{\n": 8029,
      "Quest": 8030,
      "from": 8031,
      "late": 8032,
      "▁*Create": 8033,
      "▁be\n": 8034,
      "utils\"\n": 8035,
      "▁Element": 8036,
      "▁generic": 8037,
      ".Bucket": 8038,
      "erved": 8039,
      "Associ": 8040,
      "void": 8041,
      "pt.": 8042,
      "sol": 8043,
      ".Render": 8044,
      "▁\t\"crypto/": 8045,
      "DP": 8046,
      "Embed": 8047,
      "er\"\n": 8048,
      "enable": 8049,
      "▁(%s)": 8050,
      "▁sig": 8051,
      "▁underlying": 8052,
      "Thread": 8053,
      "ributor": 8054,
      "(text": 8055,
      "eric": 8056,
      "Event)": 8057,
      ".Exit": 8058,
      "logger\"\n": 8059,
      "▁len(f": 8060,
      "example.com": 8061,
      "ipping": 8062,
      "Catalog": 8063,
      "OUT": 8064,
      "kb": 8065,
      "▁\t\tF": 8066,
      "▁\t\t\t{": 8067,
      "out)\n": 8068,
      "Func)": 8069,
      "▁\tblock": 8070,
      "▁specify": 8071,
      "Registration": 8072,
      "Once": 8073,
      ".Println(err)\n": 8074,
      "▁Authors.": 8075,
      "▁describes": 8076,
      "er.\n": 8077,
      "▁\t\t\tc.": 8078,
      "▁%T": 8079,
      "▁1)": 8080,
      "(params": 8081,
      "▁-1,": 8082,
      "▁false},\n": 8083,
      ".Owner": 8084,
      "▁\"github.com/go-": 8085,
      "Body,": 8086,
      "▁correspond": 8087,
      ".UTC": 8088,
      "Broker": 8089,
      "p)\n": 8090,
      "▁feature": 8091,
      "▁*pb": 8092,
      "Seq": 8093,
      "▁written": 8094,
      "Host:": 8095,
      ".Application": 8096,
      "enticator": 8097,
      "aterial": 8098,
      "ragment": 8099,
      ".Where(\"": 8100,
      "▁\t\"sigs.k8s.io/controller-runtime/pkg/": 8101,
      "▁library": 8102,
      "Should": 8103,
      "▁\tviper": 8104,
      "in,": 8105,
      "art.": 8106,
      "▁cred": 8107,
      "▁possible": 8108,
      "Error(err)": 8109,
      "▁standard": 8110,
      "Provision": 8111,
      "data/": 8112,
      "▁\thash": 8113,
      "structure:\"": 8114,
      "a-z": 8115,
      "Modified": 8116,
      "▁\tbody,": 8117,
      "hat": 8118,
      "ipt": 8119,
      "()),": 8120,
      ".Cache": 8121,
      "▁0x01,": 8122,
      ".TypeMeta": 8123,
      "clus": 8124,
      "▁receive": 8125,
      "▁aws": 8126,
      "▁`protobuf:\"bytes,": 8127,
      "x\",": 8128,
      "▁\tenc": 8129,
      "▁Comm": 8130,
      "(max": 8131,
      "plicit": 8132,
      "▁encoded": 8133,
      "▁expression": 8134,
      "Opts{\n": 8135,
      "(formats);": 8136,
      "▁converts": 8137,
      "Bar": 8138,
      "Cor": 8139,
      "[1]\n": 8140,
      "dl": 8141,
      "▁\tv1": 8142,
      "▁play": 8143,
      "▁sys": 8144,
      ".Sc": 8145,
      "▁latest": 8146,
      "▁hook": 8147,
      "Key\n": 8148,
      "imiter": 8149,
      "Message,": 8150,
      "▁result)\n": 8151,
      "▁make(map[string]interface{})\n": 8152,
      "/utils\"\n": 8153,
      "/common\"\n": 8154,
      "/proto\"\n": 8155,
      "asurement": 8156,
      "parser": 8157,
      "▁i\n": 8158,
      "adog": 8159,
      "▁would": 8160,
      ".Route": 8161,
      "(num": 8162,
      "ASS": 8163,
      "▁req,": 8164,
      "Conn,": 8165,
      "▁Address": 8166,
      "r.mock.ctrl": 8167,
      ")]": 8168,
      "Using": 8169,
      "▁\t\tpath": 8170,
      "▁co": 8171,
      "▁please": 8172,
      "▁(result": 8173,
      "Rest": 8174,
      "idr": 8175,
      "▁When": 8176,
      "type\"`\n": 8177,
      ".Username": 8178,
      ".Order": 8179,
      "DK": 8180,
      "va": 8181,
      "Review": 8182,
      "▁TO": 8183,
      "redis.": 8184,
      "interfaces": 8185,
      "▁\t\t}()\n": 8186,
      "_id\":": 8187,
      "▁models\n": 8188,
      "[i],": 8189,
      "Closed": 8190,
      ".DeepCopy": 8191,
      "/de": 8192,
      "retty": 8193,
      ".Called": 8194,
      "▁`json:\"status": 8195,
      "ardown": 8196,
      "Flag{\n": 8197,
      "_id\",": 8198,
      "▁uint32)": 8199,
      "▁\"github.com/onsi/gomega": 8200,
      ".io": 8201,
      "▁monitor": 8202,
      "oly": 8203,
      "▁\tcount": 8204,
      "arts": 8205,
      "▁PRO": 8206,
      "(fmt.Errorf(\"": 8207,
      "rontend": 8208,
      "E\n": 8209,
      "ced": 8210,
      "▁cleanup": 8211,
      "▁*schema.Resource": 8212,
      "▁Act": 8213,
      "Count)\n": 8214,
      "▁\t*/\n": 8215,
      "▁\t\"github.com/sirupsen/logrus\"\n": 8216,
      "▁successfully": 8217,
      "enabled": 8218,
      "▁*go": 8219,
      "▁Per": 8220,
      "State\n": 8221,
      "▁ret\n": 8222,
      "▁failure": 8223,
      "▁desired": 8224,
      "▁0xff,": 8225,
      "Literal": 8226,
      "_group": 8227,
      "ended": 8228,
      "▁integer": 8229,
      "Providers": 8230,
      "▁`json:\"s": 8231,
      "(mock": 8232,
      "Count,": 8233,
      "▁\tindex": 8234,
      ".Header.Get(\"": 8235,
      "79": 8236,
      "orary": 8237,
      "▁*client": 8238,
      "▁bad": 8239,
      "00\n": 8240,
      "▁19": 8241,
      "▁24": 8242,
      "▁DNS": 8243,
      "▁\tdelete": 8244,
      "▁sequence": 8245,
      "envoy": 8246,
      "▁\t\tparam": 8247,
      "▁sync.WaitGroup": 8248,
      ".\r\n": 8249,
      "mode": 8250,
      "ox": 8251,
      "s())\n": 8252,
      "▁\t\tapi": 8253,
      "allowed": 8254,
      "▁\"\\n\")\n": 8255,
      "▁ssh": 8256,
      "images": 8257,
      "▁}}\n": 8258,
      "▁\t0x6": 8259,
      "[0:": 8260,
      "▁ret.Get(0).": 8261,
      ".Env": 8262,
      "V4": 8263,
      "_de": 8264,
      "▁etcd": 8265,
      "stall": 8266,
      "▁invok": 8267,
      "▁origin": 8268,
      "▁\t\tc.JSON": 8269,
      "url.URL": 8270,
      "static": 8271,
      "▁Convert": 8272,
      "egative": 8273,
      "!!": 8274,
      ".Acc": 8275,
      "(codes": 8276,
      "▁time.Parse": 8277,
      ".Name(),": 8278,
      "Bytes)\n": 8279,
      "(\"tcp\",": 8280,
      "▁\t\"github.com/hashicorp/terraform": 8281,
      ")},\n": 8282,
      "-e": 8283,
      "[4": 8284,
      "▁space": 8285,
      "usage": 8286,
      ".Current": 8287,
      ".Meta": 8288,
      "▁configured": 8289,
      "TIC": 8290,
      "▁initialize": 8291,
      "aff": 8292,
      "cm": 8293,
      "root.": 8294,
      "ough": 8295,
      ".IsZero": 8296,
      "▁*gomock": 8297,
      "▁issue": 8298,
      "ajor": 8299,
      "255": 8300,
      "Ticker": 8301,
      "▁player": 8302,
      "liver": 8303,
      "▁width": 8304,
      "▁consumer,": 8305,
      ".Module": 8306,
      "▁happ": 8307,
      "▁started": 8308,
      "LogLevel": 8309,
      "(repo": 8310,
      "DB)": 8311,
      "(buf)\n": 8312,
      ".Helper": 8313,
      "▁\tXXX": 8314,
      "ony": 8315,
      "peg": 8316,
      "mt.Sprintf(\"": 8317,
      "Value)\n": 8318,
      "▁yet": 8319,
      "▁room": 8320,
      "Response(response,": 8321,
      "Cost": 8322,
      "_count": 8323,
      "▁(fake": 8324,
      "ers:": 8325,
      ".Fake": 8326,
      ".Filter": 8327,
      ".Release": 8328,
      "▁Mem": 8329,
      "▁err.Error()": 8330,
      "▁2016": 8331,
      "▁Project": 8332,
      "Many": 8333,
      "Digest": 8334,
      "i\n": 8335,
      "▁\tw.": 8336,
      "remote": 8337,
      "ation,": 8338,
      "usted": 8339,
      "(f,": 8340,
      "▁Git": 8341,
      "▁wrong": 8342,
      "member": 8343,
      "▁\tassert.NotNil(t,": 8344,
      "-plugin": 8345,
      ".proto": 8346,
      "5\n": 8347,
      "Elem": 8348,
      "IZ": 8349,
      "Uri": 8350,
      "cn": 8351,
      "inue": 8352,
      "enario": 8353,
      "loop": 8354,
      "▁07": 8355,
      "▁file,": 8356,
      "▁GET": 8357,
      "(status": 8358,
      "▁message\n": 8359,
      "Complete": 8360,
      "/v2\"\n": 8361,
      "velop": 8362,
      "fficient": 8363,
      "Artifact": 8364,
      "(a,": 8365,
      "Currency": 8366,
      "rap": 8367,
      "▁\t\t\tv": 8368,
      "▁\"default": 8369,
      "ubect": 8370,
      "(p)\n": 8371,
      "▁append(c": 8372,
      "/crypto": 8373,
      "Node,": 8374,
      ".Link": 8375,
      ".Fatalf(\"": 8376,
      ".sub": 8377,
      "Params{\n": 8378,
      "▁10\n": 8379,
      "▁\tc.Assert(err,": 8380,
      "▁\tconn,": 8381,
      "([]string{\"": 8382,
      "▁\"[": 8383,
      "icles": 8384,
      "Replication": 8385,
      "aker": 8386,
      "Context:": 8387,
      "File(\"": 8388,
      "ServiceAccount": 8389,
      "▁keep": 8390,
      "▁know": 8391,
      "▁value.\n": 8392,
      "▁logrus.": 8393,
      "▁it.\n": 8394,
      "▁\"some": 8395,
      "Kind:": 8396,
      "▁make(map[string]*": 8397,
      "istics": 8398,
      "▁aws.String": 8399,
      "/sql\"\n": 8400,
      "_IN": 8401,
      "c/": 8402,
      "ds": 8403,
      "dating": 8404,
      "usiness": 8405,
      ");\n": 8406,
      "▁\tp.": 8407,
      ".Verify": 8408,
      ".Provider": 8409,
      "ACK": 8410,
      "▁ioutil.Temp": 8411,
      "linux": 8412,
      "Capacity": 8413,
      "Layer": 8414,
      "SION": 8415,
      "_in": 8416,
      "anel": 8417,
      "▁\"%": 8418,
      "\\n\",\n": 8419,
      "▁optional": 8420,
      ".Connect": 8421,
      ".Trace": 8422,
      "▁\tfile,": 8423,
      "frastructure": 8424,
      "(`\n": 8425,
      "▁\t\ttime.Sleep": 8426,
      "▁bound": 8427,
      ".Deployment": 8428,
      "▁*sync": 8429,
      ".mu.Lock()\n": 8430,
      "services/": 8431,
      "Bits": 8432,
      "tree": 8433,
      "isto": 8434,
      "s/cosmos": 8435,
      "▁\t\tc.": 8436,
      "▁Network": 8437,
      "▁XXX_": 8438,
      "JWT": 8439,
      "stone": 8440,
      "ulated": 8441,
      "\\n\"": 8442,
      "Fatalf(\"": 8443,
      ".UUID": 8444,
      ".Message)": 8445,
      "()).To(": 8446,
      "Received": 8447,
      "Handlers": 8448,
      ").Should(": 8449,
      "AO": 8450,
      "LC": 8451,
      "Matrix": 8452,
      "Tri": 8453,
      "▁scal": 8454,
      "▁blob": 8455,
      ".Fatalln": 8456,
      "Mapper": 8457,
      "client\"\n": 8458,
      "Disable": 8459,
      "▁Serve": 8460,
      "resource.Test": 8461,
      "concil": 8462,
      "provider-": 8463,
      "LOG": 8464,
      "veloper": 8465,
      "s/cosmos-sdk": 8466,
      "(3": 8467,
      "1b": 8468,
      "▁\"$": 8469,
      "▁*In": 8470,
      "▁bin": 8471,
      "▁[]float64": 8472,
      "▁Spec": 8473,
      "OKEN": 8474,
      "EXT": 8475,
      "▁struct{}{}\n": 8476,
      ".Header().Set(\"Content-Type\",": 8477,
      "RING": 8478,
      "oid": 8479,
      "▁\top": 8480,
      "▁*Update": 8481,
      "▁vis": 8482,
      ".Ref": 8483,
      ".Operation": 8484,
      "▁name.\n": 8485,
      "Map)": 8486,
      "▁*cli": 8487,
      "▁complete": 8488,
      "bum": 8489,
      "ij": 8490,
      "▁Storage": 8491,
      "▁gateway": 8492,
      "Proof": 8493,
      "▁Port": 8494,
      "▁NewClient": 8495,
      "▁testCase": 8496,
      "▁http.StatusInternalServerError)\n": 8497,
      "Pointer": 8498,
      "uff": 8499,
      "▁Job": 8500,
      "ality": 8501,
      "urerm": 8502,
      "▁\t\t\tIt(\"": 8503,
      "_size": 8504,
      "63": 8505,
      "mac": 8506,
      "▁\tport": 8507,
      "▁socket": 8508,
      ".Plugin": 8509,
      "Upstream": 8510,
      ".create": 8511,
      "▁shared": 8512,
      "V1()": 8513,
      "Indent": 8514,
      "IV": 8515,
      "cision": 8516,
      "▁cookie": 8517,
      "▁(q": 8518,
      "▁sav": 8519,
      "▁\t\"runtime\"\n": 8520,
      "ot,": 8521,
      "iso": 8522,
      "rive": 8523,
      ".Ag": 8524,
      "▁export": 8525,
      "typ": 8526,
      "Context(ctx,": 8527,
      ".Error())\n": 8528,
      "mt.Print": 8529,
      "This": 8530,
      ".Path,": 8531,
      "icroso": 8532,
      "▁io.Reader)": 8533,
      "▁BSD-style\n": 8534,
      "▁\tVersion": 8535,
      "▁Size": 8536,
      ".Required": 8537,
      "▁client,": 8538,
      ".Limit": 8539,
      "ContentType": 8540,
      "▁lookup": 8541,
      "▁map[string]string)": 8542,
      "1\")\n": 8543,
      "Bound": 8544,
      "▁es": 8545,
      "org/": 8546,
      "anagement": 8547,
      "▁\"no": 8548,
      "s.String": 8549,
      "▁&res": 8550,
      ".Ctx": 8551,
      "▁LIMIT": 8552,
      ".Act": 8553,
      "▁\tpanic": 8554,
      "▁attr": 8555,
      "▁\tr.": 8556,
      ")).To(": 8557,
      "Hostname": 8558,
      "▁least": 8559,
      "mediate": 8560,
      "][%d]": 8561,
      "ini": 8562,
      "Err,": 8563,
      "(tc.": 8564,
      "▁deploy": 8565,
      "▁k8s": 8566,
      "Action:": 8567,
      "▁val\n": 8568,
      "▁webhook": 8569,
      "▁\t\"go.uber.org/zap": 8570,
      "_W": 8571,
      "clo": 8572,
      "Redirect": 8573,
      "ulner": 8574,
      "▁dial": 8575,
      "graf": 8576,
      "▁map[string]interface{}\n": 8577,
      "tended": 8578,
      "▁result.read": 8579,
      "CHAN": 8580,
      "Phone": 8581,
      ".Job": 8582,
      "Pkg": 8583,
      "\\d": 8584,
      "▁\t\tID:": 8585,
      "Name\"`\n": 8586,
      "▁map[string][]": 8587,
      "Size\n": 8588,
      "Count:": 8589,
      "▁readResponse(response": 8590,
      ".Value)\n": 8591,
      "▁ctx,": 8592,
      "Workspace": 8593,
      "docs.": 8594,
      "▁\t\thttp.Error(w,": 8595,
      "▁o.formats);": 8596,
      "▁result.readResponse(response,": 8597,
      "_v1": 8598,
      "▁\t\tValue:": 8599,
      "▁&model": 8600,
      "▁\t\t\t\t\tlog": 8601,
      "Size()": 8602,
      "Used": 8603,
      "▁msg)\n": 8604,
      "Opts.": 8605,
      "▁\t\"math\"\n": 8606,
      "▁tool.\n": 8607,
      "60": 8608,
      "handle": 8609,
      "kind": 8610,
      "method": 8611,
      "▁tl": 8612,
      "agic": 8613,
      "▁&b": 8614,
      "Loc": 8615,
      "Path\n": 8616,
      "Confirm": 8617,
      "-01-02": 8618,
      "istogram": 8619,
      "3,\n": 8620,
      "NING": 8621,
      "YAML": 8622,
      "number": 8623,
      "▁\t\"database": 8624,
      "▁fileDescriptor": 8625,
      "acters": 8626,
      ".Setup": 8627,
      "ifications": 8628,
      "▁atomic": 8629,
      "Body:": 8630,
      "-core": 8631,
      "▁chan<-": 8632,
      "▁deleted": 8633,
      "ubectl": 8634,
      "(get": 8635,
      "e\n": 8636,
      "enom": 8637,
      "▁n\n": 8638,
      "▁*Delete": 8639,
      ".POST": 8640,
      "able\n": 8641,
      "(func(w": 8642,
      "display": 8643,
      "_CON": 8644,
      "eighb": 8645,
      "▁Len": 8646,
      "Response{": 8647,
      "▁interfaces": 8648,
      "▁provide": 8649,
      "▁time.Second\n": 8650,
      "vocations": 8651,
      "▁goroutine": 8652,
      "mas": 8653,
      "▁\"config": 8654,
      "amaz": 8655,
      "▁Secret": 8656,
      "Wrong": 8657,
      "mazon": 8658,
      "▁implementation\n": 8659,
      "▁0x12,": 8660,
      "cosmos/cosmos-sdk": 8661,
      "▁runtime.Consumer,": 8662,
      "-key": 8663,
      "Are": 8664,
      "Non": 8665,
      "Pin": 8666,
      "cat": 8667,
      "reater": 8668,
      "al\"\n": 8669,
      "ID]": 8670,
      "File:": 8671,
      "016": 8672,
      ".True": 8673,
      "▁character": 8674,
      "DL": 8675,
      "Etcd": 8676,
      "s(ctx": 8677,
      "inish": 8678,
      "▁\t\t\tnew": 8679,
      "▁(db": 8680,
      "Status,": 8681,
      "List)\n": 8682,
      ".Replace": 8683,
      "\")))\n": 8684,
      "▁Required": 8685,
      ".cache": 8686,
      ".Condition": 8687,
      ".Notify": 8688,
      "▁&http.Client": 8689,
      "▁determin": 8690,
      "Middleware(stack);": 8691,
      "▁\"github.com/onsi/gomega\"\n": 8692,
      "-time": 8693,
      "/schema": 8694,
      "Normal": 8695,
      "y,": 8696,
      "▁pull": 8697,
      "Name]": 8698,
      "List\n": 8699,
      "(prefix": 8700,
      "come": 8701,
      "rape": 8702,
      "expr": 8703,
      "implemented": 8704,
      "IGHT": 8705,
      "existing": 8706,
      "▁registered": 8707,
      "Creator": 8708,
      "lap": 8709,
      "patcher": 8710,
      "▁\tun": 8711,
      "or\n": 8712,
      "▁w,": 8713,
      "Error(err,": 8714,
      ".Certificate": 8715,
      "formed": 8716,
      ".Mark": 8717,
      "(r.": 8718,
      "▁Hel": 8719,
      "▁\t\t\tfmt.Println": 8720,
      "▁containing": 8721,
      "xxx": 8722,
      "/v4": 8723,
      "▁Authors\n": 8724,
      "requency": 8725,
      "/2": 8726,
      "Analy": 8727,
      "PS": 8728,
      "Year": 8729,
      "▁html": 8730,
      "▁\tip": 8731,
      "▁fut": 8732,
      "▁(https://": 8733,
      "Exchange": 8734,
      "\"))": 8735,
      "OK)": 8736,
      "▁got:": 8737,
      "▁url.Values": 8738,
      "/client\"\n": 8739,
      "issue": 8740,
      "********************************": 8741,
      "########": 8742,
      "EF": 8743,
      "▁\t\tpro": 8744,
      "▁cb": 8745,
      "▁`db": 8746,
      "imension": 8747,
      "▁Match": 8748,
      "(p,": 8749,
      "-swagger": 8750,
      "▁io.Read": 8751,
      ".ID,\n": 8752,
      "▁time.Second,\n": 8753,
      "ynamodb": 8754,
      "▁fmt.Sprintf(\"%s/": 8755,
      "mn": 8756,
      "▁err.(*": 8757,
      "▁\"Get": 8758,
      "▁*App": 8759,
      "utation": 8760,
      "▁!is": 8761,
      "(to": 8762,
      ".GetName": 8763,
      "Status)": 8764,
      "ted,": 8765,
      "▁(*http": 8766,
      "Output)\n": 8767,
      "▁30": 8768,
      "v2\"\n": 8769,
      "SHA": 8770,
      ".Helper()\n": 8771,
      ".q": 8772,
      ".Struct": 8773,
      "Ack": 8774,
      "c2": 8775,
      "n)\n": 8776,
      "ismatch": 8777,
      "Depth": 8778,
      "▁type.\n": 8779,
      "Id()": 8780,
      ".size": 8781,
      "▁authentication": 8782,
      "\"}},\n": 8783,
      "ursive": 8784,
      "cell": 8785,
      "▁**": 8786,
      "peat": 8787,
      "Integer": 8788,
      "endermint": 8789,
      "thon": 8790,
      "▁\t\tfield": 8791,
      "list,": 8792,
      "▁collect": 8793,
      "▁exec.Command(\"": 8794,
      "-project": 8795,
      "Src": 8796,
      "[2": 8797,
      "ers\"\n": 8798,
      "Deleg": 8799,
      "ava": 8800,
      ".BoolVar(&": 8801,
      ".Msg(\"": 8802,
      "(0x": 8803,
      "Mo": 8804,
      "▁\titem": 8805,
      "unity": 8806,
      "▁ns": 8807,
      "telemetry": 8808,
      "opher": 8809,
      "(writer": 8810,
      ".Device": 8811,
      "▁map[string]interface{})": 8812,
      "adding": 8813,
      "+\"/": 8814,
      "POST\",": 8815,
      "Present": 8816,
      "uit": 8817,
      "▁\taddr": 8818,
      "▁prop": 8819,
      "Info)\n": 8820,
      "ById": 8821,
      "Message()": 8822,
      "▁alloc": 8823,
      "16,": 8824,
      "▁'%s'\",": 8825,
      "HealthCheck": 8826,
      "CLUD": 8827,
      "limiter": 8828,
      "Question": 8829,
      "/protobuf": 8830,
      ":04": 8831,
      "Cannot": 8832,
      "Sink": 8833,
      "ernel": 8834,
      "enum": 8835,
      "section": 8836,
      "▁\tcache": 8837,
      "▁\t\tcfg": 8838,
      "arshall": 8839,
      "(sql": 8840,
      "Heap": 8841,
      "▁errors.With": 8842,
      "▁context.Context\n": 8843,
      ".Ext": 8844,
      "▁0x67,": 8845,
      "▁||\n": 8846,
      "Shared": 8847,
      "Recorder()\n": 8848,
      "▁\t\t\twant:": 8849,
      "FC33": 8850,
      "▁MarshalJSON()": 8851,
      "lished": 8852,
      "Button": 8853,
      "Y,": 8854,
      "_L": 8855,
      "ki": 8856,
      "accept": 8857,
      "lies": 8858,
      "▁\t\"github.com/gor": 8859,
      "▁extra": 8860,
      "▁Database": 8861,
      "▁this\n": 8862,
      "▁fmt.Errorf(\"invalid": 8863,
      "ogenerated": 8864,
      "▁functions": 8865,
      "▁\t\"syscall": 8866,
      "Google": 8867,
      ".Warn(\"": 8868,
      "olint:": 8869,
      "irr": 8870,
      "}/": 8871,
      "▁\t\tnode": 8872,
      "▁\"in": 8873,
      "▁\"get": 8874,
      "▁p,": 8875,
      "Serialize": 8876,
      "▁maximum": 8877,
      "▁json.Unmarshal([]byte": 8878,
      "Place": 8879,
      "▁\t\tconn": 8880,
      "▁mount": 8881,
      "ollector": 8882,
      "▁another": 8883,
      "▁os.Std": 8884,
      "(v,": 8885,
      ").Encode": 8886,
      "Status.": 8887,
      "foo\",": 8888,
      "Partition": 8889,
      "Receive": 8890,
      "▁retrieves": 8891,
      "Two": 8892,
      "[k]": 8893,
      "▁064": 8894,
      "Changed": 8895,
      "▁append(m": 8896,
      ".max": 8897,
      "ollback": 8898,
      "▁Type:": 8899,
      "jwt.": 8900,
      "rames": 8901,
      "▁\t\toutput": 8902,
      "ceived": 8903,
      "▁Copy": 8904,
      ".Org": 8905,
      "(dir,": 8906,
      "ython": 8907,
      "alloc": 8908,
      "▁\"Test": 8909,
      ".Total": 8910,
      "▁`json:\"user": 8911,
      ".New(": 8912,
      "▁file\")\n": 8913,
      ".Repo": 8914,
      "▁chunk": 8915,
      "▁shard": 8916,
      "▁Google": 8917,
      "amazon": 8918,
      "▁`db:\"": 8919,
      "bc": 8920,
      "mand": 8921,
      "ing.\n": 8922,
      "alm": 8923,
      "▁nil)": 8924,
      "Insecure": 8925,
      "▁v2": 8926,
      "romium": 8927,
      "util/": 8928,
      "State:": 8929,
      "▁Insert": 8930,
      ".cfg": 8931,
      "▁head": 8932,
      "AccessToken": 8933,
      "Generic": 8934,
      ".Done():\n": 8935,
      "False(t,": 8936,
      ".id": 8937,
      "_service": 8938,
      "ah": 8939,
      "tern": 8940,
      ".Type()": 8941,
      "▁\tdir": 8942,
      ".Value\n": 8943,
      "▁VM": 8944,
      "Cache)": 8945,
      "▁io.Copy": 8946,
      ".Usage": 8947,
      "template\"\n": 8948,
      "▁documentation": 8949,
      "parse": 8950,
      "tt": 8951,
      "verbose": 8952,
      "▁prove": 8953,
      "Setenv(\"": 8954,
      "environment": 8955,
      "(info": 8956,
      "Scale": 8957,
      ".EXPECT()": 8958,
      "s{": 8959,
      "ids": 8960,
      "data,": 8961,
      "▁&&\n": 8962,
      "Submatch": 8963,
      "ATE_": 8964,
      "lause": 8965,
      "Provider)": 8966,
      "Conflict": 8967,
      ".Once": 8968,
      "▁including": 8969,
      "▁xxx_messageInfo_": 8970,
      "(s)": 8971,
      "PUT": 8972,
      "_Get": 8973,
      "d.": 8974,
      "done": 8975,
      "▁\t{": 8976,
      "ometry": 8977,
      "edge": 8978,
      "aba": 8979,
      "▁[][]": 8980,
      "▁`form": 8981,
      ".Mode": 8982,
      "▁\t\tt.Fail": 8983,
      "db\"\n": 8984,
      "exists": 8985,
      "GR": 8986,
      "ft.": 8987,
      "pkg": 8988,
      "---": 8989,
      "▁re-run": 8990,
      "▁`json:\"re": 8991,
      "▁Pod": 8992,
      "▁TestNew": 8993,
      "▁client.Get": 8994,
      "_id,": 8995,
      "▁futile": 8996,
      "Fee": 8997,
      "Final": 8998,
      "Policies": 8999,
      "ram": 9000,
      "▁\t\tst": 9001,
      "▁*Service)": 9002,
      "asy": 9003,
      "export": 9004,
      "angle": 9005,
      "Key,\n": 9006,
      "trl": 9007,
      "udp": 9008,
      "(work": 9009,
      "buf,": 9010,
      "▁os.File": 9011,
      "▁\t\trequest": 9012,
      ".Connection": 9013,
      "helm": 9014,
      "LoadBalancer": 9015,
      "▁\"POST": 9016,
      "sha256": 9017,
      "Section": 9018,
      "pod": 9019,
      "▁^": 9020,
      "Revision": 9021,
      "String)\n": 9022,
      "arama": 9023,
      "Eventually": 9024,
      "▁response,": 9025,
      "▁enable": 9026,
      ".Namespace,": 9027,
      "▁\t\"golang.org/x": 9028,
      ".Elem()\n": 9029,
      "94": 9030,
      "None": 9031,
      "▁\tConfig": 9032,
      "fast": 9033,
      "{})": 9034,
      "▁PAR": 9035,
      "▁begin": 9036,
      "scape": 9037,
      "Addresses": 9038,
      "Namespaced": 9039,
      "▁\t\tfmt.Println(err)\n": 9040,
      "▁Editing": 9041,
      "{Type:": 9042,
      "})": 9043,
      "tection": 9044,
      "▁migration": 9045,
      ".T.Helper()\n": 9046,
      "▁unknown": 9047,
      ".Warning": 9048,
      ".Global": 9049,
      "Storage)": 9050,
      "▁0x0a,": 9051,
      "(id,": 9052,
      "Activ": 9053,
      "▁bufio.New": 9054,
      "127.0.0.1:": 9055,
      "RU": 9056,
      "f\n": 9057,
      "err)\n": 9058,
      "▁patch": 9059,
      "▁\tcurrent": 9060,
      "▁Msg": 9061,
      "ival": 9062,
      "▁\tnum": 9063,
      "disk": 9064,
      "▁objects": 9065,
      "▁\"github.com/onsi/gink": 9066,
      "▁\t\t`": 9067,
      "anit": 9068,
      "▁&t": 9069,
      "▁Count": 9070,
      ".Db": 9071,
      "Repository)": 9072,
      "(k,": 9073,
      "▁arguments": 9074,
      "▁initialized": 9075,
      "Kubernetes": 9076,
      "Limiter": 9077,
      "Master": 9078,
      "Rank": 9079,
      "Video": 9080,
      "▁\t\tquery": 9081,
      "▁\"key": 9082,
      "rout": 9083,
      "serial": 9084,
      "▁go-swagger": 9085,
      "notify": 9086,
      "▁\t\tw.WriteHeader(http.Status": 9087,
      "▁ID\n": 9088,
      "▁\t\tlog.Fatal(\"": 9089,
      "Empty(t,": 9090,
      "(trans": 9091,
      "[0-9": 9092,
      "revious": 9093,
      "/util\"\n": 9094,
      "================================": 9095,
      ":\"required\"`\n": 9096,
      "AY": 9097,
      "Lat": 9098,
      "mu": 9099,
      "tom": 9100,
      "lier": 9101,
      "Context.": 9102,
      "ollect": 9103,
      "▁\t\t\t\tDescription:": 9104,
      "▁`{\"": 9105,
      "▁\tfield": 9106,
      "Set,": 9107,
      ".current": 9108,
      "Succeed": 9109,
      "ble": 9110,
      "long": 9111,
      "s(c": 9112,
      "▁\t\tu": 9113,
      "▁prom": 9114,
      "adapter": 9115,
      ".Collection": 9116,
      "Spec:": 9117,
      "(string)": 9118,
      "▁Apache-2.0\n": 9119,
      "ACnet": 9120,
      "▁backup": 9121,
      "▁details": 9122,
      "(hash": 9123,
      "Pack": 9124,
      "RD": 9125,
      "l.": 9126,
      "ones": 9127,
[...]
