{
  "version": "1.0",
  "truncation": null,
  "padding": null,
  "added_tokens": [
    {
      "id": 0,
      "content": "[UNK]",
      "single_word": false,
      "lstrip": false,
      "rstrip": false,
      "normalized": false,
      "special": true
    },
    {
      "id": 1,
      "content": "[SEP]",
      "single_word": false,
      "lstrip": false,
      "rstrip": false,
      "normalized": false,
      "special": true
    },
    {
      "id": 2,
      "content": "[PAD]",
      "single_word": false,
      "lstrip": false,
      "rstrip": false,
      "normalized": false,
      "special": true
    }
  ],
  "normalizer": null,
  "pre_tokenizer": {
    "type": "Whitespace"
  },
  "post_processor": {
    "type": "TemplateProcessing",
    "single": [
      {
        "SpecialToken": {
          "id": "[SEP]",
          "type_id": 0
        }
      },
      {
        "Sequence": {
          "id": "A",
          "type_id": 0
        }
      },
      {
        "SpecialToken": {
          "id": "[SEP]",
          "type_id": 0
        }
      }
    ],
    "pair": [
      {
        "SpecialToken": {
          "id": "[SEP]",
          "type_id": 0
        }
      },
      {
        "Sequence": {
          "id": "A",
          "type_id": 0
        }
      },
      {
        "SpecialToken": {
          "id": "[SEP]",
          "type_id": 0
        }
      },
      {
        "Sequence": {
          "id": "B",
          "type_id": 0
        }
      },
      {
        "SpecialToken": {
          "id": "[SEP]",
          "type_id": 0
        }
      }
    ],
    "special_tokens": {
      "[SEP]": {
        "id": "[SEP]",
        "ids": [
          1
        ],
        "tokens": [
          "[SEP]"
        ]
      }
    }
  },
  "decoder": null,
  "model": {
    "type": "BPE",
    "dropout": null,
    "unk_token": "[UNK]",
    "continuing_subword_prefix": null,
    "end_of_word_suffix": null,
    "fuse_unk": false,
    "byte_fallback": false,
    "vocab": {
      "[UNK]": 0,
      "[SEP]": 1,
      "[PAD]": 2,
      "\u0001": 3,
      "\u0002": 4,
      "\u0004": 5,
      "\u0005": 6,
      "\b": 7,
      "\u000f": 8,
      "\u0010": 9,
      "\u0012": 10,
      "\u0018": 11,
      "\u001a": 12,
      "\u001b": 13,
      "\u001c": 14,
      "\u001d": 15,
      "\u001f": 16,
      "!": 17,
      "\"": 18,
      "#": 19,
      "$": 20,
      "%": 21,
      "&": 22,
      "'": 23,
      "(": 24,
      ")": 25,
      "*": 26,
      "+": 27,
      ",": 28,
      "-": 29,
      ".": 30,
      "/": 31,
      "0": 32,
      "1": 33,
      "2": 34,
      "3": 35,
      "4": 36,
      "5": 37,
      "6": 38,
      "7": 39,
      "8": 40,
      "9": 41,
      ":": 42,
      ";": 43,
      "<": 44,
      "=": 45,
      ">": 46,
      "?": 47,
      "@": 48,
      "A": 49,
      "B": 50,
      "C": 51,
      "D": 52,
      "E": 53,
      "F": 54,
      "G": 55,
      "H": 56,
      "I": 57,
      "J": 58,
      "K": 59,
      "L": 60,
      "M": 61,
      "N": 62,
      "O": 63,
      "P": 64,
      "Q": 65,
      "R": 66,
      "S": 67,
      "T": 68,
      "U": 69,
      "V": 70,
      "W": 71,
      "X": 72,
      "Y": 73,
      "Z": 74,
      "[": 75,
      "\\": 76,
      "]": 77,
      "^": 78,
      "_": 79,
      "`": 80,
      "a": 81,
      "b": 82,
      "c": 83,
      "d": 84,
      "e": 85,
      "f": 86,
      "g": 87,
      "h": 88,
      "i": 89,
      "j": 90,
      "k": 91,
      "l": 92,
      "m": 93,
      "n": 94,
      "o": 95,
      "p": 96,
      "q": 97,
      "r": 98,
      "s": 99,
      "t": 100,
      "u": 101,
      "v": 102,
      "w": 103,
      "x": 104,
      "y": 105,
      "z": 106,
      "{": 107,
      "|": 108,
      "}": 109,
      "~": 110,
      "": 111,
      "er": 112,
      "in": 113,
      "re": 114,
      "on": 115,
      "st": 116,
      "or": 117,
      "at": 118,
      "en": 119,
      "err": 120,
      "il": 121,
      "th": 122,
      "es": 123,
      "ing": 124,
      "al": 125,
      "un": 126,
      "ur": 127,
      "an": 128,
      "te": 129,
      "se": 130,
      "//": 131,
      "me": 132,
      ":=": 133,
      "ar": 134,
      "str": 135,
      "ret": 136,
      "ion": 137,
      "ct": 138,
      "if": 139,
      "urn": 140,
      "et": 141,
      "()": 142,
      "return": 143,
      "co": 144,
      "ic": 145,
      "de": 146,
      "le": 147,
      "ac": 148,
      "ro": 149,
      "lo": 150,
      "ent": 151,
      "unc": 152,
      "\",": 153,
      "ag": 154,
      "it": 155,
      "nil": 156,
      "func": 157,
      "int": 158,
      "string": 159,
      "pe": 160,
      "(\"": 161,
      "con": 162,
      "ap": 163,
      "ut": 164,
      "ate": 165,
      "ue": 166,
      "the": 167,
      "mp": 168,
      "St": 169,
      "is": 170,
      "Re": 171,
      "ad": 172,
      "ame": 173,
      "ig": 174,
      "to": 175,
      "ch": 176,
      "li": 177,
      "res": 178,
      "Con": 179,
      "as": 180,
      "ser": 181,
      "ub": 182,
      "age": 183,
      "ith": 184,
      "ul": 185,
      "In": 186,
      "id": 187,
      "!=": 188,
      "--": 189,
      "rr": 190,
      "ew": 191,
      "error": 192,
      "\")": 193,
      "Err": 194,
      "el": 195,
      "ype": 196,
      "ed": 197,
      "ol": 198,
      "and": 199,
      "for": 200,
      "xt": 201,
      "com": 202,
      "ck": 203,
      "ce": 204,
      "ot": 205,
      "ation": 206,
      "ver": 207,
      "[]": 208,
      "Error": 209,
      "ack": 210,
      "ime": 211,
      "Co": 212,
      "ri": 213,
      "ht": 214,
      "ab": 215,
      "ile": 216,
      "am": 217,
      "pt": 218,
      "ess": 219,
      "ort": 220,
      "New": 221,
      "ma": 222,
      "fig": 223,
      "ey": 224,
      "Name": 225,
      "log": 226,
      "Get": 227,
      "ult": 228,
      "us": 229,
      "test": 230,
      "lient": 231,
      "ex": 232,
      "tr": 233,
      "val": 234,
      "mt": 235,
      "text": 236,
      "ithub": 237,
      "ata": 238,
      "son": 239,
      "github": 240,
      "mo": 241,
      "ace": 242,
      "De": 243,
      "um": 244,
      "Res": 245,
      "pro": 246,
      "go": 247,
      "ist": 248,
      "0x": 249,
      "fmt": 250,
      "},": 251,
      "ID": 252,
      "tp": 253,
      "ase": 254,
      "up": 255,
      "of": 256,
      "qu": 257,
      "he": 258,
      "ath": 259,
      ":\"": 260,
      "que": 261,
      "by": 262,
      "ers": 263,
      "json": 264,
      "type": 265,
      "uct": 266,
      "od": 267,
      "http": 268,
      "==": 269,
      "ice": 270,
      "Lo": 271,
      "ok": 272,
      "time": 273,
      "out": 274,
      "end": 275,
      "os": 276,
      "ang": 277,
      "Str": 278,
      "))": 279,
      "quest": 280,
      "ect": 281,
      "bu": 282,
      "ter": 283,
      "ted": 284,
      "imp": 285,
      "fa": 286,
      "Type": 287,
      "name": 288,
      "rint": 289,
      "Ser": 290,
      "var": 291,
      "struct": 292,
      "ve": 293,
      "\"`": 294,
      "pl": 295,
      "00": 296,
      "Te": 297,
      "En": 298,
      "fo": 299,
      "pon": 300,
      "sh": 301,
      "der": 302,
      "ay": 303,
      "inter": 304,
      "file": 305,
      "our": 306,
      "ir": 307,
      "Val": 308,
      "{}": 309,
      "per": 310,
      "pack": 311,
      "String": 312,
      "icen": 313,
      "ponse": 314,
      "vice": 315,
      "Pro": 316,
      "all": 317,
      "pec": 318,
      "ctx": 319,
      "Set": 320,
      "Ad": 321,
      "able": 322,
      "iz": 323,
      "Ex": 324,
      "Config": 325,
      "),": 326,
      "ty": 327,
      "ions": 328,
      "bo": 329,
      "package": 330,
      "atus": 331,
      "..": 332,
      "ow": 333,
      "icense": 334,
      "64": 335,
      "ment": 336,
      "Key": 337,
      "ta": 338,
      "---": 339,
      "Client": 340,
      "put": 341,
      "be": 342,
      "Un": 343,
      "ire": 344,
      "face": 345,
      "Request": 346,
      "Add": 347,
      "import": 348,
      "app": 349,
      "License": 350,
      "ode": 351,
      "ange": 352,
      "arg": 353,
      "unt": 354,
      "are": 355,
      "Se": 356,
      "fer": 357,
      "ource": 358,
      "po": 359,
      "config": 360,
      "ke": 361,
      "set": 362,
      "key": 363,
      "not": 364,
      "ject": 365,
      "art": 366,
      "act": 367,
      "im": 368,
      "reate": 369,
      "ust": 370,
      "len": 371,
      "Id": 372,
      "client": 373,
      "ler": 374,
      "ite": 375,
      "data": 376,
      "io": 377,
      "wor": 378,
      "\":": 379,
      "ob": 380,
      "To": 381,
      ").": 382,
      "om": 383,
      "context": 384,
      "ader": 385,
      "interface": 386,
      "List": 387,
      "sert": 388,
      "ger": 389,
      "Context": 390,
      "Test": 391,
      "essage": 392,
      "Par": 393,
      "map": 394,
      "path": 395,
      "byte": 396,
      "new": 397,
      "File": 398,
      "Log": 399,
      "md": 400,
      "fi": 401,
      "uth": 402,
      "Status": 403,
      "und": 404,
      "fault": 405,
      "rom": 406,
      "ind": 407,
      "ine": 408,
      "Ch": 409,
      "Time": 410,
      "Response": 411,
      "ress": 412,
      "testing": 413,
      "rintf": 414,
      "range": 415,
      "vent": 416,
      "ON": 417,
      "code": 418,
      "op": 419,
      "par": 420,
      "})": 421,
      "che": 422,
      "User": 423,
      "(*": 424,
      "eld": 425,
      "Data": 426,
      "atch": 427,
      "Path": 428,
      "true": 429,
      "case": 430,
      "ms": 431,
      "user": 432,
      "net": 433,
      "aw": 434,
      "lect": 435,
      "bool": 436,
      "ost": 437,
      "lock": 438,
      "ize": 439,
      "())": 440,
      "lag": 441,
      "ity": 442,
      "ip": 443,
      "Errorf": 444,
      "value": 445,
      "date": 446,
      "ure": 447,
      "Value": 448,
      "v1": 449,
      "get": 450,
      "api": 451,
      "with": 452,
      ");": 453,
      "ory": 454,
      "errors": 455,
      "this": 456,
      "Ap": 457,
      "mand": 458,
      "form": 459,
      "tain": 460,
      "cess": 461,
      "do": 462,
      "(),": 463,
      "ore": 464,
      "cri": 465,
      "assert": 466,
      "With": 467,
      "Sp": 468,
      "result": 469,
      "By": 470,
      "Tr": 471,
      "port": 472,
      "alse": 473,
      "add": 474,
      "db": 475,
      "().": 476,
      "cl": 477,
      "ec": 478,
      "ass": 479,
      "rit": 480,
      "opt": 481,
      "ery": 482,
      "ache": 483,
      "Hand": 484,
      "rite": 485,
      "Com": 486,
      "ight": 487,
      "gr": 488,
      "Service": 489,
      "py": 490,
      "Opt": 491,
      "Info": 492,
      "ener": 493,
      "ans": 494,
      "use": 495,
      "quire": 496,
      "tes": 497,
      "load": 498,
      "ator": 499,
      "false": 500,
      "mpty": 501,
      "ial": 502,
      "qual": 503,
      "Create": 504,
      "For": 505,
      "ance": 506,
      "Up": 507,
      "strings": 508,
      "Bu": 509,
      "valid": 510,
      "del": 511,
      "Server": 512,
      "ign": 513,
      "roup": 514,
      "pk": 515,
      "ail": 516,
      "can": 517,
      "([]": 518,
      "32": 519,
      "He": 520,
      "ames": 521,
      "run": 522,
      "Al": 523,
      "UR": 524,
      "Equal": 525,
      "ant": 526,
      "dex": 527,
      "mar": 528,
      "Vers": 529,
      "ams": 530,
      "sy": 531,
      "main": 532,
      "int64": 533,
      "pected": 534,
      "pkg": 535,
      "cur": 536,
      "ast": 537,
      "cont": 538,
      "count": 539,
      "ody": 540,
      "istr": 541,
      "ry": 542,
      "lete": 543,
      "work": 544,
      "make": 545,
      "ash": 546,
      "...": 547,
      "ute": 548,
      "Version": 549,
      "mpl": 550,
      "Message": 551,
      "Code": 552,
      "Not": 553,
      "one": 554,
      "20": 555,
      "col": 556,
      "buf": 557,
      "(&": 558,
      "cor": 559,
      "Met": 560,
      "----": 561,
      "req": 562,
      "append": 563,
      "model": 564,
      "Run": 565,
      "Is": 566,
      "require": 567,
      "proto": 568,
      "request": 569,
      "list": 570,
      "Clo": 571,
      "ild": 572,
      "em": 573,
      "Print": 574,
      "cal": 575,
      "IN": 576,
      "pes": 577,
      "ction": 578,
      "nt": 579,
      "Write": 580,
      "shal": 581,
      "comp": 582,
      "else": 583,
      "mit": 584,
      "ies": 585,
      "ln": 586,
      "ext": 587,
      "cript": 588,
      "Ac": 589,
      "IT": 590,
      "args": 591,
      "atal": 592,
      "Read": 593,
      "conn": 594,
      "default": 595,
      "iv": 596,
      "server": 597,
      "red": 598,
      "ly": 599,
      "util": 600,
      "Sh": 601,
      "Reg": 602,
      "sion": 603,
      "fil": 604,
      "reg": 605,
      "cmd": 606,
      "ach": 607,
      "uld": 608,
      "**": 609,
      "we": 610,
      "uration": 611,
      "Ar": 612,
      "ock": 613,
      "URL": 614,
      "Sprintf": 615,
      "expected": 616,
      "AP": 617,
      "wh": 618,
      "pace": 619,
      "ard": 620,
      "ber": 621,
      "response": 622,
      "\"\"": 623,
      "from": 624,
      "Handler": 625,
      "Qu": 626,
      "Fi": 627,
      "Cont": 628,
      "defer": 629,
      "ud": 630,
      "gin": 631,
      "read": 632,
      "own": 633,
      "Map": 634,
      "low": 635,
      "Ob": 636,
      "uster": 637,
      "Cl": 638,
      "ific": 639,
      "ive": 640,
      "thod": 641,
      "mon": 642,
      "under": 643,
      "ask": 644,
      "plic": 645,
      "loat": 646,
      "nal": 647,
      "Event": 648,
      "pos": 649,
      "Inter": 650,
      "that": 651,
      "riter": 652,
      "Command": 653,
      "AN": 654,
      "Int": 655,
      "rol": 656,
      "Conn": 657,
      "ou": 658,
      "amp": 659,
      "Auth": 660,
      "exp": 661,
      "Fatal": 662,
      "ref": 663,
      "Out": 664,
      "oken": 665,
      "nc": 666,
      "service": 667,
      "af": 668,
      "auth": 669,
      "ues": 670,
      "OR": 671,
      "://": 672,
      "Token": 673,
      "cond": 674,
      "Update": 675,
      "No": 676,
      "ations": 677,
      "Ro": 678,
      "At": 679,
      "Node": 680,
      "Field": 681,
      "vi": 682,
      "SE": 683,
      "State": 684,
      "{\"": 685,
      "ware": 686,
      "min": 687,
      "10": 688,
      "{})": 689,
      "fix": 690,
      "Println": 691,
      "ates": 692,
      "itempty": 693,
      "omitempty": 694,
      "spec": 695,
      "Des": 696,
      "returns": 697,
      "org": 698,
      "Group": 699,
      "ition": 700,
      "An": 701,
      "ain": 702,
      "ule": 703,
      "msg": 704,
      "ated": 705,
      "hand": 706,
      "{},": 707,
      "line": 708,
      "create": 709,
      "mock": 710,
      "flag": 711,
      "API": 712,
      "tok": 713,
      "point": 714,
      "ill": 715,
      "resp": 716,
      "Or": 717,
      "chan": 718,
      "fail": 719,
      "ify": 720,
      "ould": 721,
      "Close": 722,
      "url": 723,
      "Result": 724,
      "IS": 725,
      "types": 726,
      "ge": 727,
      "sub": 728,
      "From": 729,
      "field": 730,
      "su": 731,
      "sw": 732,
      "Header": 733,
      "AS": 734,
      "ert": 735,
      "Default": 736,
      "fg": 737,
      "Col": 738,
      "vid": 739,
      "Do": 740,
      "message": 741,
      "bytes": 742,
      "ep": 743,
      "amespace": 744,
      "All": 745,
      "Func": 746,
      "Size": 747,
      "].": 748,
      "token": 749,
      "word": 750,
      "ql": 751,
      "Valid": 752,
      "uint": 753,
      "Comp": 754,
      "pc": 755,
      "The": 756,
      "right": 757,
      "Flag": 758,
      "mis": 759,
      "logger": 760,
      "check": 761,
      "EN": 762,
      "const": 763,
      "Delete": 764,
      "Object": 765,
      "JS": 766,
      "core": 767,
      "clo": 768,
      "\"\",": 769,
      "Dir": 770,
      "ession": 771,
      "env": 772,
      "On": 773,
      "AR": 774,
      "Pre": 775,
      "Th": 776,
      "ha": 777,
      "Copy": 778,
      "ES": 779,
      "node": 780,
      "Sub": 781,
      "As": 782,
      "event": 783,
      "abel": 784,
      "ER": 785,
      "nel": 786,
      "vel": 787,
      "Resource": 788,
      "ded": 789,
      "tx": 790,
      "Of": 791,
      "JSON": 792,
      "DB": 793,
      "ml": 794,
      "ww": 795,
      "Options": 796,
      "Che": 797,
      "Le": 798,
      "gener": 799,
      "Arg": 800,
      "status": 801,
      "float": 802,
      "Po": 803,
      "Query": 804,
      "Check": 805,
      "Writer": 806,
      "ifi": 807,
      "br": 808,
      "Pl": 809,
      "so": 810,
      "cret": 811,
      "stance": 812,
      "back": 813,
      "&&": 814,
      "rap": 815,
      "ary": 816,
      "pre": 817,
      "Body": 818,
      "no": 819,
      "ayload": 820,
      "Ma": 821,
      "store": 822,
      "lement": 823,
      "mplate": 824,
      "Parse": 825,
      "istri": 826,
      "cord": 827,
      "rent": 828,
      "pect": 829,
      "Man": 830,
      "des": 831,
      "Spec": 832,
      "Fil": 833,
      "12": 834,
      "init": 835,
      "Op": 836,
      "HT": 837,
      "sr": 838,
      "<-": 839,
      "ink": 840,
      "ull": 841,
      "may": 842,
      "call": 843,
      "Me": 844,
      "ther": 845,
      "host": 846,
      "Trans": 847,
      "input": 848,
      "Output": 849,
      "App": 850,
      "chema": 851,
      "start": 852,
      "base": 853,
      "num": 854,
      "arget": 855,
      "ats": 856,
      "[\"": 857,
      "Cmd": 858,
      "End": 859,
      "ager": 860,
      "Form": 861,
      "sp": 862,
      "Printf": 863,
      "Bo": 864,
      "distri": 865,
      "IP": 866,
      "Mar": 867,
      "ubl": 868,
      "ream": 869,
      "ces": 870,
      "ning": 871,
      "UT": 872,
      "cept": 873,
      "ics": 874,
      "version": 875,
      "Index": 876,
      "Count": 877,
      "Mode": 878,
      "LI": 879,
      "Num": 880,
      "resource": 881,
      "cription": 882,
      "aws": 883,
      "marshal": 884,
      "Logger": 885,
      "ner": 886,
      "orage": 887,
      "dis": 888,
      "\"),": 889,
      "contain": 890,
      "copy": 891,
      "TP": 892,
      "],": 893,
      "ns": 894,
      "Address": 895,
      "action": 896,
      "ister": 897,
      "sd": 898,
      "state": 899,
      "ents": 900,
      "reflect": 901,
      "Sy": 902,
      "ding": 903,
      "Back": 904,
      "distribu": 905,
      "assword": 906,
      "bug": 907,
      "command": 908,
      "Chan": 909,
      "index": 910,
      "16": 911,
      "Bytes": 912,
      "8s": 913,
      "cre": 914,
      "cfg": 915,
      "Ret": 916,
      "Contain": 917,
      "TI": 918,
      "failed": 919,
      "sg": 920,
      "OF": 921,
      "Params": 922,
      "conv": 923,
      "vider": 924,
      "man": 925,
      "0000": 926,
      "sql": 927,
      "got": 928,
      "distributed": 929,
      "Len": 930,
      "Start": 931,
      "dat": 932,
      "Call": 933,
      "olic": 934,
      "Var": 935,
      "Tag": 936,
      "Fail": 937,
      "cry": 938,
      "query": 939,
      "Im": 940,
      "])": 941,
      "\"/": 942,
      "Su": 943,
      "Mock": 944,
      "(\"%": 945,
      "adata": 946,
      "Host": 947,
      "fin": 948,
      "Port": 949,
      "output": 950,
      "Store": 951,
      "ence": 952,
      "found": 953,
      "ages": 954,
      "Ite": 955,
      "float64": 956,
      "ection": 957,
      "ait": 958,
      "ker": 959,
      "applic": 960,
      "Per": 961,
      "Msg": 962,
      "k8s": 963,
      "sync": 964,
      "irect": 965,
      "anic": 966,
      "Block": 967,
      "runtime": 968,
      "rl": 969,
      "++": 970,
      "HTTP": 971,
      "av": 972,
      "Method": 973,
      "required": 974,
      "want": 975,
      "her": 976,
      "roller": 977,
      "sum": 978,
      "arch": 979,
      "params": 980,
      "0x6": 981,
      "sign": 982,
      "try": 983,
      "oft": 984,
      "abase": 985,
      "idd": 986,
      "but": 987,
      "coding": 988,
      "opts": 989,
      "cs": 990,
      "posit": 991,
      "limit": 992,
      "Dis": 993,
      "og": 994,
      "--------": 995,
      "Reader": 996,
      "update": 997,
      "ting": 998,
      "ree": 999,
      "Args": 1000,
      "common": 1001,
      "unction": 1002,
      "will": 1003,
      "models": 1004,
      "sions": 1005,
      "body": 1006,
      "you": 1007,
      "Buf": 1008,
      "should": 1009,
      "ugin": 1010,
      "Exec": 1011,
      "object": 1012,
      "Be": 1013,
      "sed": 1014,
      "Input": 1015,
      "values": 1016,
      "Cluster": 1017,
      "ample": 1018,
      "////": 1019,
      "ET": 1020,
      "*/": 1021,
      "itch": 1022,
      "trans": 1023,
      "Wor": 1024,
      "tc": 1025,
      "||": 1026,
      "tri": 1027,
      "Nil": 1028,
      "olicy": 1029,
      "kub": 1030,
      "open": 1031,
      "match": 1032,
      "sdk": 1033,
      "Lock": 1034,
      "tag": 1035,
      "strconv": 1036,
      "\"))": 1037,
      "fs": 1038,
      "current": 1039,
      "oin": 1040,
      "meta": 1041,
      "move": 1042,
      "lob": 1043,
      "info": 1044,
      "exec": 1045,
      "ses": 1046,
      "Content": 1047,
      "exist": 1048,
      "Env": 1049,
      "dir": 1050,
      "Account": 1051,
      "row": 1052,
      "ak": 1053,
      "group": 1054,
      "Max": 1055,
      "DO": 1056,
      "block": 1057,
      "max": 1058,
      "ual": 1059,
      "old": 1060,
      "ne": 1061,
      "mail": 1062,
      "Marshal": 1063,
      "source": 1064,
      "Addr": 1065,
      "Sign": 1066,
      "lice": 1067,
      "Copyright": 1068,
      "ices": 1069,
      "Unmarshal": 1070,
      "led": 1071,
      "cluster": 1072,
      "/*": 1073,
      "TO": 1074,
      "Fo": 1075,
      "Base": 1076,
      "Hash": 1077,
      "outil": 1078,
      "Pack": 1079,
      "gth": 1080,
      "oftware": 1081,
      "ioutil": 1082,
      "We": 1083,
      "Format": 1084,
      "hel": 1085,
      "Image": 1086,
      "\"]": 1087,
      "ho": 1088,
      "Text": 1089,
      "build": 1090,
      "cli": 1091,
      "ave": 1092,
      "aml": 1093,
      "ilder": 1094,
      "root": 1095,
      "\"},": 1096,
      "https": 1097,
      "Source": 1098,
      "panic": 1099,
      "Namespace": 1100,
      "_id": 1101,
      "Duration": 1102,
      "options": 1103,
      "hash": 1104,
      "25": 1105,
      "Net": 1106,
      "size": 1107,
      "Init": 1108,
      "sing": 1109,
      "riv": 1110,
      "Gener": 1111,
      "Level": 1112,
      "writ": 1113,
      "raw": 1114,
      "used": 1115,
      "internal": 1116,
      "Expect": 1117,
      "orm": 1118,
      "mod": 1119,
      "WAR": 1120,
      "est": 1121,
      "Ext": 1122,
      "cel": 1123,
      "Task": 1124,
      "[]*": 1125,
      "...)": 1126,
      "method": 1127,
      "switch": 1128,
      "ply": 1129,
      "Exp": 1130,
      "utils": 1131,
      "image": 1132,
      "ish": 1133,
      "Label": 1134,
      "ts": 1135,
      "Timeout": 1136,
      "Table": 1137,
      "loy": 1138,
      "Prefix": 1139,
      "cache": 1140,
      "filepath": 1141,
      "Second": 1142,
      "Option": 1143,
      "Join": 1144,
      "ux": 1145,
      "angu": 1146,
      "OK": 1147,
      "CON": 1148,
      "fr": 1149,
      "tt": 1150,
      "cket": 1151,
      "\").": 1152,
      "AT": 1153,
      "pository": 1154,
      "ong": 1155,
      "ix": 1156,
      "format": 1157,
      "iddle": 1158,
      "Register": 1159,
      "its": 1160,
      "schema": 1161,
      "Open": 1162,
      "****": 1163,
      "ublic": 1164,
      "bin": 1165,
      "dep": 1166,
      "my": 1167,
      "See": 1168,
      "Flags": 1169,
      "ff": 1170,
      "Manager": 1171,
      "xy": 1172,
      "ST": 1173,
      "LIC": 1174,
      "Meta": 1175,
      "ors": 1176,
      "NoError": 1177,
      "iven": 1178,
      "Fatalf": 1179,
      "stem": 1180,
      "anguage": 1181,
      "Send": 1182,
      "(\"/": 1183,
      "HO": 1184,
      "istry": 1185,
      "Buffer": 1186,
      "Debug": 1187,
      "project": 1188,
      "round": 1189,
      "conf": 1190,
      "irst": 1191,
      "Payload": 1192,
      "yaml": 1193,
      "address": 1194,
      "metr": 1195,
      "has": 1196,
      "ccess": 1197,
      "src": 1198,
      "local": 1199,
      "oper": 1200,
      "ument": 1201,
      "encoding": 1202,
      "uint64": 1203,
      "ls": 1204,
      "0x7": 1205,
      "DIT": 1206,
      "Cache": 1207,
      "Mem": 1208,
      "If": 1209,
      "And": 1210,
      "Std": 1211,
      "Found": 1212,
      "This": 1213,
      "0x0": 1214,
      "Mod": 1215,
      "addr": 1216,
      "Post": 1217,
      "target": 1218,
      "pb": 1219,
      "Metr": 1220,
      "Wrap": 1221,
      "cation": 1222,
      "handler": 1223,
      "ume": 1224,
      "LICEN": 1225,
      "Secret": 1226,
      "ustom": 1227,
      "LICENSE": 1228,
      "Go": 1229,
      "less": 1230,
      "Use": 1231,
      "les": 1232,
      "cr": 1233,
      "pres": 1234,
      "Session": 1235,
      "enc": 1236,
      "Cert": 1237,
      "specific": 1238,
      "last": 1239,
      "when": 1240,
      "task": 1241,
      "item": 1242,
      "v2": 1243,
      "function": 1244,
      "session": 1245,
      "Now": 1246,
      "given": 1247,
      "Item": 1248,
      "fset": 1249,
      "permis": 1250,
      "coder": 1251,
      "ved": 1252,
      "EC": 1253,
      "\");": 1254,
      "Min": 1255,
      "ca": 1256,
      "Handle": 1257,
      "uid": 1258,
      "Dep": 1259,
      "mem": 1260,
      "files": 1261,
      "bs": 1262,
      "Provider": 1263,
      "gover": 1264,
      "11": 1265,
      "rand": 1266,
      "Load": 1267,
      "ters": 1268,
      "ipe": 1269,
      "Template": 1270,
      "int32": 1271,
      "table": 1272,
      "201": 1273,
      "ib": 1274,
      "====": 1275,
      "pul": 1276,
      "www": 1277,
      "obj": 1278,
      "instance": 1279,
      "oriz": 1280,
      "vices": 1281,
      ".(": 1282,
      "fake": 1283,
      "OT": 1284,
      "inue": 1285,
      "kn": 1286,
      "play": 1287,
      "Action": 1288,
      "grpc": 1289,
      "Oper": 1290,
      "Instance": 1291,
      "iddleware": 1292,
      "alp": 1293,
      "bra": 1294,
      "entity": 1295,
      "ified": 1296,
      "send": 1297,
      "part": 1298,
      "Match": 1299,
      "parse": 1300,
      "etail": 1301,
      "ground": 1302,
      "You": 1303,
      "100": 1304,
      "write": 1305,
      "ick": 1306,
      "Apache": 1307,
      "cloud": 1308,
      "sup": 1309,
      "namespace": 1310,
      "language": 1311,
      "any": 1312,
      "Job": 1313,
      "itle": 1314,
      "RAN": 1315,
      "direct": 1316,
      "lease": 1317,
      "stack": 1318,
      "rout": 1319,
      "Return": 1320,
      "print": 1321,
      "olume": 1322,
      "Endpoint": 1323,
      "content": 1324,
      "gol": 1325,
      "AC": 1326,
      "lied": 1327,
      "Policy": 1328,
      "ources": 1329,
      "way": 1330,
      "Date": 1331,
      "ature": 1332,
      "();": 1333,
      "ide": 1334,
      "ANY": 1335,
      "Record": 1336,
      "WIT": 1337,
      "fl": 1338,
      "ush": 1339,
      "Values": 1340,
      "Hel": 1341,
      "continue": 1342,
      "software": 1343,
      "ION": 1344,
      "Channel": 1345,
      "ename": 1346,
      "plit": 1347,
      "express": 1348,
      "Ver": 1349,
      "cobra": 1350,
      "ither": 1351,
      "next": 1352,
      "inst": 1353,
      "Ref": 1354,
      "template": 1355,
      "secret": 1356,
      "stream": 1357,
      "database": 1358,
      "Unlock": 1359,
      "Number": 1360,
      "Validate": 1361,
      "Build": 1362,
      "lection": 1363,
      "oc": 1364,
      "Filter": 1365,
      "\"}": 1366,
      "job": 1367,
      "golang": 1368,
      "ogle": 1369,
      "alpha": 1370,
      "down": 1371,
      "account": 1372,
      "storage": 1373,
      "WARRAN": 1374,
      "Fields": 1375,
      "Find": 1376,
      "licen": 1377,
      "Interface": 1378,
      "ential": 1379,
      "AM": 1380,
      "writing": 1381,
      "Project": 1382,
      "either": 1383,
      "gen": 1384,
      "stamp": 1385,
      "obtain": 1386,
      "Wait": 1387,
      "cert": 1388,
      "Act": 1389,
      "delete": 1390,
      "process": 1391,
      "except": 1392,
      "Tx": 1393,
      "Pool": 1394,
      "Cur": 1395,
      "licenses": 1396,
      "river": 1397,
      "IND": 1398,
      "Rout": 1399,
      "ateg": 1400,
      "ss": 1401,
      "umi": 1402,
      "Metadata": 1403,
      "number": 1404,
      "Kind": 1405,
      "Failed": 1406,
      "200": 1407,
      "label": 1408,
      "permissions": 1409,
      "generated": 1410,
      "ie": 1411,
      "Entry": 1412,
      "implement": 1413,
      "ments": 1414,
      "plugin": 1415,
      "Stream": 1416,
      "vis": 1417,
      "Network": 1418,
      "mote": 1419,
      "liance": 1420,
      "orted": 1421,
      "cryp": 1422,
      "ds": 1423,
      "Access": 1424,
      "repo": 1425,
      "invalid": 1426,
      "Password": 1427,
      "It": 1428,
      "vc": 1429,
      "Ag": 1430,
      "ifier": 1431,
      "met": 1432,
      "network": 1433,
      "utex": 1434,
      "container": 1435,
      "Has": 1436,
      "Container": 1437,
      "Storage": 1438,
      "E_": 1439,
      "Proto": 1440,
      "uint32": 1441,
      "Background": 1442,
      "Dat": 1443,
      "sel": 1444,
      "ResponseWriter": 1445,
      "lector": 1446,
      "Exist": 1447,
      "du": 1448,
      "sumer": 1449,
      "AL": 1450,
      "second": 1451,
      "fore": 1452,
      "Invalid": 1453,
      "pic": 1454,
      "header": 1455,
      "lib": 1456,
      "channel": 1457,
      "cribe": 1458,
      "other": 1459,
      "rivate": 1460,
      "TIES": 1461,
      "pod": 1462,
      "logr": 1463,
      "pulumi": 1464,
      "WARRANTIES": 1465,
      "apache": 1466,
      "pare": 1467,
      "Internal": 1468,
      "payload": 1469,
      "ched": 1470,
      "lean": 1471,
      "di": 1472,
      "doc": 1473,
      "HOUT": 1474,
      "WITHOUT": 1475,
      "+=": 1476,
      "Next": 1477,
      "password": 1478,
      "Remove": 1479,
      "KIND": 1480,
      "Bool": 1481,
      "ps": 1482,
      "xml": 1483,
      "NotFound": 1484,
      "lem": 1485,
      "must": 1486,
      "sys": 1487,
      "Encode": 1488,
      "Licensed": 1489,
      "Description": 1490,
      "Controller": 1491,
      "TODO": 1492,
      "Model": 1493,
      "fields": 1494,
      "redential": 1495,
      "}}": 1496,
      "compliance": 1497,
      "Process": 1498,
      "very": 1499,
      "reed": 1500,
      "Pod": 1501,
      "Lim": 1502,
      "az": 1503,
      "Arr": 1504,
      "ero": 1505,
      "umn": 1506,
      "ens": 1507,
      "BAS": 1508,
      "chain": 1509,
      "have": 1510,
      "Unless": 1511,
      "80": 1512,
      "\".": 1513,
      "ich": 1514,
      "applicable": 1515,
      "ren": 1516,
      "Slice": 1517,
      "13": 1518,
      "empty": 1519,
      "Role": 1520,
      "ee": 1521,
      "law": 1522,
      "Exit": 1523,
      "place": 1524,
      "endpoint": 1525,
      "BASIS": 1526,
      "implied": 1527,
      "Order": 1528,
      "limitations": 1529,
      "domain": 1530,
      "filter": 1531,
      "governing": 1532,
      "ules": 1533,
      "ference": 1534,
      "sc": 1535,
      "Should": 1536,
      "lobal": 1537,
      "agreed": 1538,
      "Page": 1539,
      "`,": 1540,
      "DITION": 1541,
      "air": 1542,
      ".(*": 1543,
      "odes": 1544,
      "was": 1545,
      "Row": 1546,
      "math": 1547,
      "Tri": 1548,
      "CONDITION": 1549,
      "50": 1550,
      "kube": 1551,
      "post": 1552,
      "logrus": 1553,
      "CONDITIONS": 1554,
      "24": 1555,
      "ines": 1556,
      "ake": 1557,
      "Decode": 1558,
      "Connection": 1559,
      "duct": 1560,
      "Que": 1561,
      "ating": 1562,
      "record": 1563,
      "v1alpha": 1564,
      "Line": 1565,
      "git": 1566,
      "abled": 1567,
      "\\\"": 1568,
      "rece": 1569,
      "Bad": 1570,
      "tings": 1571,
      "etch": 1572,
      "mark": 1573,
      "GET": 1574,
      "DE": 1575,
      "igin": 1576,
      "TL": 1577,
      "Target": 1578,
      "aders": 1579,
      "Must": 1580,
      "Can": 1581,
      "Builder": 1582,
      "validate": 1583,
      "temp": 1584,
      "first": 1585,
      "view": 1586,
      "{{": 1587,
      "mb": 1588,
      "entry": 1589,
      "itor": 1590,
      "Names": 1591,
      "Url": 1592,
      "order": 1593,
      "RE": 1594,
      "cp": 1595,
      "only": 1596,
      "Repository": 1597,
      "(`": 1598,
      "known": 1599,
      "iter": 1600,
      "bre": 1601,
      "keys": 1602,
      "Work": 1603,
      "gine": 1604,
      "RO": 1605,
      "crypt": 1606,
      "repres": 1607,
      "ft": 1608,
      "timeout": 1609,
      "Stat": 1610,
      "unter": 1611,
      "creates": 1612,
      "connect": 1613,
      "google": 1614,
      "level": 1615,
      "iron": 1616,
      "application": 1617,
      "ypes": 1618,
      "PO": 1619,
      "std": 1620,
      "Raw": 1621,
      "CP": 1622,
      "queue": 1623,
      "tal": 1624,
      "ification": 1625,
      "page": 1626,
      "0x2": 1627,
      "0x4": 1628,
      "cd": 1629,
      "Device": 1630,
      "buffer": 1631,
      "Pos": 1632,
      "link": 1633,
      "tests": 1634,
      "Us": 1635,
      "Repo": 1636,
      "Root": 1637,
      "UID": 1638,
      "metadata": 1639,
      "atter": 1640,
      "controller": 1641,
      "01": 1642,
      "Link": 1643,
      "actual": 1644,
      "prefix": 1645,
      "Schema": 1646,
      "which": 1647,
      "Param": 1648,
      "Rule": 1649,
      "xx": 1650,
      "Registry": 1651,
      "Scan": 1652,
      "ful": 1653,
      "}()": 1654,
      "__": 1655,
      "33": 1656,
      "ocket": 1657,
      "methe": 1658,
      "configuration": 1659,
      "pr": 1660,
      "ayer": 1661,
      "dev": 1662,
      "web": 1663,
      "metheus": 1664,
      "chr": 1665,
      "Inf": 1666,
      "Public": 1667,
      "Mo": 1668,
      "defin": 1669,
      "ally": 1670,
      "foo": 1671,
      "aces": 1672,
      "Mon": 1673,
      "Conf": 1674,
      "handle": 1675,
      "Stop": 1676,
      "cer": 1677,
      "kip": 1678,
      "alth": 1679,
      "Vi": 1680,
      "nap": 1681,
      "self": 1682,
      "Float": 1683,
      "[:": 1684,
      "does": 1685,
      "Ctx": 1686,
      "Split": 1687,
      "afe": 1688,
      "Empty": 1689,
      "ases": 1690,
      "arr": 1691,
      "PC": 1692,
      "ernet": 1693,
      "NOT": 1694,
      "Length": 1695,
      "15": 1696,
      "Fact": 1697,
      "ped": 1698,
      "Array": 1699,
      "v1alpha1": 1700,
      "ernetes": 1701,
      "zap": 1702,
      "sets": 1703,
      "break": 1704,
      "da": 1705,
      "99": 1706,
      "crypto": 1707,
      "Require": 1708,
      "here": 1709,
      "essages": 1710,
      "resh": 1711,
      ")(": 1712,
      "XX": 1713,
      "Part": 1714,
      "Package": 1715,
      "grap": 1716,
      "loyment": 1717,
      "flow": 1718,
      "Put": 1719,
      "indow": 1720,
      "mary": 1721,
      "ctrl": 1722,
      "vert": 1723,
      "////////": 1724,
      "connection": 1725,
      "graph": 1726,
      "ED": 1727,
      "formation": 1728,
      "ificate": 1729,
      "Bind": 1730,
      "Assert": 1731,
      "ializ": 1732,
      "ph": 1733,
      "close": 1734,
      "Api": 1735,
      "Local": 1736,
      "char": 1737,
      ":\",": 1738,
      "option": 1739,
      "now": 1740,
      "Configuration": 1741,
      "swag": 1742,
      "access": 1743,
      "ell": 1744,
      "ere": 1745,
      "Mutex": 1746,
      "Sum": 1747,
      "Last": 1748,
      "html": 1749,
      "Usage": 1750,
      "V1": 1751,
      "fe": 1752,
      "ialize": 1753,
      "Point": 1754,
      "ging": 1755,
      "ative": 1756,
      "Serve": 1757,
      "ld": 1758,
      "Volume": 1759,
      "Detail": 1760,
      "cc": 1761,
      "aut": 1762,
      "aim": 1763,
      "tmp": 1764,
      "length": 1765,
      "ins": 1766,
      "clu": 1767,
      "hook": 1768,
      "ev": 1769,
      "Domain": 1770,
      "Attri": 1771,
      "rel": 1772,
      "----------------": 1773,
      "example": 1774,
      "pool": 1775,
      "War": 1776,
      "into": 1777,
      "metrics": 1778,
      "onent": 1779,
      "provider": 1780,
      "ia": 1781,
      "ready": 1782,
      "bet": 1783,
      "Route": 1784,
      "router": 1785,
      "dock": 1786,
      "structure": 1787,
      "Queue": 1788,
      "total": 1789,
      "okup": 1790,
      "Connect": 1791,
      "Limit": 1792,
      "ING": 1793,
      "Web": 1794,
      "iff": 1795,
      "plication": 1796,
      "entic": 1797,
      "bit": 1798,
      "loc": 1799,
      "stop": 1800,
      "ironment": 1801,
      "Ed": 1802,
      "Struct": 1803,
      "Transaction": 1804,
      "username": 1805,
      "cancel": 1806,
      "docker": 1807,
      "cheme": 1808,
      "ateway": 1809,
      "Ent": 1810,
      "sl": 1811,
      "metav1": 1812,
      "Cond": 1813,
      "generate": 1814,
      "AB": 1815,
      "sm": 1816,
      "Contains": 1817,
      "0x00": 1818,
      "Search": 1819,
      "cope": 1820,
      "Metric": 1821,
      "non": 1822,
      "prometheus": 1823,
      "cap": 1824,
      "Req": 1825,
      "Subs": 1826,
      "ameters": 1827,
      "Imp": 1828,
      "bucket": 1829,
      "allow": 1830,
      "Fr": 1831,
      "shot": 1832,
      "Doc": 1833,
      "binary": 1834,
      "created": 1835,
      "anch": 1836,
      "ug": 1837,
      "select": 1838,
      "Keys": 1839,
      "Color": 1840,
      "wait": 1841,
      "Kub": 1842,
      "bl": 1843,
      "exists": 1844,
      "34": 1845,
      "30": 1846,
      "Files": 1847,
      "Router": 1848,
      "find": 1849,
      "QL": 1850,
      "pert": 1851,
      "256": 1852,
      "mult": 1853,
      "rs": 1854,
      "cho": 1855,
      "search": 1856,
      "flags": 1857,
      "apis": 1858,
      ":%": 1859,
      "Database": 1860,
      "mount": 1861,
      "some": 1862,
      "Inst": 1863,
      "filename": 1864,
      "gram": 1865,
      "success": 1866,
      "So": 1867,
      "Bucket": 1868,
      "sort": 1869,
      "older": 1870,
      "Cloud": 1871,
      "ender": 1872,
      "Ident": 1873,
      "Opts": 1874,
      "formats": 1875,
      "protocol": 1876,
      "stat": 1877,
      "safe": 1878,
      "ables": 1879,
      "rest": 1880,
      "SS": 1881,
      "perties": 1882,
      "##": 1883,
      "Plugin": 1884,
      "Stack": 1885,
      "rc": 1886,
      "T_": 1887,
      "results": 1888,
      "19": 1889,
      "pri": 1890,
      "Email": 1891,
      "EX": 1892,
      "ailable": 1893,
      "thing": 1894,
      "returned": 1895,
      "]*": 1896,
      "ra": 1897,
      "Expected": 1898,
      "TH": 1899,
      "color": 1900,
      "tool": 1901,
      "Created": 1902,
      "wg": 1903,
      "=%": 1904,
      "authoriz": 1905,
      "napshot": 1906,
      "writer": 1907,
      "40": 1908,
      "igr": 1909,
      "scan": 1910,
      "gress": 1911,
      "WriteString": 1912,
      "ameter": 1913,
      ".\")": 1914,
      "achine": 1915,
      "idth": 1916,
      "lers": 1917,
      "mer": 1918,
      "manager": 1919,
      "gor": 1920,
      "Af": 1921,
      "redentials": 1922,
      "device": 1923,
      "Ptr": 1924,
      "Success": 1925,
      "0x5": 1926,
      "Types": 1927,
      "description": 1928,
      "Resol": 1929,
      "BadRequest": 1930,
      "Report": 1931,
      "ServerError": 1932,
      "Tags": 1933,
      "Ho": 1934,
      "change": 1935,
      "redis": 1936,
      "uuid": 1937,
      "fn": 1938,
      ")))": 1939,
      "middleware": 1940,
      "rpc": 1941,
      "Del": 1942,
      "builder": 1943,
      "Deep": 1944,
      "names": 1945,
      "StatusCode": 1946,
      "events": 1947,
      "proxy": 1948,
      "ility": 1949,
      "Mult": 1950,
      "Bin": 1951,
      "NS": 1952,
      "Describe": 1953,
      "IL": 1954,
      "\"\\": 1955,
      "Pr": 1956,
      "license": 1957,
      "param": 1958,
      "gorm": 1959,
      "erved": 1960,
      "21": 1961,
      "provi": 1962,
      "ported": 1963,
      "********": 1964,
      "Pe": 1965,
      "slice": 1966,
      "_name": 1967,
      "Stats": 1968,
      "\"+": 1969,
      "\"-": 1970,
      "Custom": 1971,
      "offset": 1972,
      "unk": 1973,
      "a1": 1974,
      "View": 1975,
      "otal": 1976,
      "ures": 1977,
      "ination": 1978,
      "asic": 1979,
      "Operation": 1980,
      "ui": 1981,
      "bute": 1982,
      "ci": 1983,
      "True": 1984,
      "ifest": 1985,
      "driver": 1986,
      "curity": 1987,
      "bers": 1988,
      "dest": 1989,
      "22": 1990,
      "ipeline": 1991,
      "there": 1992,
      "stret": 1993,
      "system": 1994,
      ")),": 1995,
      "Items": 1996,
      "Timestamp": 1997,
      "corder": 1998,
      "vm": 1999,
      "Title": 2000,
      "help": 2001,
      "Factory": 2002,
      "dr": 2003,
      "leted": 2004,
      "tls": 2005,
      "register": 2006,
      "InternalServerError": 2007,
      "Commit": 2008,
      "debug": 2009,
      "Class": 2010,
      "using": 2011,
      "testify": 2012,
      "cent": 2013,
      "suite": 2014,
      "Trim": 2015,
      "parent": 2016,
      "vari": 2017,
      "stretchr": 2018,
      "custom": 2019,
      "sig": 2020,
      "mission": 2021,
      "bar": 2022,
      "ont": 2023,
      "Metrics": 2024,
      "Done": 2025,
      "ade": 2026,
      "route": 2027,
      "need": 2028,
      "metric": 2029,
      "email": 2030,
      "idx": 2031,
      "Location": 2032,
      "vision": 2033,
      "users": 2034,
      "rows": 2035,
      "tags": 2036,
      ">=": 2037,
      "Entity": 2038,
      "ible": 2039,
      "iver": 2040,
      "Enum": 2041,
      "consumer": 2042,
      "regexp": 2043,
      "space": 2044,
      "Listen": 2045,
      "criptor": 2046,
      "ersist": 2047,
      "(%": 2048,
      "ency": 2049,
      "ities": 2050,
      "Offset": 2051,
      "ason": 2052,
      "TLS": 2053,
      "tract": 2054,
      "bot": 2055,
      "ublish": 2056,
      "conc": 2057,
      "directory": 2058,
      "Labels": 2059,
      "cip": 2060,
      "box": 2061,
      "yn": 2062,
      "0x8": 2063,
      "WS": 2064,
      "ian": 2065,
      "dst": 2066,
      "'%": 2067,
      "Rece": 2068,
      "SQL": 2069,
      "yle": 2070,
      "Space": 2071,
      "Agent": 2072,
      "Chain": 2073,
      "System": 2074,
      "svc": 2075,
      "mux": 2076,
      "Element": 2077,
      "Range": 2078,
      "Down": 2079,
      "Proxy": 2080,
      "aa": 2081,
      "Desc": 2082,
      "ived": 2083,
      "services": 2084,
      "admin": 2085,
      "Generate": 2086,
      "tw": 2087,
      "(\"[": 2088,
      "Short": 2089,
      "subs": 2090,
      "ws": 2091,
      "Null": 2092,
      "big": 2093,
      "perty": 2094,
      "specified": 2095,
      "viper": 2096,
      "ution": 2097,
      "imple": 2098,
      "Current": 2099,
      "sec": 2100,
      "Total": 2101,
      "Dial": 2102,
      "ten": 2103,
      "swagger": 2104,
      "Sync": 2105,
      "Infof": 2106,
      "Ht": 2107,
      "leep": 2108,
      "bind": 2109,
      "Cap": 2110,
      "=\"": 2111,
      "items": 2112,
      "ical": 2113,
      "done": 2114,
      "Ste": 2115,
      "AD": 2116,
      "mode": 2117,
      "pass": 2118,
      "reader": 2119,
      "After": 2120,
      "agent": 2121,
      "Fe": 2122,
      "RPC": 2123,
      "Execute": 2124,
      "ank": 2125,
      "ML": 2126,
      "ategory": 2127,
      "ift": 2128,
      "public": 2129,
      "srv": 2130,
      "watch": 2131,
      "mu": 2132,
      "CO": 2133,
      "ared": 2134,
      "</": 2135,
      "uments": 2136,
      "wrap": 2137,
      "Username": 2138,
      "syscall": 2139,
      "Case": 2140,
      "attern": 2141,
      "Unix": 2142,
      "Org": 2143,
      "implements": 2144,
      "Lookup": 2145,
      "Profile": 2146,
      "/%": 2147,
      "cle": 2148,
      "expect": 2149,
      "tach": 2150,
      "represents": 2151,
      "ise": 2152,
      "14": 2153,
      "Fl": 2154,
      "Json": 2155,
      "origin": 2156,
      "patch": 2157,
      "POST": 2158,
      "information": 2159,
      "ater": 2160,
      "Module": 2161,
      "inv": 2162,
      "Wh": 2163,
      "StatusOK": 2164,
      "stats": 2165,
      "def": 2166,
      "Required": 2167,
      "Interval": 2168,
      "achin": 2169,
      "UL": 2170,
      "apim": 2171,
      "ECT": 2172,
      "remote": 2173,
      "lab": 2174,
      "role": 2175,
      "\":\"": 2176,
      "atform": 2177,
      "achinery": 2178,
      "resources": 2179,
      "title": 2180,
      "HER": 2181,
      "Allow": 2182,
      "<=": 2183,
      "apping": 2184,
      "location": 2185,
      "========": 2186,
      "backend": 2187,
      "Replace": 2188,
      "Fin": 2189,
      "CS": 2190,
      "Application": 2191,
      "Resp": 2192,
      "after": 2193,
      "Private": 2194,
      "Middleware": 2195,
      "Exists": 2196,
      "v3": 2197,
      "Watch": 2198,
      "frame": 2199,
      "Inv": 2200,
      "IG": 2201,
      "contains": 2202,
      "registry": 2203,
      "SD": 2204,
      "ward": 2205,
      "Inc": 2206,
      "Byte": 2207,
      "Tim": 2208,
      "ident": 2209,
      "policy": 2210,
      "corev1": 2211,
      "LO": 2212,
      "ization": 2213,
      "element": 2214,
      "ptr": 2215,
      "over": 2216,
      "18": 2217,
      "control": 2218,
      "apimachinery": 2219,
      "itions": 2220,
      "board": 2221,
      "_P": 2222,
      "Ali": 2223,
      "Pointer": 2224,
      "Save": 2225,
      "Direct": 2226,
      "ernal": 2227,
      "0x9": 2228,
      "Reset": 2229,
      "gn": 2230,
      "more": 2231,
      "clude": 2232,
      "repository": 2233,
      "Admin": 2234,
      "Suite": 2235,
      "rect": 2236,
      "ping": 2237,
      "operator": 2238,
      "];": 2239,
      "provided": 2240,
      "One": 2241,
      "kubernetes": 2242,
      "Settings": 2243,
      "irt": 2244,
      "Verify": 2245,
      "Login": 2246,
      "array": 2247,
      "report": 2248,
      "operation": 2249,
      "Sched": 2250,
      "\"\")": 2251,
      "Getenv": 2252,
      "Bal": 2253,
      "Batch": 2254,
      "oll": 2255,
      "00000000": 2256,
      "UUID": 2257,
      "child": 2258,
      "Change": 2259,
      "Ow": 2260,
      "printf": 2261,
      "Certificate": 2262,
      "off": 2263,
      "rule": 2264,
      "ote": 2265,
      "tree": 2266,
      "CH": 2267,
      "Br": 2268,
      "global": 2269,
      "Gr": 2270,
      "Reference": 2271,
      "wt": 2272,
      "Http": 2273,
      "ension": 2274,
      "nodes": 2275,
      "Int64": 2276,
      "wer": 2277,
      "peer": 2278,
      "Uint": 2279,
      "Descriptor": 2280,
      "Sup": 2281,
      "Packet": 2282,
      "):": 2283,
      "anges": 2284,
      "ollow": 2285,
      "Column": 2286,
      "Aut": 2287,
      ".\",": 2288,
      "headers": 2289,
      "card": 2290,
      "Ph": 2291,
      "Rand": 2292,
      "Make": 2293,
      "Any": 2294,
      "trace": 2295,
      "Collection": 2296,
      "pub": 2297,
      "Insert": 2298,
      ")\",": 2299,
      ")).": 2300,
      "messages": 2301,
      "impl": 2302,
      "kv": 2303,
      "Condition": 2304,
      "pg": 2305,
      "Db": 2306,
      "module": 2307,
      "ented": 2308,
      "remove": 2309,
      "Attr": 2310,
      "Av": 2311,
      "lex": 2312,
      "parser": 2313,
      "Tree": 2314,
      "atest": 2315,
      "Sw": 2316,
      "Cal": 2317,
      "Gen": 2318,
      "rights": 2319,
      "EM": 2320,
      "protobuf": 2321,
      "ffix": 2322,
      "ObjectMeta": 2323,
      "illi": 2324,
      "v4": 2325,
      "Function": 2326,
      "Counter": 2327,
      "Height": 2328,
      "56": 2329,
      "Iter": 2330,
      "tcp": 2331,
      "logging": 2332,
      "ract": 2333,
      "topic": 2334,
      "Rate": 2335,
      "Stderr": 2336,
      "sue": 2337,
      "rw": 2338,
      "Protocol": 2339,
      "encode": 2340,
      "Product": 2341,
      "strfmt": 2342,
      "[%": 2343,
      "ances": 2344,
      "}{": 2345,
      "([]*": 2346,
      "Obj": 2347,
      "covery": 2348,
      "THE": 2349,
      "ique": 2350,
      "mr": 2351,
      "Binary": 2352,
      "labels": 2353,
      "respon": 2354,
      "ench": 2355,
      "`)": 2356,
      "Remote": 2357,
      "zero": 2358,
      "provid": 2359,
      "bson": 2360,
      "cover": 2361,
      "Trace": 2362,
      "Transport": 2363,
      "engine": 2364,
      "private": 2365,
      "OS": 2366,
      "butes": 2367,
      "ince": 2368,
      "Region": 2369,
      "updated": 2370,
      "okie": 2371,
      "prev": 2372,
      "cast": 2373,
      "iod": 2374,
      "Fprintf": 2375,
      "_test": 2376,
      "Rel": 2377,
      "let": 2378,
      "authorized": 2379,
      "First": 2380,
      "0xb": 2381,
      "book": 2382,
      "logs": 2383,
      "greg": 2384,
      "0xc": 2385,
      "ries": 2386,
      "AWS": 2387,
      "ster": 2388,
      "ories": 2389,
      "Details": 2390,
      "day": 2391,
      "roker": 2392,
      "resol": 2393,
      "Events": 2394,
      "AG": 2395,
      "commit": 2396,
      "could": 2397,
      "igh": 2398,
      "TION": 2399,
      "ka": 2400,
      "Before": 2401,
      "CR": 2402,
      "column": 2403,
      "Deployment": 2404,
      "requests": 2405,
      "cted": 2406,
      "lines": 2407,
      "icro": 2408,
      "oy": 2409,
      "inte": 2410,
      "()))": 2411,
      "plan": 2412,
      "Enabled": 2413,
      "ids": 2414,
      "decode": 2415,
      "Authors": 2416,
      "Peer": 2417,
      "ability": 2418,
      "available": 2419,
      "Sleep": 2420,
      "IDs": 2421,
      "Fake": 2422,
      "reserved": 2423,
      "Git": 2424,
      "000": 2425,
      "Errors": 2426,
      "step": 2427,
      "Memory": 2428,
      "before": 2429,
      "ected": 2430,
      "0x3": 2431,
      "Encoder": 2432,
      "UN": 2433,
      "actions": 2434,
      "',": 2435,
      "Control": 2436,
      "igger": 2437,
      "Stdout": 2438,
      "Vari": 2439,
      "17": 2440,
      "then": 2441,
      "supported": 2442,
      "{}{": 2443,
      "signal": 2444,
      "Import": 2445,
      "Release": 2446,
      "mongo": 2447,
      "unsafe": 2448,
      "Users": 2449,
      "URI": 2450,
      "Child": 2451,
      "].(": 2452,
      "si": 2453,
      "_proto": 2454,
      "Software": 2455,
      "Temp": 2456,
      "errs": 2457,
      "Recorder": 2458,
      "Topic": 2459,
      "packet": 2460,
      "SH": 2461,
      "Push": 2462,
      "ority": 2463,
      "transaction": 2464,
      "Pri": 2465,
      "Authoriz": 2466,
      "cannot": 2467,
      "KE": 2468,
      "zip": 2469,
      "Fetch": 2470,
      "Returns": 2471,
      "Pair": 2472,
      "Warn": 2473,
      "kind": 2474,
      "Validator": 2475,
      "0xe": 2476,
      "Append": 2477,
      "Scheme": 2478,
      "IM": 2479,
      "Decoder": 2480,
      "ending": 2481,
      "class": 2482,
      "Render": 2483,
      "HandlerFunc": 2484,
      "called": 2485,
      "dns": 2486,
      "Cre": 2487,
      "product": 2488,
      "Consumer": 2489,
      "Ter": 2490,
      "60": 2491,
      "timestamp": 2492,
      "Global": 2493,
      "tim": 2494,
      "Art": 2495,
      "rie": 2496,
      "NewReader": 2497,
      "region": 2498,
      "cons": 2499,
      "istory": 2500,
      "setup": 2501,
      "Skip": 2502,
      "ord": 2503,
      "already": 2504,
      "X_": 2505,
      "detail": 2506,
      "uint8": 2507,
      "fetch": 2508,
      "%+": 2509,
      "0xd": 2510,
      "Mer": 2511,
      "2020": 2512,
      "aims": 2513,
      "Have": 2514,
      "Owner": 2515,
      "active": 2516,
      "gl": 2517,
      "ota": 2518,
      "Right": 2519,
      "LE": 2520,
      "Fn": 2521,
      "fact": 2522,
      "leg": 2523,
      "Listener": 2524,
      "renc": 2525,
      ")-": 2526,
      "ired": 2527,
      "uint16": 2528,
      "Example": 2529,
      "NewRequest": 2530,
      "My": 2531,
      "been": 2532,
      "IC": 2533,
      "without": 2534,
      "batch": 2535,
      "Amount": 2536,
      "0xf": 2537,
      "document": 2538,
      "wr": 2539,
      "mbol": 2540,
      "Identifier": 2541,
      "SER": 2542,
      "curred": 2543,
      "ned": 2544,
      "Plan": 2545,
      "02": 2546,
      "Selector": 2547,
      "UD": 2548,
      "Backend": 2549,
      "55": 2550,
      "clean": 2551,
      "worker": 2552,
      "attr": 2553,
      "Unknown": 2554,
      "parts": 2555,
      "correct": 2556,
      "Driver": 2557,
      "Attribute": 2558,
      "wd": 2559,
      "Defin": 2560,
      "illisecond": 2561,
      "Sort": 2562,
      "PublicKey": 2563,
      "Health": 2564,
      "ants": 2565,
      "echo": 2566,
      "irtual": 2567,
      "each": 2568,
      "mi": 2569,
      "volume": 2570,
      "ERR": 2571,
      "Redis": 2572,
      "RES": 2573,
      "Component": 2574,
      "ga": 2575,
      "Gateway": 2576,
      "openapi": 2577,
      "StringVar": 2578,
      "ynam": 2579,
      "sor": 2580,
      "ormal": 2581,
      "WriteHeader": 2582,
      "listen": 2583,
      "Ip": 2584,
      "Cfg": 2585,
      "Annot": 2586,
      "sched": 2587,
      "where": 2588,
      "Mark": 2589,
      "Helper": 2590,
      "Engine": 2591,
      "same": 2592,
      "Window": 2593,
      "ault": 2594,
      "eter": 2595,
      "Ne": 2596,
      "ings": 2597,
      "ose": 2598,
      "memory": 2599,
      "erra": 2600,
      "Resources": 2601,
      "dec": 2602,
      "78": 2603,
      "head": 2604,
      "velo": 2605,
      "Step": 2606,
      "hex": 2607,
      "Select": 2608,
      "Ato": 2609,
      "rec": 2610,
      "existing": 2611,
      "EDIT": 2612,
      "Only": 2613,
      "Oc": 2614,
      "exit": 2615,
      "umns": 2616,
      "Results": 2617,
      "float32": 2618,
      "login": 2619,
      "ali": 2620,
      "cb": 2621,
      "settings": 2622,
      "Char": 2623,
      "full": 2624,
      "null": 2625,
      "Scal": 2626,
      "ToString": 2627,
      "health": 2628,
      "Generator": 2629,
      "top": 2630,
      "Nodes": 2631,
      "Setup": 2632,
      "Document": 2633,
      "left": 2634,
      "diff": 2635,
      "spf": 2636,
      "running": 2637,
      "random": 2638,
      "lot": 2639,
      "sha": 2640,
      "O_": 2641,
      "ression": 2642,
      "Worker": 2643,
      "ATE": 2644,
      "mos": 2645,
      "Identity": 2646,
      "StatusInternalServerError": 2647,
      "esh": 2648,
      "Sl": 2649,
      "medi": 2650,
      "img": 2651,
      "render": 2652,
      "jwt": 2653,
      "profile": 2654,
      "Snapshot": 2655,
      "window": 2656,
      "Export": 2657,
      "auto": 2658,
      "DeepCopy": 2659,
      "commands": 2660,
      "MIT": 2661,
      "your": 2662,
      "raph": 2663,
      "war": 2664,
      "Manage": 2665,
      "idden": 2666,
      "Unauthorized": 2667,
      "icker": 2668,
      "sess": 2669,
      "TypeOf": 2670,
      "Parser": 2671,
      "ov": 2672,
      "apter": 2673,
      "erraform": 2674,
      "skip": 2675,
      "Headers": 2676,
      "duration": 2677,
      "Member": 2678,
      "rency": 2679,
      "ampl": 2680,
      "codes": 2681,
      ":]": 2682,
      "bufio": 2683,
      "Persist": 2684,
      "sk": 2685,
      "TR": 2686,
      "Scope": 2687,
      "ReadAll": 2688,
      "ient": 2689,
      "follow": 2690,
      "span": 2691,
      "ssh": 2692,
      "Millisecond": 2693,
      "VM": 2694,
      "ups": 2695,
      "environment": 2696,
      "med": 2697,
      "Dock": 2698,
      "pi": 2699,
      "Def": 2700,
      "emon": 2701,
      "ton": 2702,
      "quence": 2703,
      "icate": 2704,
      "Multi": 2705,
      "Position": 2706,
      "kes": 2707,
      "spf13": 2708,
      "ReadFile": 2709,
      "helper": 2710,
      "Full": 2711,
      "beta1": 2712,
      "AA": 2713,
      "undle": 2714,
      "Machine": 2715,
      "gomock": 2716,
      "sure": 2717,
      "ctions": 2718,
      "than": 2719,
      "release": 2720,
      "ng": 2721,
      "install": 2722,
      "atom": 2723,
      "game": 2724,
      "star": 2725,
      "pair": 2726,
      "Rows": 2727,
      "desc": 2728,
      "s3": 2729,
      "fd": 2730,
      "Basic": 2731,
      "position": 2732,
      "Impl": 2733,
      "aff": 2734,
      "FS": 2735,
      "cos": 2736,
      "NotNil": 2737,
      "Asset": 2738,
      "anization": 2739,
      "Apply": 2740,
      "utdown": 2741,
      "js": 2742,
      "Price": 2743,
      "imum": 2744,
      "NewClient": 2745,
      "GetString": 2746,
      "Pay": 2747,
      "Docker": 2748,
      "DNS": 2749,
      "Long": 2750,
      "TY": 2751,
      "Core": 2752,
      "Span": 2753,
      "\",\"": 2754,
      "Upload": 2755,
      "Validation": 2756,
      "ear": 2757,
      "2019": 2758,
      "anged": 2759,
      "Inte": 2760,
      "CL": 2761,
      "Cancel": 2762,
      "Groups": 2763,
      "Bl": 2764,
      "Credentials": 2765,
      "Signature": 2766,
      "afka": 2767,
      "FF": 2768,
      "SP": 2769,
      "httptest": 2770,
      "Security": 2771,
      "arm": 2772,
      "()),": 2773,
      "Pare": 2774,
      "support": 2775,
      "iler": 2776,
      "bad": 2777,
      "Pub": 2778,
      "defined": 2779,
      "EOF": 2780,
      "Authentic": 2781,
      "Retry": 2782,
      "tact": 2783,
      "adds": 2784,
      "icle": 2785,
      "ector": 2786,
      "missing": 2787,
      "Ind": 2788,
      "KEY": 2789,
      "toa": 2790,
      "Zero": 2791,
      "Reply": 2792,
      "parameters": 2793,
      "/{": 2794,
      "Summary": 2795,
      "ek": 2796,
      "ducer": 2797,
      "Category": 2798,
      "transport": 2799,
      "Parameter": 2800,
      "Player": 2801,
      "ious": 2802,
      "rf": 2803,
      "ires": 2804,
      "Definition": 2805,
      "owner": 2806,
      "ivity": 2807,
      "counter": 2808,
      "cause": 2809,
      "Itoa": 2810,
      "Properties": 2811,
      "uri": 2812,
      "Frame": 2813,
      "gres": 2814,
      "90": 2815,
      "}).": 2816,
      "Origin": 2817,
      "oci": 2818,
      "Callback": 2819,
      "rt": 2820,
      "Encoding": 2821,
      "enchmark": 2822,
      "bal": 2823,
      "\"%": 2824,
      "Non": 2825,
      "attri": 2826,
      "cm": 2827,
      "migr": 2828,
      "1234": 2829,
      "Operator": 2830,
      "single": 2831,
      "validator": 2832,
      "unexpected": 2833,
      "player": 2834,
      "Hook": 2835,
      "_proto_": 2836,
      "Ok": 2837,
      "Environment": 2838,
      "()).": 2839,
      "kit": 2840,
      "mplates": 2841,
      "localhost": 2842,
      "ized": 2843,
      "rop": 2844,
      "2021": 2845,
      "Parameters": 2846,
      "NO": 2847,
      "CA": 2848,
      "ged": 2849,
      "scanner": 2850,
      "Debugf": 2851,
      "mysql": 2852,
      "igest": 2853,
      "ached": 2854,
      "bound": 2855,
      "Compile": 2856,
      "Med": 2857,
      "Active": 2858,
      "collection": 2859,
      "Help": 2860,
      "tf": 2861,
      "oke": 2862,
      "////////////////": 2863,
      "\"--": 2864,
      "au": 2865,
      "Di": 2866,
      "Patch": 2867,
      "hello": 2868,
      "height": 2869,
      "master": 2870,
      "44": 2871,
      "track": 2872,
      "style": 2873,
      "StatusBadRequest": 2874,
      "wise": 2875,
      "Comment": 2876,
      "77": 2877,
      "ROM": 2878,
      "ENT": 2879,
      "500": 2880,
      "Expr": 2881,
      "orp": 2882,
      "validation": 2883,
      "Parent": 2884,
      "lay": 2885,
      "Kube": 2886,
      "s_": 2887,
      "66": 2888,
      "alle": 2889,
      "width": 2890,
      "just": 2891,
      "ignore": 2892,
      "received": 2893,
      "bb": 2894,
      "mut": 2895,
      "Resolver": 2896,
      "Suffix": 2897,
      "convert": 2898,
      "][": 2899,
      "<<": 2900,
      "gre": 2901,
      "Dest": 2902,
      "Mis": 2903,
      "Acc": 2904,
      "component": 2905,
      "wall": 2906,
      "authentic": 2907,
      "Lower": 2908,
      "Rules": 2909,
      "HandleFunc": 2910,
      "blob": 2911,
      "cul": 2912,
      "Property": 2913,
      "Show": 2914,
      "Equals": 2915,
      "unable": 2916,
      "former": 2917,
      "Each": 2918,
      "ategy": 2919,
      "Directory": 2920,
      "serv": 2921,
      "file_": 2922,
      "Random": 2923,
      "unknown": 2924,
      "Graph": 2925,
      "manifest": 2926,
      "Occurred": 2927,
      "04": 2928,
      "0xa": 2929,
      "deployment": 2930,
      "docs": 2931,
      "WithContext": 2932,
      "amo": 2933,
      "Clean": 2934,
      "39": 2935,
      "Attach": 2936,
      "enter": 2937,
      "TCP": 2938,
      "88": 2939,
      "txt": 2940,
      "ensions": 2941,
      "Track": 2942,
      "ll": 2943,
      "Disk": 2944,
      "Idx": 2945,
      "AND": 2946,
      "script": 2947,
      "EXP": 2948,
      "Game": 2949,
      "export": 2950,
      "andard": 2951,
      "itional": 2952,
      "disk": 2953,
      "(\"\\": 2954,
      "utor": 2955,
      "(\"\",": 2956,
      "mat": 2957,
      "properties": 2958,
      "aint": 2959,
      "gu": 2960,
      "HaveOccurred": 2961,
      "Common": 2962,
      "manage": 2963,
      "Accept": 2964,
      "Script": 2965,
      "Vis": 2966,
      "til": 2967,
      "Permission": 2968,
      "Author": 2969,
      "ys": 2970,
      "assign": 2971,
      "multip": 2972,
      "cn": 2973,
      "Install": 2974,
      "PrivateKey": 2975,
      "grade": 2976,
      "show": 2977,
      "reply": 2978,
      "S_": 2979,
      "255": 2980,
      "rix": 2981,
      "oid": 2982,
      "ifact": 2983,
      "ops": 2984,
      "Auto": 2985,
      "arguments": 2986,
      "Unit": 2987,
      "scope": 2988,
      "Updated": 2989,
      "deploy": 2990,
      "rune": 2991,
      "gment": 2992,
      "eded": 2993,
      "imal": 2994,
      "Width": 2995,
      "enum": 2996,
      "ao": 2997,
      "FROM": 2998,
      "36": 2999,
      "dates": 3000,
      "optional": 3001,
      "vey": 3002,
      "member": 3003,
      "brary": 3004,
      "Lister": 3005,
      "Pipeline": 3006,
      "interval": 3007,
      "42": 3008,
      "base64": 3009,
      "_type": 3010,
      "Schedule": 3011,
      "ump": 3012,
      "long": 3013,
      "Services": 3014,
      "df": 3015,
      "latest": 3016,
      "509": 3017,
      "XXX_": 3018,
      "sent": 3019,
      "dc": 3020,
      "lemented": 3021,
      "0x1": 3022,
      "amples": 3023,
      "tools": 3024,
      "acer": 3025,
      "short": 3026,
      "typ": 3027,
      "apps": 3028,
      "1000": 3029,
      "creating": 3030,
      "False": 3031,
      "cf": 3032,
      "retry": 3033,
      "arge": 3034,
      "callback": 3035,
      "amount": 3036,
      "comment": 3037,
      "Panic": 3038,
      "zone": 3039,
      "123": 3040,
      "ause": 3041,
      "sole": 3042,
      "groups": 3043,
      "conver": 3044,
      "((*": 3045,
      "atomic": 3046,
      "Authorization": 3047,
      "Where": 3048,
      "Enable": 3049,
      "Simple": 3050,
      "parsed": 3051,
      "Messages": 3052,
      "ets": 3053,
      "verify": 3054,
      "Publish": 3055,
      "Pass": 3056,
      "ano": 3057,
      "comm": 3058,
      "Elem": 3059,
      "provides": 3060,
      "insert": 3061,
      "ished": 3062,
      "gration": 3063,
      "monitor": 3064,
      "NAM": 3065,
      "listener": 3066,
      "Attributes": 3067,
      "][]": 3068,
      "see": 3069,
      "pipeline": 3070,
      "faces": 3071,
      "fra": 3072,
      "Sys": 3073,
      "variable": 3074,
      "2018": 3075,
      "split": 3076,
      "ERROR": 3077,
      "FilePath": 3078,
      "gets": 3079,
      "atalog": 3080,
      "Merge": 3081,
      "Monitor": 3082,
      "OP": 3083,
      "initializ": 3084,
      "Signal": 3085,
      "fun": 3086,
      "UserID": 3087,
      "remo": 3088,
      "_m": 3089,
      "pid": 3090,
      "acc": 3091,
      "oauth": 3092,
      "parameter": 3093,
      "bsocket": 3094,
      "Big": 3095,
      "Bit": 3096,
      "rate": 3097,
      "home": 3098,
      "receiver": 3099,
      "Sc": 3100,
      "alk": 3101,
      "Subscription": 3102,
      "')": 3103,
      "ugh": 3104,
      "}},": 3105,
      "Mount": 3106,
      "Reason": 3107,
      "Migr": 3108,
      "x_": 3109,
      "subject": 3110,
      "signature": 3111,
      "td": 3112,
      "Manifest": 3113,
      "ByName": 3114,
      "vs": 3115,
      "Zone": 3116,
      "allel": 3117,
      ":\"-": 3118,
      "\"})": 3119,
      "icates": 3120,
      "pattern": 3121,
      "chunk": 3122,
      "original": 3123,
      "p2": 3124,
      "rules": 3125,
      "BeNil": 3126,
      "HasPrefix": 3127,
      "Replic": 3128,
      "terraform": 3129,
      "credentials": 3130,
      "represent": 3131,
      "upload": 3132,
      "Notify": 3133,
      "contract": 3134,
      "car": 3135,
      "uler": 3136,
      "mpt": 3137,
      "Persistent": 3138,
      "free": 3139,
      "UP": 3140,
      "scal": 3141,
      "Left": 3142,
      "onents": 3143,
      "Az": 3144,
      "associ": 3145,
      "ier": 3146,
      "unique": 3147,
      "matches": 3148,
      "Team": 3149,
      "bed": 3150,
      "gateway": 3151,
      "Encrypt": 3152,
      "usage": 3153,
      "37": 3154,
      "v1beta1": 3155,
      "platform": 3156,
      "verse": 3157,
      "Day": 3158,
      "Closer": 3159,
      "chat": 3160,
      "unit": 3161,
      "CPU": 3162,
      "Flow": 3163,
      "implementation": 3164,
      "save": 3165,
      "stdout": 3166,
      "Atoi": 3167,
      "Hour": 3168,
      "rough": 3169,
      "INT": 3170,
      "Card": 3171,
      "ured": 3172,
      "reference": 3173,
      "Reconc": 3174,
      "_at": 3175,
      "Period": 3176,
      "TrimSpace": 3177,
      "tele": 3178,
      "\\\\": 3179,
      "sample": 3180,
      "Aler": 3181,
      "rv": 3182,
      "sn": 3183,
      "Kubernetes": 3184,
      "handlers": 3185,
      "Rec": 3186,
      "abs": 3187,
      "ycle": 3188,
      "V2": 3189,
      "Timer": 3190,
      "equal": 3191,
      "two": 3192,
      "entries": 3193,
      "details": 3194,
      "1024": 3195,
      "Hub": 3196,
      "lin": 3197,
      "enu": 3198,
      "hether": 3199,
      "irm": 3200,
      "Namesp": 3201,
      "ancer": 3202,
      "Endian": 3203,
      "dif": 3204,
      "protoimpl": 3205,
      "FOR": 3206,
      "Uint64": 3207,
      "etcd": 3208,
      "Mapping": 3209,
      "governed": 3210,
      "DS": 3211,
      "pay": 3212,
      "tries": 3213,
      "about": 3214,
      "aced": 3215,
      "0x6f": 3216,
      "shift": 3217,
      "unmarshal": 3218,
      "ctl": 3219,
      "based": 3220,
      "assed": 3221,
      "irups": 3222,
      "irupsen": 3223,
      "Seconds": 3224,
      "Branch": 3225,
      "Hello": 3226,
      "../": 3227,
      "Pull": 3228,
      "Filename": 3229,
      "Binding": 3230,
      "0x65": 3231,
      "reshold": 3232,
      "cosmos": 3233,
      "HTTPClient": 3234,
      "aded": 3235,
      "rb": 3236,
      "####": 3237,
      "machine": 3238,
      "secure": 3239,
      "bose": 3240,
      "Edit": 3241,
      "clients": 3242,
      "olt": 3243,
      "FileName": 3244,
      "objects": 3245,
      "acing": 3246,
      "Sing": 3247,
      "ower": 3248,
      "publish": 3249,
      "Ab": 3250,
      "07": 3251,
      "Ids": 3252,
      "FA": 3253,
      "dial": 3254,
      "Note": 3255,
      "Backup": 3256,
      "ik": 3257,
      "Methods": 3258,
      "S3": 3259,
      "real": 3260,
      "sq": 3261,
      "Float64": 3262,
      "Download": 3263,
      "External": 3264,
      "48": 3265,
      "ular": 3266,
      "fully": 3267,
      "push": 3268,
      "certificate": 3269,
      "scheme": 3270,
      "127": 3271,
      "Socket": 3272,
      "HTML": 3273,
      "snapshot": 3274,
      "include": 3275,
      "ves": 3276,
      "present": 3277,
      "****************": 3278,
      "->": 3279,
      "hold": 3280,
      "charact": 3281,
      "Assign": 3282,
      "mutex": 3283,
      "tect": 3284,
      "izer": 3285,
      "defines": 3286,
      "accept": 3287,
      "When": 3288,
      "Fprint": 3289,
      "person": 3290,
      "ling": 3291,
      "Runtime": 3292,
      "mocks": 3293,
      "checks": 3294,
      "micro": 3295,
      "Failure": 3296,
      "Into": 3297,
      "aft": 3298,
      "26": 3299,
      "bidden": 3300,
      "Iterator": 3301,
      "ced": 3302,
      "cpu": 3303,
      "oice": 3304,
      "like": 3305,
      "while": 3306,
      "display": 3307,
      "38": 3308,
      "Notification": 3309,
      "Warning": 3310,
      "05": 3311,
      "Display": 3312,
      "Wrapper": 3313,
      "Arch": 3314,
      "apply": 3315,
      "hy": 3316,
      "tex": 3317,
      "acity": 3318,
      "Chat": 3319,
      "ended": 3320,
      "deter": 3321,
      "Logs": 3322,
      "Aggreg": 3323,
      "Subject": 3324,
      "History": 3325,
      "LET": 3326,
      "Aud": 3327,
      "metry": 3328,
      "Hex": 3329,
      "otherwise": 3330,
      "download": 3331,
      "road": 3332,
      "ually": 3333,
      "gh": 3334,
      "shared": 3335,
      "r0": 3336,
      "gorith": 3337,
      "ByID": 3338,
      "tokens": 3339,
      "ER_": 3340,
      "Diff": 3341,
      "Virtual": 3342,
      "boot": 3343,
      "mq": 3344,
      "Convert": 3345,
      "uintptr": 3346,
      "mac": 3347,
      "buff": 3348,
      "ME": 3349,
      "Azure": 3350,
      "Top": 3351,
      "Deploy": 3352,
      "esis": 3353,
      "Contract": 3354,
      "Eval": 3355,
      "Folder": 3356,
      "multi": 3357,
      "Main": 3358,
      "rootCmd": 3359,
      "ead": 3360,
      "Could": 3361,
      "EL": 3362,
      "Round": 3363,
      "closed": 3364,
      "etion": 3365,
      "Cookie": 3366,
      "implemented": 3367,
      "condition": 3368,
      "depend": 3369,
      "Test_": 3370,
      "enabled": 3371,
      "Pattern": 3372,
      "Ping": 3373,
      "glog": 3374,
      "Int32": 3375,
      "userID": 3376,
      "--------------------------------": 3377,
      "rieve": 3378,
      "Pk": 3379,
      "requ": 3380,
      "aster": 3381,
      "SEL": 3382,
      "simple": 3383,
      "sal": 3384,
      "pointer": 3385,
      "sible": 3386,
      "bus": 3387,
      "Media": 3388,
      "lear": 3389,
      "calls": 3390,
      "mc": 3391,
      "branch": 3392,
      "aud": 3393,
      "BU": 3394,
      "RF": 3395,
      "ween": 3396,
      ":\"-\"`": 3397,
      "loop": 3398,
      "reads": 3399,
      "cred": 3400,
      "Vars": 3401,
      "Optional": 3402,
      "Refresh": 3403,
      "UI": 3404,
      "sigs": 3405,
      "ium": 3406,
      "ax": 3407,
      "x509": 3408,
      "olean": 3409,
      "sv": 3410,
      "ese": 3411,
      "Runner": 3412,
      "clud": 3413,
      "KV": 3414,
      "don": 3415,
      "Book": 3416,
      "Minute": 3417,
      "gon": 3418,
      "ToLower": 3419,
      "Li": 3420,
      ":\\": 3421,
      "flux": 3422,
      "reconc": 3423,
      "vars": 3424,
      "Sample": 3425,
      "whether": 3426,
      "Paths": 3427,
      "azure": 3428,
      "basic": 3429,
      "sume": 3430,
      "team": 3431,
      "]\",": 3432,
      "priv": 3433,
      "Platform": 3434,
      "gs": 3435,
      "world": 3436,
      "NAME": 3437,
      "dynam": 3438,
      "('": 3439,
      "cce": 3440,
      "Sec": 3441,
      "fileName": 3442,
      "stmt": 3443,
      "0xff": 3444,
      "force": 3445,
      "win": 3446,
      "35": 3447,
      "Ready": 3448,
      "static": 3449,
      "(\"\")": 3450,
      "Dec": 3451,
      "Info_": 3452,
      "Bot": 3453,
      "straint": 3454,
      "allowed": 3455,
      "Alias": 3456,
      "tasks": 3457,
      "Transfer": 3458,
      "seconds": 3459,
      "crypted": 3460,
      "framework": 3461,
      "ences": 3462,
      "deleted": 3463,
      "passed": 3464,
      "sirupsen": 3465,
      "Uint32": 3466,
      "added": 3467,
      "identity": 3468,
      "ares": 3469,
      "MS": 3470,
      "PR": 3471,
      "IR": 3472,
      "readResponse": 3473,
      "Respon": 3474,
      "SHA": 3475,
      "argument": 3476,
      "Forbidden": 3477,
      "Redirect": 3478,
      "dd": 3479,
      "Bus": 3480,
      "ServeHTTP": 3481,
      "ITY": 3482,
      "Score": 3483,
      "asset": 3484,
      "RUnlock": 3485,
      "external": 3486,
      "Ign": 3487,
      "Cr": 3488,
      "tle": 3489,
      "sb": 3490,
      "Running": 3491,
      "Issue": 3492,
      "paths": 3493,
      "lected": 3494,
      "termin": 3495,
      "ValueOf": 3496,
      "loader": 3497,
      "eting": 3498,
      "Codec": 3499,
      "{}{}": 3500,
      "websocket": 3501,
      "again": 3502,
      "unch": 3503,
      "coin": 3504,
      "atures": 3505,
      "cid": 3506,
      "Logf": 3507,
      "RLock": 3508,
      "following": 3509,
      "Requests": 3510,
      "mgr": 3511,
      "27": 3512,
      "_t": 3513,
      "did": 3514,
      "program": 3515,
      "extract": 3516,
      "execute": 3517,
      "Balance": 3518,
      "96": 3519,
      "ummy": 3520,
      "lu": 3521,
      "idge": 3522,
      "plain": 3523,
      "security": 3524,
      "():": 3525,
      "helpers": 3526,
      "MustCompile": 3527,
      "cipher": 3528,
      "property": 3529,
      "room": 3530,
      "prob": 3531,
      ")}": 3532,
      "roadcast": 3533,
      "VAL": 3534,
      "Allowed": 3535,
      "hostname": 3536,
      "doesn": 3537,
      "broker": 3538,
      "Claims": 3539,
      "Organization": 3540,
      "[][]": 3541,
      "ifies": 3542,
      "Webhook": 3543,
      "pag": 3544,
      "AddCommand": 3545,
      "Symbol": 3546,
      "ErrInvalid": 3547,
      "Benchmark": 3548,
      "IO": 3549,
      "Since": 3550,
      "because": 3551,
      "400": 3552,
      "binding": 3553,
      "MA": 3554,
      "alert": 3555,
      "changes": 3556,
      "0x74": 3557,
      "backup": 3558,
      "Unable": 3559,
      "_key": 3560,
      "Head": 3561,
      "Nano": 3562,
      "Trigger": 3563,
      "ae": 3564,
      "WithError": 3565,
      "uted": 3566,
      "olicies": 3567,
      "s1": 3568,
      "Layer": 3569,
      "webhook": 3570,
      "postgres": 3571,
      "Flush": 3572,
      "ited": 3573,
      "SOF": 3574,
      "v6": 3575,
      "Over": 3576,
      "GB": 3577,
      "graphql": 3578,
      "Style": 3579,
      "gorithm": 3580,
      "anal": 3581,
      "generator": 3582,
      "_S": 3583,
      "GetUser": 3584,
      ">>": 3585,
      "UTC": 3586,
      "Entries": 3587,
      "usters": 3588,
      "eries": 3589,
      "SELECT": 3590,
      "128": 3591,
      "construct": 3592,
      "also": 3593,
      "SOFT": 3594,
      "upl": 3595,
      "NotExist": 3596,
      "amb": 3597,
      "testdata": 3598,
      "WARE": 3599,
      "DELET": 3600,
      "Chunk": 3601,
      "Box": 3602,
      "ilt": 3603,
      "annot": 3604,
      "issue": 3605,
      "Convey": 3606,
      "encoded": 3607,
      "Strategy": 3608,
      "2016": 3609,
      "Room": 3610,
      "Play": 3611,
      "codec": 3612,
      "ORT": 3613,
      "records": 3614,
      "Extension": 3615,
      "destination": 3616,
      "e2": 3617,
      "NewDecoder": 3618,
      "CreatedAt": 3619,
      "erride": 3620,
      "they": 3621,
      "NewBuffer": 3622,
      "mega": 3623,
      "Alert": 3624,
      "GetAll": 3625,
      "2017": 3626,
      "SOFTWARE": 3627,
      "Extract": 3628,
      "IF": 3629,
      "merge": 3630,
      "Compare": 3631,
      "draw": 3632,
      "{{.": 3633,
      "Mk": 3634,
      "Expression": 3635,
      "CLI": 3636,
      "Collector": 3637,
      "Blob": 3638,
      "final": 3639,
      "JW": 3640,
      "Google": 3641,
      "vol": 3642,
      "06": 3643,
      "hub": 3644,
      "constants": 3645,
      "differ": 3646,
      "istration": 3647,
      "Gu": 3648,
      "functions": 3649,
      "MP": 3650,
      "upt": 3651,
      "Destination": 3652,
      "Gre": 3653,
      "Once": 3654,
      "Depend": 3655,
      "setting": 3656,
      "eeper": 3657,
      "through": 3658,
      "ensor": 3659,
      "28": 3660,
      "Sender": 3661,
      "CC": 3662,
      "ily": 3663,
      "Abs": 3664,
      "Processor": 3665,
      "xxx_": 3666,
      "Strings": 3667,
      "Parallel": 3668,
      "images": 3669,
      "keep": 3670,
      "templates": 3671,
      "i32": 3672,
      "uring": 3673,
      "strap": 3674,
      "Ingress": 3675,
      "Scanner": 3676,
      "adline": 3677,
      "complete": 3678,
      "RW": 3679,
      "cases": 3680,
      "filePath": 3681,
      "auge": 3682,
      "wantErr": 3683,
      "hip": 3684,
      "(-": 3685,
      "HERE": 3686,
      "xxx_message": 3687,
      "CRE": 3688,
      "'\",": 3689,
      "them": 3690,
      "Ins": 3691,
      "INF": 3692,
      "pp": 3693,
      "dist": 3694,
      "associated": 3695,
      "library": 3696,
      "Gauge": 3697,
      "most": 3698,
      "Resolve": 3699,
      "Termin": 3700,
      "Variable": 3701,
      "methods": 3702,
      "socket": 3703,
      "diag": 3704,
      "ConfigMap": 3705,
      "AccessToken": 3706,
      "sim": 3707,
      "proc": 3708,
      ").(": 3709,
      "ensure": 3710,
      "creen": 3711,
      "But": 3712,
      "folder": 3713,
      "TYP": 3714,
      "Cons": 3715,
      "Edge": 3716,
      "Cli": 3717,
      "Single": 3718,
      "onsi": 3719,
      "Off": 3720,
      "multiple": 3721,
      "zz": 3722,
      "reason": 3723,
      "Payment": 3724,
      "23": 3725,
      "WaitGroup": 3726,
      "Anal": 3727,
      "ashboard": 3728,
      "Members": 3729,
      "stroy": 3730,
      "reset": 3731,
      "term": 3732,
      "Available": 3733,
      "================": 3734,
      "Ignore": 3735,
      "Mask": 3736,
      "cluded": 3737,
      "routes": 3738,
      "Tick": 3739,
      "iteral": 3740,
      "Mut": 3741,
      "ste": 3742,
      "pm": 3743,
      "\"].(": 3744,
      "Serialize": 3745,
      "reams": 3746,
      "ana": 3747,
      "Stmt": 3748,
      "Defaults": 3749,
      "csv": 3750,
      "beat": 3751,
      "umes": 3752,
      "initial": 3753,
      "bits": 3754,
      "GO": 3755,
      "shall": 3756,
      "wrong": 3757,
      "nd": 3758,
      "contents": 3759,
      "ways": 3760,
      "Called": 3761,
      "conditions": 3762,
      "infra": 3763,
      "?\",": 3764,
      "Broker": 3765,
      "ba": 3766,
      "WithTimeout": 3767,
      "aging": 3768,
      "ks": 3769,
      "OTHER": 3770,
      "Wrapf": 3771,
      "thereum": 3772,
      "uses": 3773,
      "Ten": 3774,
      "xxx_messageInfo_": 3775,
      "Columns": 3776,
      "Vector": 3777,
      "ges": 3778,
      "inputs": 3779,
      "Tw": 3780,
      "ving": 3781,
      "ene": 3782,
      "Missing": 3783,
      "execut": 3784,
      "Master": 3785,
      "shard": 3786,
      "acy": 3787,
      "eval": 3788,
      "ring": 3789,
      "Nullable": 3790,
      "SSH": 3791,
      "adding": 3792,
      "Routes": 3793,
      "instead": 3794,
      "PRO": 3795,
      "pol": 3796,
      "factory": 3797,
      "irection": 3798,
      "indicates": 3799,
      "UDP": 3800,
      "attach": 3801,
      "DeepEqual": 3802,
      "currency": 3803,
      "s2": 3804,
      "':": 3805,
      "untry": 3806,
      "stderr": 3807,
      "LD": 3808,
      "previous": 3809,
      "Home": 3810,
      "serve": 3811,
      "vide": 3812,
      "IB": 3813,
      "Feature": 3814,
      "Move": 3815,
      "Stage": 3816,
      "ross": 3817,
      "toml": 3818,
      "encrypt": 3819,
      "edge": 3820,
      "tm": 3821,
      "Clear": 3822,
      "asure": 3823,
      "Shard": 3824,
      "fut": 3825,
      "Sequence": 3826,
      "poch": 3827,
      "Initialize": 3828,
      "enable": 3829,
      "containers": 3830,
      "chart": 3831,
      "ESS": 3832,
      "AndServe": 3833,
      "DELETE": 3834,
      "Begin": 3835,
      "interfaces": 3836,
      "ude": 3837,
      "asy": 3838,
      "native": 3839,
      "persist": 3840,
      "ores": 3841,
      "NewServer": 3842,
      "SIG": 3843,
      "mesh": 3844,
      "Contact": 3845,
      "plugins": 3846,
      "la": 3847,
      "normal": 3848,
      "deep": 3849,
      "Prepare": 3850,
      "GetName": 3851,
      "join": 3852,
      "WHERE": 3853,
      "between": 3854,
      "EXPECT": 3855,
      "Delay": 3856,
      "TS": 3857,
      "eth": 3858,
      "Pop": 3859,
      "Loop": 3860,
      "Const": 3861,
      "gopkg": 3862,
      "Rest": 3863,
      "Star": 3864,
      "ous": 3865,
      "tmpl": 3866,
      "blocks": 3867,
      "arb": 3868,
      "ceptor": 3869,
      "Setting": 3870,
      "loaded": 3871,
      "Sk": 3872,
      ")]": 3873,
      "Language": 3874,
      "category": 3875,
      "Feed": 3876,
      "gc": 3877,
      "MD": 3878,
      "TAB": 3879,
      "every": 3880,
      "pem": 3881,
      "abc": 3882,
      "iness": 3883,
      "Static": 3884,
      "AML": 3885,
      "ListenAndServe": 3886,
      "vals": 3887,
      "ape": 3888,
      "tick": 3889,
      "Mux": 3890,
      "reading": 3891,
      "/\"": 3892,
      "elast": 3893,
      "CE": 3894,
      "bc": 3895,
      "}))": 3896,
      "gp": 3897,
      "posal": 3898,
      "Lines": 3899,
      "cape": 3900,
      "ives": 3901,
      "mapping": 3902,
      "ones": 3903,
      "Rol": 3904,
      "words": 3905,
      "unix": 3906,
      "cookie": 3907,
      "ship": 3908,
      "roll": 3909,
      "ness": 3910,
      "ai": 3911,
      "trigger": 3912,
      "Workflow": 3913,
      "ContentType": 3914,
      "Src": 3915,
      "58": 3916,
      "Lat": 3917,
      "klog": 3918,
      "extra": 3919,
      "Execution": 3920,
      "permission": 3921,
      "gest": 3922,
      "-%": 3923,
      "refresh": 3924,
      "encies": 3925,
      "updates": 3926,
      "Hostname": 3927,
      "syn": 3928,
      "29": 3929,
      ")\")": 3930,
      "mid": 3931,
      "attemp": 3932,
      "0x72": 3933,
      "notify": 3934,
      "includ": 3935,
      "since": 3936,
      "elf": 3937,
      "feed": 3938,
      "UB": 3939,
      "section": 3940,
      "author": 3941,
      "Bound": 3942,
      "Dev": 3943,
      "Shutdown": 3944,
      "different": 3945,
      "suer": 3946,
      "modules": 3947,
      "replic": 3948,
      "capt": 3949,
      "Roll": 3950,
      "VER": 3951,
      "%#": 3952,
      "\"],": 3953,
      "ision": 3954,
      "Pipe": 3955,
      "variables": 3956,
      "Ge": 3957,
      "side": 3958,
      "pull": 3959,
      "Ov": 3960,
      "handles": 3961,
      "kafka": 3962,
      "ILITY": 3963,
      "XML": 3964,
      "Pres": 3965,
      "alloc": 3966,
      "lang": 3967,
      ")},": 3968,
      "MockRecorder": 3969,
      "WriteFile": 3970,
      "structured": 3971,
      "cursor": 3972,
      "king": 3973,
      "being": 3974,
      "Objects": 3975,
      "Progress": 3976,
      "filters": 3977,
      "0x01": 3978,
      "andid": 3979,
      "Lay": 3980,
      "Mkdir": 3981,
      "runner": 3982,
      "r1": 3983,
      "lite": 3984,
      "RS": 3985,
      "_time": 3986,
      "Normal": 3987,
      "ordin": 3988,
      "Commands": 3989,
      "::": 3990,
      "serializ": 3991,
      "gomega": 3992,
      "selector": 3993,
      "expr": 3994,
      "inner": 3995,
      "Mat": 3996,
      "Instances": 3997,
      "54": 3998,
      "wire": 3999,
      "collect": 4000,
      "alias": 4001,
      "cell": 4002,
      "Subnet": 4003,
      "}),": 4004,
      "));": 4005,
      "prec": 4006,
      "changed": 4007,
      "elastic": 4008,
      "Disable": 4009,
      "how": 4010,
      "what": 4011,
      "identifier": 4012,
      "Tasks": 4013,
      "!\")": 4014,
      "pa": 4015,
      "cmp": 4016,
      "Button": 4017,
      "Credential": 4018,
      "additional": 4019,
      "Free": 4020,
      "Vec": 4021,
      "uple": 4022,
      "Unexpected": 4023,
      "bution": 4024,
      "hu": 4025,
      "Chart": 4026,
      "ipt": 4027,
      "subscription": 4028,
      "stri": 4029,
      "Bundle": 4030,
      "31": 4031,
      "started": 4032,
      "Keeper": 4033,
      "etc": 4034,
      "holds": 4035,
      "seed": 4036,
      "86": 4037,
      "TypeString": 4038,
      "sa": 4039,
      "Stub": 4040,
      "until": 4041,
      "uble": 4042,
      "Generic": 4043,
      "Children": 4044,
      "Regex": 4045,
      "____": 4046,
      "ric": 4047,
      "windows": 4048,
      "Word": 4049,
      "Producer": 4050,
      "replace": 4051,
      "lat": 4052,
      "iota": 4053,
      "notice": 4054,
      "times": 4055,
      "icorp": 4056,
      "_D": 4057,
      "BSD": 4058,
      "secrets": 4059,
      "Executor": 4060,
      "AUT": 4061,
      "operations": 4062,
      "curs": 4063,
      "embed": 4064,
      "failure": 4065,
      "US": 4066,
      "NotTo": 4067,
      "LogLevel": 4068,
      "}/": 4069,
      "abo": 4070,
      "compute": 4071,
      "Bits": 4072,
      "lict": 4073,
      "\"])": 4074,
      "...\")": 4075,
      "unnel": 4076,
      "components": 4077,
      "Annotations": 4078,
      "pin": 4079,
      "jobs": 4080,
      "Times": 4081,
      "Seed": 4082,
      "layer": 4083,
      "ledger": 4084,
      "DeepCopyInto": 4085,
      "test_": 4086,
      "Logging": 4087,
      "hashicorp": 4088,
      "Formatter": 4089,
      "Adapter": 4090,
      "CID": 4091,
      "cached": 4092,
      "ather": 4093,
      "sol": 4094,
      "istic": 4095,
      "signed": 4096,
      "affic": 4097,
      "Weight": 4098,
      "pipe": 4099,
      "tl": 4100,
      "Rune": 4101,
      "MarshalJSON": 4102,
      "once": 4103,
      "sender": 4104,
      "PUT": 4105,
      "vault": 4106,
      "div": 4107,
      "Endpoints": 4108,
      "Cases": 4109,
      "begin": 4110,
      "fc": 4111,
      "decoder": 4112,
      "mask": 4113,
      "Cred": 4114,
      "bos": 4115,
      "criber": 4116,
      "coming": 4117,
      "./": 4118,
      "attribute": 4119,
      "modify": 4120,
      "_M": 4121,
      "Partition": 4122,
      "Sprint": 4123,
      "elements": 4124,
      "123456": 4125,
      "Activity": 4126,
      "Phase": 4127,
      "fast": 4128,
      "Watcher": 4129,
      "Used": 4130,
      "isher": 4131,
      "cleanup": 4132,
      "bee": 4133,
      "lookup": 4134,
      "pret": 4135,
      "recorder": 4136,
      "Provision": 4137,
      "Site": 4138,
      "CI": 4139,
      "ely": 4140,
      "Bar": 4141,
      "anted": 4142,
      "Regexp": 4143,
      "NewMock": 4144,
      "Deli": 4145,
      "representation": 4146,
      "Other": 4147,
      "Reserved": 4148,
      "Clone": 4149,
      "cy": 4150,
      "Balancer": 4151,
      "TTL": 4152,
      "might": 4153,
      "loud": 4154,
      "spe": 4155,
      "tar": 4156,
      "missions": 4157,
      "Informer": 4158,
      "Statement": 4159,
      "JWT": 4160,
      "10000": 4161,
      "calcul": 4162,
      "price": 4163,
      "controllers": 4164,
      "sues": 4165,
      "\\\":": 4166,
      "nonce": 4167,
      "hi": 4168,
      "columns": 4169,
      "EventType": 4170,
      "+\"": 4171,
      "Lif": 4172,
      "Threshold": 4173,
      "Cell": 4174,
      "Person": 4175,
      "ALL": 4176,
      "Dist": 4177,
      "daemon": 4178,
      "/\",": 4179,
      "Digest": 4180,
      "endpoints": 4181,
      "chron": 4182,
      "claims": 4183,
      "Wall": 4184,
      "Series": 4185,
      "Claim": 4186,
      "cat": 4187,
      "responses": 4188,
      "extension": 4189,
      "ites": 4190,
      "RFC": 4191,
      "404": 4192,
      "stored": 4193,
      "gorout": 4194,
      "connections": 4195,
      "Fix": 4196,
      "forms": 4197,
      "iration": 4198,
      "schedule": 4199,
      "QU": 4200,
      "WithFields": 4201,
      "symbol": 4202,
      "OUT": 4203,
      "Priv": 4204,
      "ensus": 4205,
      "duce": 4206,
      "Sql": 4207,
      "smith": 4208,
      "pan": 4209,
      "Den": 4210,
      "Segment": 4211,
      "written": 4212,
      "actor": 4213,
      "crib": 4214,
      "Dump": 4215,
      "kubebuilder": 4216,
      "instances": 4217,
      "jo": 4218,
      "inc": 4219,
      "Red": 4220,
      "Conver": 4221,
      "via": 4222,
      "Records": 4223,
      "Namespaced": 4224,
      "Multip": 4225,
      "dl": 4226,
      "Complete": 4227,
      "endor": 4228,
      "Shared": 4229,
      "Priority": 4230,
      "illa": 4231,
      "57": 4232,
      "TER": 4233,
      "collector": 4234,
      "Tenant": 4235,
      "cop": 4236,
      "Cursor": 4237,
      "((": 4238,
      "Configs": 4239,
      "dump": 4240,
      "_F": 4241,
      "rase": 4242,
      "den": 4243,
      "ferences": 4244,
      "Mail": 4245,
      "0x61": 4246,
      "tenant": 4247,
      "ethereum": 4248,
      "ulk": 4249,
      "testCase": 4250,
      "ublisher": 4251,
      "site": 4252,
      "EV": 4253,
      "Loc": 4254,
      "Tests": 4255,
      "TestSuite": 4256,
      "allen": 4257,
      "tab": 4258,
      "Except": 4259,
      "Matcher": 4260,
      "Ke": 4261,
      "bundle": 4262,
      "yz": 4263,
      "allows": 4264,
      "TableName": 4265,
      "NewGet": 4266,
      "versions": 4267,
      "\"/\"": 4268,
      "Scale": 4269,
      "]))": 4270,
      "archive": 4271,
      "parsing": 4272,
      "getting": 4273,
      "SDK": 4274,
      "uni": 4275,
      "Compute": 4276,
      "YAML": 4277,
      "writes": 4278,
      "Subscribe": 4279,
      "Menu": 4280,
      "Stdin": 4281,
      "ventory": 4282,
      "Argument": 4283,
      "Micro": 4284,
      "Real": 4285,
      "gitlab": 4286,
      "Fprintln": 4287,
      "icon": 4288,
      "chem": 4289,
      "Mgr": 4290,
      "Section": 4291,
      "cep": 4292,
      "Images": 4293,
      "period": 4294,
      "timer": 4295,
      "gg": 4296,
      "EncodeToString": 4297,
      "Svc": 4298,
      "Unique": 4299,
      "Pag": 4300,
      "look": 4301,
      "points": 4302,
      "Final": 4303,
      "Percent": 4304,
      "servers": 4305,
      "/:": 4306,
      "pods": 4307,
      "dp": 4308,
      ")[": 4309,
      "umb": 4310,
      "shutdown": 4311,
      "elem": 4312,
      "Fee": 4313,
      "Artifact": 4314,
      "8080": 4315,
      "Place": 4316,
      "aggreg": 4317,
      "extensions": 4318,
      "ambda": 4319,
      "configs": 4320,
      "ret0": 4321,
      "47": 4322,
      "ticker": 4323,
      "score": 4324,
      "IsNil": 4325,
      "rea": 4326,
      "verity": 4327,
      "Vide": 4328,
      "verbose": 4329,
      "END": 4330,
      "ffect": 4331,
      "contri": 4332,
      "Mongo": 4333,
      "Consume": 4334,
      "registered": 4335,
      "sem": 4336,
      "statusCode": 4337,
      "RWMutex": 4338,
      "oauth2": 4339,
      "light": 4340,
      "amily": 4341,
      "hs": 4342,
      "uber": 4343,
      "Currency": 4344,
      "ingress": 4345,
      "0x73": 4346,
      "above": 4347,
      "determin": 4348,
      "Blocks": 4349,
      "integration": 4350,
      "sha256": 4351,
      "dao": 4352,
      "FileInfo": 4353,
      "wrapper": 4354,
      "cessed": 4355,
      "execution": 4356,
      "Da": 4357,
      "tpl": 4358,
      "otes": 4359,
      "ULL": 4360,
      "Boot": 4361,
      "supp": 4362,
      "Vol": 4363,
      "notification": 4364,
      "separ": 4365,
      "Managed": 4366,
      "datastore": 4367,
      "BE": 4368,
      "idget": 4369,
      "mint": 4370,
      "resolver": 4371,
      "todo": 4372,
      "Standard": 4373,
      "pn": 4374,
      "recover": 4375,
      "Force": 4376,
      "sequence": 4377,
      "wallet": 4378,
      "\">": 4379,
      "ven": 4380,
      "Modified": 4381,
      "scale": 4382,
      "ErrorResponse": 4383,
      "Alloc": 4384,
      "c2": 4385,
      "convey": 4386,
      "mapstructure": 4387,
      "packages": 4388,
      "antity": 4389,
      "ilities": 4390,
      "Pkg": 4391,
      "Idle": 4392,
      "compat": 4393,
      "dummy": 4394,
      "Loader": 4395,
      "Extra": 4396,
      "BoolVar": 4397,
      "come": 4398,
      "Signer": 4399,
      "GP": 4400,
      "clientset": 4401,
      "Closed": 4402,
      "Annotation": 4403,
      "Age": 4404,
      "Ticker": 4405,
      "Versions": 4406,
      "Literal": 4407,
      "Collect": 4408,
      "None": 4409,
      "Tokens": 4410,
      "Swap": 4411,
      "Roles": 4412,
      "Es": 4413,
      "workflow": 4414,
      "Ports": 4415,
      "Discard": 4416,
      "Deleted": 4417,
      "iam": 4418,
      "members": 4419,
      "NewInt": 4420,
      "rd": 4421,
      "Coin": 4422,
      "ifications": 4423,
      "LIAB": 4424,
      "slack": 4425,
      "smithy": 4426,
      "DX": 4427,
      "digest": 4428,
      "49": 4429,
      "structs": 4430,
      "Kafka": 4431,
      "starting": 4432,
      "pose": 4433,
      "soft": 4434,
      "cogn": 4435,
      "yun": 4436,
      "Draw": 4437,
      "logic": 4438,
      "authentication": 4439,
      "means": 4440,
      "cepted": 4441,
      "copyright": 4442,
      "Tool": 4443,
      "Checker": 4444,
      "rm": 4445,
      "igit": 4446,
      "generic": 4447,
      "openshift": 4448,
      "istics": 4449,
      "ec2": 4450,
      "Upgrade": 4451,
      "Util": 4452,
      "rsa": 4453,
      "havi": 4454,
      "prepare": 4455,
      "LL": 4456,
      "tb": 4457,
      "hosts": 4458,
      "tg": 4459,
      "na": 4460,
      "curr": 4461,
      "Devices": 4462,
      "seq": 4463,
      "console": 4464,
      "pred": 4465,
      "ark": 4466,
      "itude": 4467,
      "TypeMeta": 4468,
      "ClientResponse": 4469,
      "remain": 4470,
      "eper": 4471,
      "authorization": 4472,
      "RGB": 4473,
      "boolean": 4474,
      "integer": 4475,
      "labs": 4476,
      "txn": 4477,
      "2006": 4478,
      "testutil": 4479,
      "retri": 4480,
      "NewEncoder": 4481,
      "feature": 4482,
      "}\",": 4483,
      "definition": 4484,
      "vl": 4485,
      "TestGet": 4486,
      "UnmarshalJSON": 4487,
      "history": 4488,
      "deal": 4489,
      "discovery": 4490,
      "bt": 4491,
      "standard": 4492,
      "Seq": 4493,
      "Prev": 4494,
      "Receive": 4495,
      "Pending": 4496,
      "ListOptions": 4497,
      "utf": 4498,
      "media": 4499,
      "copies": 4500,
      "takes": 4501,
      "Sink": 4502,
      "A_": 4503,
      "CREATE": 4504,
      "needs": 4505,
      "crement": 4506,
      "logy": 4507,
      "helm": 4508,
      "CD": 4509,
      "Sig": 4510,
      "Attachment": 4511,
      "dt": 4512,
      "USE": 4513,
      "Sm": 4514,
      "arg0": 4515,
      "Upper": 4516,
      "ificates": 4517,
      "Async": 4518,
      "stub": 4519,
      "these": 4520,
      "Permissions": 4521,
      "isto": 4522,
      "Containers": 4523,
      "PK": 4524,
      "develo": 4525,
      "initialize": 4526,
      ",\"": 4527,
      "dot": 4528,
      "depth": 4529,
      "Rect": 4530,
      "\"/\")": 4531,
      "erver": 4532,
      "_url": 4533,
      "Customer": 4534,
      "p2p": 4535,
      "children": 4536,
      "pu": 4537,
      "Receiver": 4538,
      "fgame": 4539,
      "gzip": 4540,
      "receive": 4541,
      "encoder": 4542,
      "front": 4543,
      "Drop": 4544,
      "primary": 4545,
      "lb": 4546,
      "tech": 4547,
      "tax": 4548,
      "velope": 4549,
      "shell": 4550,
      "rot": 4551,
      "AUTH": 4552,
      "/**": 4553,
      "cceed": 4554,
      "Video": 4555,
      "Article": 4556,
      "Handlers": 4557,
      "too": 4558,
      "expression": 4559,
      "mine": 4560,
      "retrieve": 4561,
      "59": 4562,
      "Discovery": 4563,
      "attributes": 4564,
      "Year": 4565,
      "Constraint": 4566,
      "Sets": 4567,
      "such": 4568,
      "Actions": 4569,
      "Relation": 4570,
      "stage": 4571,
      "perform": 4572,
      "0x70": 4573,
      "forward": 4574,
      "Revision": 4575,
      "Invoke": 4576,
      "bf": 4577,
      "ecycle": 4578,
      "Month": 4579,
      "balance": 4580,
      "Rpc": 4581,
      "53": 4582,
      "Rights": 4583,
      "BigEndian": 4584,
      "producer": 4585,
      "Got": 4586,
      "Servers": 4587,
      "CK": 4588,
      "lying": 4589,
      "Dynam": 4590,
      "caller": 4591,
      "delay": 4592,
      "note": 4593,
      "drop": 4594,
      "Exception": 4595,
      "always": 4596,
      "rep": 4597,
      "peri": 4598,
      "subnet": 4599,
      "Lit": 4600,
      "within": 4601,
      "Layout": 4602,
      "relation": 4603,
      "ports": 4604,
      "Catalog": 4605,
      "entities": 4606,
      "connected": 4607,
      "WR": 4608,
      "Jobs": 4609,
      "adapter": 4610,
      "_token": 4611,
      "sav": 4612,
      "Changes": 4613,
      "arg1": 4614,
      "]),": 4615,
      "ically": 4616,
      "tail": 4617,
      "Deadline": 4618,
      "Dr": 4619,
      "89": 4620,
      "progress": 4621,
      "positories": 4622,
      "Capt": 4623,
      "Decl": 4624,
      "Information": 4625,
      "sorted": 4626,
      "Getter": 4627,
      "partition": 4628,
      "Exchange": 4629,
      "itter": 4630,
      "Term": 4631,
      "ErrorCode": 4632,
      "Authentication": 4633,
      "Program": 4634,
      "_C": 4635,
      "ji": 4636,
      "PAR": 4637,
      "Enter": 4638,
      "pf": 4639,
      "flat": 4640,
      "ConfigFile": 4641,
      "Received": 4642,
      "arer": 4643,
      "Keep": 4644,
      "struction": 4645,
      "Modify": 4646,
      "Finish": 4647,
      "linux": 4648,
      "Management": 4649,
      "ErrNo": 4650,
      "Addresses": 4651,
      "LOG": 4652,
      "ality": 4653,
      "ava": 4654,
      "\").(": 4655,
      "Accounts": 4656,
      "03": 4657,
      "GroupVersion": 4658,
      "character": 4659,
      "?,": 4660,
      "BeforeEach": 4661,
      "lon": 4662,
      "Spe": 4663,
      "Destroy": 4664,
      "76": 4665,
      "dn": 4666,
      "httpClient": 4667,
      "PL": 4668,
      "Pred": 4669,
      "pending": 4670,
      "UserId": 4671,
      "allenge": 4672,
      "edit": 4673,
      "_B": 4674,
      "Fs": 4675,
      "included": 4676,
      ":])": 4677,
      "Pol": 4678,
      "compil": 4679,
      "PersistentFlags": 4680,
      "Named": 4681,
      "cu": 4682,
      "Self": 4683,
      "osite": 4684,
      "etime": 4685,
      "Latest": 4686,
      "Cost": 4687,
      "needed": 4688,
      "fall": 4689,
      "Contents": 4690,
      "mongodb": 4691,
      ":],": 4692,
      "uch": 4693,
      "SPDX": 4694,
      "deepcopy": 4695,
      "lr": 4696,
      "both": 4697,
      "ATH": 4698,
      "Sent": 4699,
      "gop": 4700,
      "userId": 4701,
      "GRPC": 4702,
      "desired": 4703,
      "Filters": 4704,
      "tcd": 4705,
      "NULL": 4706,
      "artifact": 4707,
      "foundry": 4708,
      "clock": 4709,
      "constant": 4710,
      "Less": 4711,
      "Power": 4712,
      "appro": 4713,
      "projects": 4714,
      "Changed": 4715,
      "acle": 4716,
      "Syn": 4717,
      "GC": 4718,
      "Ack": 4719,
      "ators": 4720,
      "Signing": 4721,
      "layout": 4722,
      "assets": 4723,
      "Transl": 4724,
      "fp": 4725,
      "abilities": 4726,
      "Try": 4727,
      "configured": 4728,
      "***": 4729,
      "Reconciler": 4730,
      "built": 4731,
      "accounts": 4732,
      "Connector": 4733,
      "initialized": 4734,
      "Transform": 4735,
      "Review": 4736,
      "Secrets": 4737,
      "Daemon": 4738,
      "0x69": 4739,
      "heet": 4740,
      "reconcile": 4741,
      "0x2e": 4742,
      "redirect": 4743,
      "Dispatch": 4744,
      "virtual": 4745,
      "proto3": 4746,
      "Signed": 4747,
      "Parts": 4748,
      "UM": 4749,
      "MethodGet": 4750,
      "Using": 4751,
      "Decrypt": 4752,
      "rsp": 4753,
      "iface": 4754,
      "ips": 4755,
      "png": 4756,
      "USER": 4757,
      "mm": 4758,
      "Aws": 4759,
      "Primary": 4760,
      "_1": 4761,
      "IsDir": 4762,
      "provision": 4763,
      "Forward": 4764,
      "Asso": 4765,
      ".\\": 4766,
      "0x6e": 4767,
      "clone": 4768,
      "BUG": 4769,
      "another": 4770,
      "errupt": 4771,
      "Ns": 4772,
      "describ": 4773,
      "+\"/": 4774,
      "REST": 4775,
      "udp": 4776,
      "Fire": 4777,
      "LIMIT": 4778,
      "criptions": 4779,
      "oscal": 4780,
      "TES": 4781,
      "ServiceClient": 4782,
      "Hosts": 4783,
      "amaz": 4784,
      "0000000000000000": 4785,
      "pur": 4786,
      "discord": 4787,
      "indexer": 4788,
      "Trip": 4789,
      "Cannot": 4790,
      "UserName": 4791,
      "rowser": 4792,
      "matrix": 4793,
      "requested": 4794,
      "deli": 4795,
      "alt": 4796,
      "]+": 4797,
      "fire": 4798,
      "istogram": 4799,
      "mg": 4800,
      "fab": 4801,
      "Conditions": 4802,
      "gers": 4803,
      "Points": 4804,
      "stores": 4805,
      "tor": 4806,
      "rad": 4807,
      "autom": 4808,
      "ORD": 4809,
      "during": 4810,
      "08": 4811,
      "Cry": 4812,
      "Genesis": 4813,
      ".*": 4814,
      "matched": 4815,
      "clear": 4816,
      "Switch": 4817,
      "wares": 4818,
      "fixt": 4819,
      "Pods": 4820,
      "sco": 4821,
      "thread": 4822,
      "devices": 4823,
      "Vault": 4824,
      "prom": 4825,
      "Console": 4826,
      "ini": 4827,
      "Supported": 4828,
      "watcher": 4829,
      "angle": 4830,
      "UnixNano": 4831,
      "46": 4832,
      "kgo": 4833,
      "geo": 4834,
      "Mesh": 4835,
      "ServiceName": 4836,
      "GroupName": 4837,
      "Pan": 4838,
      "invok": 4839,
      "ixel": 4840,
      "ysis": 4841,
      "K8s": 4842,
      "their": 4843,
      "Ops": 4844,
      "ORS": 4845,
      "Links": 4846,
      "ystem": 4847,
      "specify": 4848,
      "providers": 4849,
      "Matrix": 4850,
      "\"$": 4851,
      "Rot": 4852,
      "verage": 4853,
      "09": 4854,
      "prof": 4855,
      "tected": 4856,
      "contact": 4857,
      "urse": 4858,
      "Recv": 4859,
      "Integer": 4860,
      "WithField": 4861,
      "Poll": 4862,
      "weight": 4863,
      "Type_": 4864,
      "Nonce": 4865,
      "Workspace": 4866,
      "tk": 4867,
      "possible": 4868,
      "45": 4869,
      "high": 4870,
      "Cleanup": 4871,
      "Replicas": 4872,
      "amazon": 4873,
      "Broadcast": 4874,
      "SM": 4875,
      "><": 4876,
      "suffix": 4877,
      "PubKey": 4878,
      "catalog": 4879,
      "good": 4880,
      "scheduler": 4881,
      "RemoveAll": 4882,
      "ACK": 4883,
      "rbac": 4884,
      ".%": 4885,
      "ibility": 4886,
      "mitive": 4887,
      "ble": 4888,
      "12345678": 4889,
      "yt": 4890,
      "Stri": 4891,
      "Proc": 4892,
      "successfully": 4893,
      "ocation": 4894,
      "user_id": 4895,
      "ShouldEqual": 4896,
      "addresses": 4897,
      "ipher": 4898,
      "Caller": 4899,
      "bolt": 4900,
      "decl": 4901,
      "\"*": 4902,
      "claim": 4903,
      "year": 4904,
      "Capacity": 4905,
      "Tod": 4906,
      "many": 4907,
      "Phone": 4908,
      "defaults": 4909,
      "ocations": 4910,
      "hoto": 4911,
      "video": 4912,
      "ginkgo": 4913,
      "amer": 4914,
      "\"<": 4915,
      "IsNotExist": 4916,
      "influx": 4917,
      "upgrade": 4918,
      "Quest": 4919,
      "World": 4920,
      "\",\")": 4921,
      "Geo": 4922,
      "fy": 4923,
      "Provid": 4924,
      "client_": 4925,
      "512": 4926,
      "Elast": 4927,
      "retriev": 4928,
      "delta": 4929,
      "incip": 4930,
      "aaaa": 4931,
      "kubeconfig": 4932,
      "UpdatedAt": 4933,
      "keeper": 4934,
      "Creator": 4935,
      "roach": 4936,
      "happ": 4937,
      "ReplaceAll": 4938,
      "Associ": 4939,
      "(\"/\",": 4940,
      "uplicate": 4941,
      "Y_": 4942,
      "SET": 4943,
      "result1": 4944,
      "compile": 4945,
      "maximum": 4946,
      "ti": 4947,
      "Board": 4948,
      "is_": 4949,
      "Tele": 4950,
      "transfer": 4951,
      "PEM": 4952,
      "FlagSet": 4953,
      "Submit": 4954,
      "matching": 4955,
      "Cor": 4956,
      "Corp": 4957,
      "rev": 4958,
      "ube": 4959,
      "rawDesc": 4960,
      "IsZero": 4961,
      "Integration": 4962,
      "iddlewares": 4963,
      "Walk": 4964,
      "OAuth": 4965,
      "_proto_rawDesc": 4966,
      "autogenerated": 4967,
      "disable": 4968,
      "RING": 4969,
      "StatusNotFound": 4970,
      "currently": 4971,
      "ClientConfig": 4972,
      "Sn": 4973,
      "segment": 4974,
      "ention": 4975,
      "DEBUG": 4976,
      "Sco": 4977,
      "named": 4978,
      "removed": 4979,
      "Emb": 4980,
      "MkdirAll": 4981,
      "workspace": 4982,
      "warning": 4983,
      "Clock": 4984,
      "incipal": 4985,
      "mpletion": 4986,
      "RunE": 4987,
      "IX": 4988,
      "Diag": 4989,
      "MAC": 4990,
      "Wallet": 4991,
      "Front": 4992,
      "Arguments": 4993,
      "peat": 4994,
      "artbeat": 4995,
      "statement": 4996,
      "entr": 4997,
      "documentation": 4998,
      "Share": 4999,
      "please": 5000,
      "Fat": 5001,
      "Policies": 5002,
      "Aggregate": 5003,
      "qp": 5004,
      "CHAN": 5005,
      "urer": 5006,
      "TempDir": 5007,
      "seg": 5008,
      "clus": 5009,
      "inline": 5010,
      "lower": 5011,
      "namesp": 5012,
      "graf": 5013,
      "Wr": 5014,
      "Charact": 5015,
      "V4": 5016,
      "against": 5017,
      "errChan": 5018,
      "ider": 5019,
      "jor": 5020,
      "initions": 5021,
      "Clients": 5022,
      "Some": 5023,
      "Embed": 5024,
      "Deleg": 5025,
      "La": 5026,
      "DAT": 5027,
      "Intn": 5028,
      "gonic": 5029,
      "Uint16": 5030,
      "Indent": 5031,
      "stor": 5032,
      "Leader": 5033,
      "runs": 5034,
      "popul": 5035,
      "c1": 5036,
      "Perm": 5037,
      "sock": 5038,
      "Proposal": 5039,
      "fill": 5040,
      "sessions": 5041,
      "aterial": 5042,
      "`.": 5043,
      "even": 5044,
      "ttl": 5045,
      "AV": 5046,
      "sar": 5047,
      "prompt": 5048,
      "Ensure": 5049,
      "modified": 5050,
      "Sim": 5051,
      "Depth": 5052,
      "0x02": 5053,
      "CF": 5054,
      "\\\"%": 5055,
      "White": 5056,
      "transform": 5057,
      "vt": 5058,
      "p1": 5059,
      "plane": 5060,
      "Quote": 5061,
      "m_": 5062,
      "Writ": 5063,
      "msgs": 5064,
      "olint": 5065,
      "cloudfoundry": 5066,
      "channels": 5067,
      "FromString": 5068,
      "creation": 5069,
      "RESS": 5070,
      "signer": 5071,
      "telemetry": 5072,
      "transl": 5073,
      "organization": 5074,
      "Github": 5075,
      "starts": 5076,
      "a2": 5077,
      "enar": 5078,
      "Algorithm": 5079,
      "ParseInt": 5080,
      "maps": 5081,
      "dispatch": 5082,
      ">\",": 5083,
      "cron": 5084,
      "Quota": 5085,
      "updat": 5086,
      "prove": 5087,
      "alln": 5088,
      "uman": 5089,
      "managed": 5090,
      "Rev": 5091,
      "workers": 5092,
      "roles": 5093,
      "Windows": 5094,
      "ky": 5095,
      "atar": 5096,
      "privateKey": 5097,
      "0x0a": 5098,
      ")*": 5099,
      "0x2f": 5100,
      "etes": 5101,
      "IsValid": 5102,
      "Dim": 5103,
      "Channels": 5104,
      "iry": 5105,
      "Conflict": 5106,
      "resolve": 5107,
      "CONN": 5108,
      "precated": 5109,
      "bd": 5110,
      "INFO": 5111,
      "ForCall": 5112,
      "Etcd": 5113,
      "nost": 5114,
      "Insecure": 5115,
      "Elastic": 5116,
      "formed": 5117,
      "sf": 5118,
      "lev": 5119,
      "havior": 5120,
      "Fatalln": 5121,
      "IPv4": 5122,
      "SC": 5123,
      "evt": 5124,
      "Ctr": 5125,
      "Archive": 5126,
      "migration": 5127,
      "processor": 5128,
      "\"[": 5129,
      "nolint": 5130,
      "outputs": 5131,
      "ony": 5132,
      "El": 5133,
      "andidate": 5134,
      "Dao": 5135,
      "HE": 5136,
      "fileDescriptor": 5137,
      "requency": 5138,
      "52": 5139,
      "rok": 5140,
      "sending": 5141,
      "Answ": 5142,
      "Cipher": 5143,
      "maz": 5144,
      "VID": 5145,
      "going": 5146,
      "qr": 5147,
      "Creation": 5148,
      "Yaml": 5149,
      "issues": 5150,
      "underlying": 5151,
      "none": 5152,
      "ategories": 5153,
      "Audit": 5154,
      "APP": 5155,
      "testAcc": 5156,
      "icip": 5157,
      "dk": 5158,
      "v0": 5159,
      "644": 5160,
      "1111": 5161,
      "Attemp": 5162,
      "WARN": 5163,
      "ToNot": 5164,
      "customer": 5165,
      "Sug": 5166,
      "StringPtr": 5167,
      "dynamic": 5168,
      "imports": 5169,
      "ById": 5170,
      "79": 5171,
      "'\\": 5172,
      "utes": 5173,
      "Evalu": 5174,
      "Distri": 5175,
      "Proof": 5176,
      "bootstrap": 5177,
      "uter": 5178,
      "////////////////////////////////": 5179,
      "][%": 5180,
      "grid": 5181,
      "Initial": 5182,
      "selected": 5183,
      "{}),": 5184,
      "compare": 5185,
      "HasSuffix": 5186,
      "ACL": 5187,
      "beego": 5188,
      "ides": 5189,
      "MM": 5190,
      "Configure": 5191,
      "\"./": 5192,
      "1e": 5193,
      "Arn": 5194,
      "mn": 5195,
      "share": 5196,
      "working": 5197,
      "poll": 5198,
      "Matches": 5199,
      "Support": 5200,
      "Gas": 5201,
      "hyper": 5202,
      "describes": 5203,
      "ressed": 5204,
      "Warnf": 5205,
      "0x12": 5206,
      "management": 5207,
      "cost": 5208,
      "lier": 5209,
      "summary": 5210,
      "Exporter": 5211,
      "eric": 5212,
      "ssl": 5213,
      "DataSource": 5214,
      "63": 5215,
      "Cid": 5216,
      "MQ": 5217,
      "leader": 5218,
      "baz": 5219,
      "define": 5220,
      "testCases": 5221,
      "article": 5222,
      "flush": 5223,
      "Confirm": 5224,
      "peers": 5225,
      "DateTime": 5226,
      "priority": 5227,
      "SSL": 5228,
      "cha": 5229,
      "lists": 5230,
      "VALU": 5231,
      "inger": 5232,
      "Sol": 5233,
      "ale": 5234,
      "cir": 5235,
      "provide": 5236,
      "sqlite": 5237,
      "would": 5238,
      "copying": 5239,
      "WN": 5240,
      "uc": 5241,
      "aba": 5242,
      "Detect": 5243,
      "pet": 5244,
      "Slot": 5245,
      "25519": 5246,
      "AccessKey": 5247,
      "including": 5248,
      "chi": 5249,
      "LoadBalancer": 5250,
      "-----": 5251,
      "lif": 5252,
      "pages": 5253,
      "Templates": 5254,
      "something": 5255,
      "Rollback": 5256,
      "font": 5257,
      "regex": 5258,
      "ders": 5259,
      "Country": 5260,
      "ef": 5261,
      "]]": 5262,
      "usr": 5263,
      "mediate": 5264,
      "Black": 5265,
      "payment": 5266,
      "lc": 5267,
      "screen": 5268,
      "Unary": 5269,
      "addrs": 5270,
      "ADD": 5271,
      "envoy": 5272,
      "dm": 5273,
      "tection": 5274,
      "########": 5275,
      "192": 5276,
      "hc": 5277,
      "Override": 5278,
      "queries": 5279,
      "least": 5280,
      "300": 5281,
      "limiter": 5282,
      "EnvVar": 5283,
      "Started": 5284,
      "High": 5285,
      "Old": 5286,
      "subscribe": 5287,
      "9999": 5288,
      "Testing": 5289,
      "Please": 5290,
      "a0": 5291,
      "acon": 5292,
      "lies": 5293,
      "series": 5294,
      ")+": 5295,
      "compress": 5296,
      "rp": 5297,
      "Area": 5298,
      "IV": 5299,
      "Scheduler": 5300,
      "FAUL": 5301,
      "zerolog": 5302,
      "Actor": 5303,
      "_v1": 5304,
      "Pin": 5305,
      "characters": 5306,
      "_KEY": 5307,
      "ClientID": 5308,
      "prop": 5309,
      "Pi": 5310,
      "leet": 5311,
      "OpenFile": 5312,
      "RequestID": 5313,
      "gorilla": 5314,
      "charset": 5315,
      "commun": 5316,
      "Icon": 5317,
      "quit": 5318,
      "Mac": 5319,
      "t1": 5320,
      "s0": 5321,
      "istio": 5322,
      "{}).": 5323,
      "iece": 5324,
      "isters": 5325,
      "correspon": 5326,
      "2015": 5327,
      "iterator": 5328,
      "credential": 5329,
      "vr": 5330,
      "ifiers": 5331,
      "md5": 5332,
      "TIC": 5333,
      "yet": 5334,
      "activ": 5335,
      "goroutine": 5336,
      "Fore": 5337,
      "Apps": 5338,
      "Setenv": 5339,
      "Uri": 5340,
      "General": 5341,
      ")/": 5342,
      "blog": 5343,
      "Replica": 5344,
      "startTime": 5345,
      "Epoch": 5346,
      "Separ": 5347,
      "MatchString": 5348,
      "Infos": 5349,
      "pad": 5350,
      "Migration": 5351,
      "DEFAUL": 5352,
      "CoreV1": 5353,
      "mk": 5354,
      "Activ": 5355,
      "fails": 5356,
      "WITH": 5357,
      "filtered": 5358,
      "(\":": 5359,
      "examples": 5360,
      "cipient": 5361,
      "Replication": 5362,
      "numbers": 5363,
      "ShouldBeNil": 5364,
      "dto": 5365,
      "capacity": 5366,
      "live": 5367,
      "ird": 5368,
      "know": 5369,
      "pop": 5370,
      "ServiceServer": 5371,
      "RGBA": 5372,
      "Interceptor": 5373,
      "terminal": 5374,
      "});": 5375,
      "fiber": 5376,
      "oo": 5377,
      "encrypted": 5378,
      "ough": 5379,
      "black": 5380,
      "ckroach": 5381,
      "Dashboard": 5382,
      "WaitFor": 5383,
      "ound": 5384,
      "ectl": 5385,
      "75": 5386,
      "Echo": 5387,
      "Abort": 5388,
      "itive": 5389,
      "Registration": 5390,
      "configure": 5391,
      "TRAC": 5392,
      "Issuer": 5393,
      "Two": 5394,
      "TYPE_": 5395,
      "walk": 5396,
      "Rank": 5397,
      "consul": 5398,
      "Emit": 5399,
      "waiting": 5400,
      "inject": 5401,
      "Thread": 5402,
      "arn": 5403,
      "incorrect": 5404,
      "fw": 5405,
      "Jo": 5406,
      "gopher": 5407,
      "hour": 5408,
      "98": 5409,
      "TX": 5410,
      "protoc": 5411,
      "cnt": 5412,
      "related": 5413,
      "holder": 5414,
      "tracer": 5415,
      "Amaz": 5416,
      "pq": 5417,
      "StdEncoding": 5418,
      "lan": 5419,
      "nats": 5420,
      "Mapper": 5421,
      "}(": 5422,
      "Encryption": 5423,
      "annotations": 5424,
      "riend": 5425,
      "APIVersion": 5426,
      "Expires": 5427,
      "links": 5428,
      "gative": 5429,
      "tid": 5430,
      "Amazon": 5431,
      "FromContext": 5432,
      "Clusters": 5433,
      "Prometheus": 5434,
      "who": 5435,
      "processing": 5436,
      "Without": 5437,
      "StartTime": 5438,
      "vas": 5439,
      "deleg": 5440,
      "user_": 5441,
      "NewWriter": 5442,
      "0x63": 5443,
      "converts": 5444,
      "Calcul": 5445,
      "WH": 5446,
      "ios": 5447,
      "leases": 5448,
      "V3": 5449,
      "ENT_": 5450,
      "Little": 5451,
      "ArgsForCall": 5452,
      "Restore": 5453,
      "enk": 5454,
      "Vote": 5455,
      "Eq": 5456,
      "strument": 5457,
      "CONF": 5458,
      "alled": 5459,
      "eb": 5460,
      "coll": 5461,
      "ighb": 5462,
      "CIDR": 5463,
      "Variables": 5464,
      "(?": 5465,
      "SERV": 5466,
      "containing": 5467,
      "clusters": 5468,
      "unicode": 5469,
      "benchmark": 5470,
      "configFile": 5471,
      "periment": 5472,
      "vpc": 5473,
      "orary": 5474,
      "Providers": 5475,
      "Bridge": 5476,
      "ied": 5477,
      "_count": 5478,
      "yml": 5479,
      "TT": 5480,
      "contentType": 5481,
      "sid": 5482,
      "Measure": 5483,
      "TestCheck": 5484,
      "Visit": 5485,
      "Direction": 5486,
      "ffic": 5487,
      "3339": 5488,
      "bridge": 5489,
      "finished": 5490,
      "chemas": 5491,
      "Tracer": 5492,
      "Severity": 5493,
      "ConfigPath": 5494,
      "StringVarP": 5495,
      "creds": 5496,
      "successful": 5497,
      "Many": 5498,
      ")\\": 5499,
      "gi": 5500,
      "nothing": 5501,
      "Prob": 5502,
      "Ctrl": 5503,
      "Quantity": 5504,
      "x1": 5505,
      "Peers": 5506,
      "sink": 5507,
      "ffff": 5508,
      "cdc": 5509,
      "{}{\"": 5510,
      "Foo": 5511,
      "HealthCheck": 5512,
      "Seek": 5513,
      "pology": 5514,
      "Pid": 5515,
      "Volumes": 5516,
      "ram": 5517,
      "answer": 5518,
      "\"}},": 5519,
      "typed": 5520,
      "completed": 5521,
      "int8": 5522,
      "NewRecorder": 5523,
      "gard": 5524,
      "power": 5525,
      "att": 5526,
      "Present": 5527,
      "tom": 5528,
      "STAT": 5529,
      "anti": 5530,
      "_RE": 5531,
      "phone": 5532,
      "0644": 5533,
      "hdr": 5534,
      "int16": 5535,
      "small": 5536,
      "Alive": 5537,
      "inator": 5538,
      "serial": 5539,
      "Reconcile": 5540,
      "Follow": 5541,
      "CSV": 5542,
      "trust": 5543,
      "csi": 5544,
      "LittleEndian": 5545,
      "wrapped": 5546,
      "NON": 5547,
      "zapcore": 5548,
      "0x6c": 5549,
      "apsed": 5550,
      "mag": 5551,
      "company": 5552,
      "compatible": 5553,
      "qui": 5554,
      "PY": 5555,
      "MySQL": 5556,
      "Pages": 5557,
      "aes": 5558,
      "oss": 5559,
      "ServiceAccount": 5560,
      "created_at": 5561,
      "\"/\",": 5562,
      "d2": 5563,
      "ATION": 5564,
      "Side": 5565,
      "Postgres": 5566,
      "LY": 5567,
      "repl": 5568,
      "targets": 5569,
      "](": 5570,
      "());": 5571,
      ".\"": 5572,
      "ytics": 5573,
      "decoded": 5574,
      "mes": 5575,
      "problem": 5576,
      "PS": 5577,
      "anc": 5578,
      "bined": 5579,
      "inf": 5580,
      "streams": 5581,
      "Escape": 5582,
      "GetConfig": 5583,
      "serviceName": 5584,
      "fly": 5585,
      "Probe": 5586,
      "ulate": 5587,
      "activity": 5588,
      "fabric": 5589,
      "Added": 5590,
      "Cron": 5591,
      "lexer": 5592,
      "ama": 5593,
      "days": 5594,
      "endermint": 5595,
      "`{\"": 5596,
      "ulner": 5597,
      "Implement": 5598,
      "Conns": 5599,
      "Transactions": 5600,
      "center": 5601,
      "ah": 5602,
      "isSet": 5603,
      "Projects": 5604,
      "executor": 5605,
      "Fun": 5606,
      "tables": 5607,
      "ResourceData": 5608,
      "olute": 5609,
      "tableName": 5610,
      "odb": 5611,
      "button": 5612,
      "lambda": 5613,
      "marshall": 5614,
      "charge": 5615,
      "adog": 5616,
      "ERS": 5617,
      "super": 5618,
      "IGHT": 5619,
      "Connections": 5620,
      "FromFile": 5621,
      "OD": 5622,
      "uff": 5623,
      "Question": 5624,
      "exchange": 5625,
      "``": 5626,
      "andbox": 5627,
      "DecodeString": 5628,
      "Include": 5629,
      "sur": 5630,
      "incoming": 5631,
      "err2": 5632,
      "Fixed": 5633,
      "TestNew": 5634,
      "shake": 5635,
      "Font": 5636,
      "RemoteAddr": 5637,
      "sleep": 5638,
      "Verbose": 5639,
      "dim": 5640,
      "Tab": 5641,
      "Need": 5642,
      "ValidationError": 5643,
      "IMP": 5644,
      "evalu": 5645,
      "Prop": 5646,
      "datas": 5647,
      "repos": 5648,
      "Let": 5649,
      ":\")": 5650,
      "MB": 5651,
      "Histogram": 5652,
      "permit": 5653,
      "Updat": 5654,
      "decimal": 5655,
      "Starting": 5656,
      "Lin": 5657,
      "upstream": 5658,
      "KeyPair": 5659,
      "recogn": 5660,
      "Tables": 5661,
      "rive": 5662,
      "Shell": 5663,
      "INCL": 5664,
      "kernel": 5665,
      "Serializ": 5666,
      "GitHub": 5667,
      "Hy": 5668,
      "Streams": 5669,
      "Operations": 5670,
      "Funcs": 5671,
      "]:": 5672,
      "Tracker": 5673,
      "dict": 5674,
      "GUID": 5675,
      "rome": 5676,
      "Io": 5677,
      "Rad": 5678,
      "OnError": 5679,
      "Pur": 5680,
      "override": 5681,
      "Inject": 5682,
      "_code": 5683,
      "well": 5684,
      "Decimal": 5685,
      "b2": 5686,
      "phrase": 5687,
      "Car": 5688,
      "Character": 5689,
      "Wrong": 5690,
      "pto": 5691,
      "Remo": 5692,
      "relative": 5693,
      "bm": 5694,
      "97": 5695,
      "ban": 5696,
      "Serial": 5697,
      "Center": 5698,
      "ailability": 5699,
      "e2e": 5700,
      "AY": 5701,
      "atio": 5702,
      "Already": 5703,
      "Checksum": 5704,
      "Answer": 5705,
      "revision": 5706,
      "Factor": 5707,
      "aking": 5708,
      "heap": 5709,
      "Prompt": 5710,
      "kr": 5711,
      "namespaces": 5712,
      "Selection": 5713,
      "Workers": 5714,
      "gf": 5715,
      "kb": 5716,
      "Mu": 5717,
      "0x20": 5718,
      "\")))": 5719,
      "enario": 5720,
      "href": 5721,
      "\")),": 5722,
      "UserAgent": 5723,
      "publicKey": 5724,
      "month": 5725,
      "still": 5726,
      "FormValue": 5727,
      "Bulk": 5728,
      "City": 5729,
      "ampa": 5730,
      "Reverse": 5731,
      "due": 5732,
      "Fill": 5733,
      "Safe": 5734,
      "CB": 5735,
      "transactions": 5736,
      "pubsub": 5737,
      "Ts": 5738,
      "Editing": 5739,
      "Aliases": 5740,
      "ampaign": 5741,
      "Launch": 5742,
      "Namespaces": 5743,
      "`),": 5744,
      "disabled": 5745,
      "StringValue": 5746,
      "WithCancel": 5747,
      "INCLUD": 5748,
      "cv": 5749,
      "ius": 5750,
      "validates": 5751,
      "Publisher": 5752,
      "scr": 5753,
      "MER": 5754,
      "later": 5755,
      "Envelope": 5756,
      "monitoring": 5757,
      "buffers": 5758,
      "0x67": 5759,
      "cture": 5760,
      "Calls": 5761,
      "Tile": 5762,
      "Market": 5763,
      "Family": 5764,
      "iso": 5765,
      "amqp": 5766,
      "rg": 5767,
      "AAAA": 5768,
      "served": 5769,
      "Separator": 5770,
      "DataType": 5771,
      "Retrieve": 5772,
      "//}": 5773,
      "dashboard": 5774,
      "strategy": 5775,
      "ASE": 5776,
      "Traffic": 5777,
      "exporter": 5778,
      "ShouldNot": 5779,
      "steps": 5780,
      "Ty": 5781,
      "()}": 5782,
      "algorithm": 5783,
      "uzz": 5784,
      "RFC3339": 5785,
      "Components": 5786,
      "Initializ": 5787,
      "pd": 5788,
      "fb": 5789,
      "MarshalBinary": 5790,
      "Composite": 5791,
      "visor": 5792,
      "ILE": 5793,
      "Fmt": 5794,
      "plicit": 5795,
      "Construct": 5796,
      "Generated": 5797,
      "cmds": 5798,
      "ancher": 5799,
      "futile": 5800,
      "entracing": 5801,
      "Vertex": 5802,
      "ingerprint": 5803,
      "submit": 5804,
      "UnmarshalBinary": 5805,
      "mw": 5806,
      "elet": 5807,
      "azy": 5808,
      "_data": 5809,
      "sends": 5810,
      "Dialer": 5811,
      "()[": 5812,
      "NewError": 5813,
      "squ": 5814,
      "()]": 5815,
      "market": 5816,
      "0x64": 5817,
      "INCLUDING": 5818,
      "agment": 5819,
      "ACTION": 5820,
      "BaseURL": 5821,
      "BY": 5822,
      "Targets": 5823,
      "Dict": 5824,
      "dsa": 5825,
      "DisplayName": 5826,
      "EqualValues": 5827,
      "(\"./": 5828,
      "_config": 5829,
      "certs": 5830,
      "detect": 5831,
      "ros": 5832,
      "makes": 5833,
      "Bet": 5834,
      "Dst": 5835,
      "TestCase": 5836,
      "SION": 5837,
      "edger": 5838,
      "Light": 5839,
      "erv": 5840,
      "calling": 5841,
      "TOK": 5842,
      "ctor": 5843,
      "quote": 5844,
      "Dependency": 5845,
      "_b": 5846,
      "raft": 5847,
      "crd": 5848,
      "APIKey": 5849,
      "SI": 5850,
      "Double": 5851,
      "Kill": 5852,
      "Reporter": 5853,
      "States": 5854,
      "opentracing": 5855,
      "_Get": 5856,
      "pw": 5857,
      "were": 5858,
      "Elements": 5859,
      "icator": 5860,
      "Execut": 5861,
      "best": 5862,
      "Subscriber": 5863,
      "Vpc": 5864,
      "acl": 5865,
      "invocations": 5866,
      "menu": 5867,
      "fixed": 5868,
      "[:])": 5869,
      "Converter": 5870,
      "Dynamic": 5871,
      "nest": 5872,
      "ulation": 5873,
      "white": 5874,
      "future": 5875,
      "RIGHT": 5876,
      "upper": 5877,
      "ctionary": 5878,
      "ito": 5879,
      "=>": 5880,
      "zk": 5881,
      "networking": 5882,
      "EVENT": 5883,
      "riteria": 5884,
      "policies": 5885,
      "MessageType": 5886,
      "Todo": 5887,
      "CN": 5888,
      "tendermint": 5889,
      "Cir": 5890,
      "Zip": 5891,
      "take": 5892,
      "Mul": 5893,
      "Expiration": 5894,
      "IAM": 5895,
      "Leg": 5896,
      "ASS": 5897,
      "probe": 5898,
      "NewConfig": 5899,
      "StringOutput": 5900,
      "uge": 5901,
      "awsmiddleware": 5902,
      "Atom": 5903,
      "Inputs": 5904,
      "Grant": 5905,
      "INSER": 5906,
      "contribut": 5907,
      "appName": 5908,
      "proof": 5909,
      "formatted": 5910,
      "icles": 5911,
      "Compact": 5912,
      "\\\",": 5913,
      "POSE": 5914,
      "admission": 5915,
      "checksum": 5916,
      "\".\"": 5917,
      "KeyValue": 5918,
      "){": 5919,
      "orig": 5920,
      "Slack": 5921,
      "87": 5922,
      "processed": 5923,
      "als": 5924,
      "go_": 5925,
      "htt": 5926,
      "thon": 5927,
      "sat": 5928,
      "Comm": 5929,
      "Migrate": 5930,
      "!!": 5931,
      "lua": 5932,
      "\"].": 5933,
      "icloud": 5934,
      "Renderer": 5935,
      "ze": 5936,
      "recv": 5937,
      "pkt": 5938,
      "Updates": 5939,
      "COPY": 5940,
      "Lifecycle": 5941,
      "Bill": 5942,
      "NoContent": 5943,
      "Week": 5944,
      "AES": 5945,
      "threshold": 5946,
      "fficient": 5947,
      "mgo": 5948,
      "semb": 5949,
      "bosh": 5950,
      "Delivery": 5951,
      "'.": 5952,
      "erialize": 5953,
      "AF": 5954,
      "migrate": 5955,
      "avor": 5956,
      "restri": 5957,
      "weet": 5958,
      "Float32": 5959,
      "enkins": 5960,
      "pairs": 5961,
      "001": 5962,
      "Comments": 5963,
      "\"];": 5964,
      "seen": 5965,
      "Additional": 5966,
      "[:],": 5967,
      "px": 5968,
      "aper": 5969,
      "*[]": 5970,
      "ISE": 5971,
      "bk": 5972,
      "ErrCode": 5973,
      "Connected": 5974,
      "Lang": 5975,
      "sources": 5976,
      "audit": 5977,
      "ever": 5978,
      "refer": 5979,
      "ReadCloser": 5980,
      "FIT": 5981,
      "TOKEN": 5982,
      "stdin": 5983,
      "ResponseBody": 5984,
      "clusterName": 5985,
      "2f": 5986,
      "Too": 5987,
      "reverse": 5988,
      "Crypto": 5989,
      "MessageInfo": 5990,
      "Addrs": 5991,
      "Slug": 5992,
      "determine": 5993,
      "Tech": 5994,
      "Mi": 5995,
      "attrs": 5996,
      "Pul": 5997,
      "Repeat": 5998,
      "Unsafe": 5999,
      "67": 6000,
      "D_": 6001,
      "TypeName": 6002,
      "Than": 6003,
      "aries": 6004,
      "ULAR": 6005,
      "0x52": 6006,
      "INSERT": 6007,
      "********************************": 6008,
      "></": 6009,
      "distribution": 6010,
      "Delta": 6011,
      "TYPE": 6012,
      "broadcast": 6013,
      "gw": 6014,
      "nb": 6015,
      "Blue": 6016,
      "Heap": 6017,
      "([": 6018,
      "ki": 6019,
      "ism": 6020,
      "fatal": 6021,
      "ECTION": 6022,
      "removes": 6023,
      "spaces": 6024,
      "0x08": 6025,
      "95": 6026,
      "Unimplemented": 6027,
      "cockroach": 6028,
      "FormatInt": 6029,
      "Bootstrap": 6030,
      "ko": 6031,
      "Secure": 6032,
      "demo": 6033,
      "unsupported": 6034,
      "Finished": 6035,
      "PUR": 6036,
      "WriteTo": 6037,
      "RoundTrip": 6038,
      "ulator": 6039,
      "Reward": 6040,
      "Attrs": 6041,
      "routing": 6042,
      "Disabled": 6043,
      "\";": 6044,
      "BT": 6045,
      "Clientset": 6046,
      "encryption": 6047,
      "nums": 6048,
      "avoid": 6049,
      "MERCHAN": 6050,
      "IPs": 6051,
      "izes": 6052,
      "168": 6053,
      "Props": 6054,
      "URLs": 6055,
      "BO": 6056,
      "automat": 6057,
      "Marshaler": 6058,
      "EXT": 6059,
      "qs": 6060,
      "ipfs": 6061,
      "ardown": 6062,
      "TABILITY": 6063,
      "atory": 6064,
      "0x6d": 6065,
      "\")},": 6066,
      "eg": 6067,
      "registers": 6068,
      "Grid": 6069,
      "Fixt": 6070,
      "MERCHANTABILITY": 6071,
      "deletes": 6072,
      "BUT": 6073,
      "expire": 6074,
      "blue": 6075,
      "EG": 6076,
      "apiserver": 6077,
      "NotEmpty": 6078,
      "2022": 6079,
      "corresponding": 6080,
      "Pret": 6081,
      "bi": 6082,
      "atterns": 6083,
      "Screen": 6084,
      "ners": 6085,
      "cas": 6086,
      "gob": 6087,
      "Dataset": 6088,
      "Boolean": 6089,
      "baseURL": 6090,
      "Library": 6091,
      "Bearer": 6092,
      "chronous": 6093,
      "loading": 6094,
      "Same": 6095,
      "RD": 6096,
      "vector": 6097,
      "requires": 6098,
      "Multiple": 6099,
      "ginx": 6100,
      "Mysql": 6101,
      "decrypt": 6102,
      "Limiter": 6103,
      "registration": 6104,
      "Until": 6105,
      "urls": 6106,
      "SHA256": 6107,
      "Live": 6108,
      "constraint": 6109,
      "fee": 6110,
      "checker": 6111,
      "uest": 6112,
      "genesis": 6113,
      "ErrNotFound": 6114,
      "launch": 6115,
      "Ms": 6116,
      "deps": 6117,
      "Extensions": 6118,
      "Steps": 6119,
      "401": 6120,
      "Accepted": 6121,
      "PURPOSE": 6122,
      "_2": 6123,
      "NESS": 6124,
      "tn": 6125,
      "LIED": 6126,
      "pflag": 6127,
      "works": 6128,
      "Completed": 6129,
      "tee": 6130,
      "specifies": 6131,
      "EMENT": 6132,
      "Txn": 6133,
      "TreeNode": 6134,
      "3f": 6135,
      "RawMessage": 6136,
      "Coordin": 6137,
      "e6": 6138,
      "supports": 6139,
      "...))": 6140,
      "Lease": 6141,
      "DATE": 6142,
      "stems": 6143,
      "PARTIC": 6144,
      "api_": 6145,
      "ray": 6146,
      "ProjectID": 6147,
      "swap": 6148,
      "UTF": 6149,
      "Restart": 6150,
      "bon": 6151,
      "subst": 6152,
      "retrieves": 6153,
      "shim": 6154,
      "Shift": 6155,
      "LR": 6156,
      "IMPLIED": 6157,
      "descriptor": 6158,
      "PD": 6159,
      "There": 6160,
      "Plugins": 6161,
      "tuple": 6162,
      "Routing": 6163,
      "dependency": 6164,
      "().(*": 6165,
      "Kn": 6166,
      "onical": 6167,
      "Unsupported": 6168,
      "mlink": 6169,
      "x00": 6170,
      "filesystem": 6171,
      "views": 6172,
      "PARTICULAR": 6173,
      "ClientConn": 6174,
      "s0i32": 6175,
      "Inventory": 6176,
      "IPv6": 6177,
      "slot": 6178,
      "cols": 6179,
      "OL": 6180,
      "sqlx": 6181,
      "Succeed": 6182,
      "Fetcher": 6183,
      "../../": 6184,
      "VC": 6185,
      "percent": 6186,
      "sell": 6187,
      "lp": 6188,
      "FITNESS": 6189,
      "DIS": 6190,
      "DAM": 6191,
      "pprof": 6192,
      "\"#": 6193,
      "Sources": 6194,
      "Distance": 6195,
      "va": 6196,
      "deterministic": 6197,
      "builds": 6198,
      "\"{": 6199,
      "MethodPost": 6200,
      "GetValue": 6201,
      "0x75": 6202,
      "necess": 6203,
      "cross": 6204,
      "aliyun": 6205,
      "Then": 6206,
      "roid": 6207,
      "Choice": 6208,
      "ku": 6209,
      "NewTest": 6210,
      "DAMAG": 6211,
      "bank": 6212,
      "remaining": 6213,
      "70": 6214,
      "().(": 6215,
      "directly": 6216,
      "oted": 6217,
      "Submatch": 6218,
      "_service": 6219,
      "props": 6220,
      "Speed": 6221,
      "Anything": 6222,
      "workload": 6223,
      "Eventually": 6224,
      "expired": 6225,
      "ading": 6226,
      "3d": 6227,
      "finish": 6228,
      "NamespacedName": 6229,
      "Trade": 6230,
      "parses": 6231,
      "xxxx": 6232,
      "lems": 6233,
      "ritical": 6234,
      "accessToken": 6235,
      "salt": 6236,
      "101": 6237,
      "Helm": 6238,
      "grafana": 6239,
      "println": 6240,
      "Widget": 6241,
      "\")).": 6242,
      "generates": 6243,
      "0x62": 6244,
      "ication": 6245,
      "WithStack": 6246,
      "Upstream": 6247,
      "connector": 6248,
      "blockchain": 6249,
      "_size": 6250,
      "vv": 6251,
      "mime": 6252,
      "errMsg": 6253,
      "apiKey": 6254,
      "ience": 6255,
      "nn": 6256,
      "attempt": 6257,
      "CONFIG": 6258,
      "za": 6259,
      "states": 6260,
      "rcv": 6261,
      "LIMITED": 6262,
      "below": 6263,
      "gRPC": 6264,
      "bum": 6265,
      "Errs": 6266,
      "_path": 6267,
      "SetDefault": 6268,
      "epoch": 6269,
      "aver": 6270,
      "Workload": 6271,
      "country": 6272,
      "CLA": 6273,
      "Div": 6274,
      "Srv": 6275,
      "Bounds": 6276,
      "pixel": 6277,
      "Low": 6278,
      "FileSystem": 6279,
      "signing": 6280,
      "fm": 6281,
      "Logo": 6282,
      "terms": 6283,
      "FAIL": 6284,
      "Computed": 6285,
      "annotation": 6286,
      "oter": 6287,
      "dynamodb": 6288,
      "72": 6289,
      "rancher": 6290,
      "balancer": 6291,
      "k1": 6292,
      "Unstructured": 6293,
      "peg": 6294,
      "cursive": 6295,
      "gz": 6296,
      "Receipt": 6297,
      "Outputs": 6298,
      "Linked": 6299,
      "consist": 6300,
      "utf8": 6301,
      "Codes": 6302,
      "000000": 6303,
      "errides": 6304,
      "aris": 6305,
      "HOLD": 6306,
      "analysis": 6307,
      "RSA": 6308,
      "Exact": 6309,
      "RecordCall": 6310,
      "CRD": 6311,
      "85": 6312,
      "Coins": 6313,
      "_in": 6314,
      "abbit": 6315,
      "Dependencies": 6316,
      "stopped": 6317,
      "Inspect": 6318,
      "Nop": 6319,
      "configPath": 6320,
      "tile": 6321,
      "rank": 6322,
      "Compose": 6323,
      "_group": 6324,
      "ONLY": 6325,
      "exact": 6326,
      "san": 6327,
      "Expire": 6328,
      "K_": 6329,
      "nat": 6330,
      "Union": 6331,
      "HOST": 6332,
      "Plain": 6333,
      "lg": 6334,
      "StatusUnauthorized": 6335,
      "QueryRow": 6336,
      "comments": 6337,
      "proper": 6338,
      "GetOptions": 6339,
      "Grpc": 6340,
      "behavior": 6341,
      "Expired": 6342,
      "returning": 6343,
      "Diagnost": 6344,
      "dh": 6345,
      "compiled": 6346,
      "measure": 6347,
      ")\"": 6348,
      "Ep": 6349,
      "eng": 6350,
      "Trunc": 6351,
      "Verification": 6352,
      "ons": 6353,
      "ii": 6354,
      "mix": 6355,
      "MethodType": 6356,
      "samples": 6357,
      "dependencies": 6358,
      "Sess": 6359,
      "0x28": 6360,
      "0x10": 6361,
      "ToUpper": 6362,
      "ardware": 6363,
      "inspect": 6364,
      "Scalar": 6365,
      "t2": 6366,
      "NewDefault": 6367,
      "recognized": 6368,
      "Company": 6369,
      "WithValue": 6370,
      "phase": 6371,
      "chrom": 6372,
      "exported": 6373,
      "EB": 6374,
      "C_": 6375,
      "Tuple": 6376,
      "checking": 6377,
      "dsn": 6378,
      "logical": 6379,
      "Statistics": 6380,
      "pv": 6381,
      "Ship": 6382,
      "yy": 6383,
      "Base64": 6384,
      "DA": 6385,
      "43": 6386,
      "van": 6387,
      "Effect": 6388,
      "Terraform": 6389,
      "Scene": 6390,
      "yzer": 6391,
      "TrimPrefix": 6392,
      "NewScanner": 6393,
      "refs": 6394,
      "_value": 6395,
      "ested": 6396,
      "assertion": 6397,
      "LIABILITY": 6398,
      "OutputWithContext": 6399,
      "cceeded": 6400,
      "constructor": 6401,
      "Interrupt": 6402,
      "migrations": 6403,
      "varint": 6404,
      "NOTE": 6405,
      "features": 6406,
      "rror": 6407,
      ").(*": 6408,
      "Foundation": 6409,
      "ecs": 6410,
      "mutation": 6411,
      "UserInfo": 6412,
      "amera": 6413,
      "restore": 6414,
      "rott": 6415,
      "Retries": 6416,
      "easy": 6417,
      "emit": 6418,
      "Dot": 6419,
      "closing": 6420,
      "DH": 6421,
      "ClusterName": 6422,
      "course": 6423,
      "0x04": 6424,
      "Linux": 6425,
      "Trust": 6426,
      "trim": 6427,
      "kubectl": 6428,
      "volumes": 6429,
      "unstructured": 6430,
      "Latency": 6431,
      "Uid": 6432,
      "Aff": 6433,
      "around": 6434,
      "NamespaceLister": 6435,
      "hit": 6436,
      "PageSize": 6437,
      "91": 6438,
      "pretty": 6439,
      "dataset": 6440,
      "0x03": 6441,
      "\".\")": 6442,
      "PROVID": 6443,
      "SetLevel": 6444,
      "Att": 6445,
      "Models": 6446,
      "igital": 6447,
      "ignored": 6448,
      "COPYRIGHT": 6449,
      "DN": 6450,
      "(\"[%": 6451,
      "Deprecated": 6452,
      "CreateUser": 6453,
      "ua": 6454,
      "Super": 6455,
      "Assignment": 6456,
      "large": 6457,
      "ora": 6458,
      "expires": 6459,
      "proj": 6460,
      "adm": 6461,
      "RequestId": 6462,
      "fieldName": 6463,
      "assigned": 6464,
      "Stamp": 6465,
      "Poly": 6466,
      "inside": 6467,
      "letter": 6468,
      "Business": 6469,
      "Packages": 6470,
      "primitive": 6471,
      "area": 6472,
      "eh": 6473,
      "SecretKey": 6474,
      "Certificates": 6475,
      "Tunnel": 6476,
      "Features": 6477,
      "Img": 6478,
      "Principal": 6479,
      "granted": 6480,
      "CLAIM": 6481,
      "matcher": 6482,
      "invoke": 6483,
      "happen": 6484,
      "develop": 6485,
      "c0": 6486,
      "toSerialize": 6487,
      "AccountID": 6488,
      "bsite": 6489,
      "ino": 6490,
      "confirm": 6491,
      "calculate": 6492,
      "Align": 6493,
      "Ticket": 6494,
      "iki": 6495,
      "84": 6496,
      "logLevel": 6497,
      "\"\"},": 6498,
      "mqtt": 6499,
      "dog": 6500,
      "Fut": 6501,
      "n1": 6502,
      "NewController": 6503,
      "arbor": 6504,
      "ServiceID": 6505,
      "SY": 6506,
      "guid": 6507,
      "artment": 6508,
      "never": 6509,
      "ilium": 6510,
      "Scaling": 6511,
      "Lex": 6512,
      "applied": 6513,
      "occurred": 6514,
      "Slash": 6515,
      "azurer": 6516,
      "-=": 6517,
      "Ban": 6518,
      "repositories": 6519,
      "Produce": 6520,
      "VPC": 6521,
      "CONTRAC": 6522,
      "Face": 6523,
      "More": 6524,
      "traffic": 6525,
      "posed": 6526,
      "fyne": 6527,
      "Respond": 6528,
      "0x18": 6529,
      "necessary": 6530,
      "ural": 6531,
      "NewString": 6532,
      "Unset": 6533,
      "tracker": 6534,
      "fileDescriptor_": 6535,
      "mutable": 6536,
      "ints": 6537,
      "err1": 6538,
      "Terminal": 6539,
      "har": 6540,
      "human": 6541,
      "ira": 6542,
      "GetBy": 6543,
      "Notifier": 6544,
      "SU": 6545,
      "}`": 6546,
      "Assets": 6547,
      "Ring": 6548,
      "APIError": 6549,
      "ret1": 6550,
      "94": 6551,
      "aws_": 6552,
      "Keyword": 6553,
      "Os": 6554,
      "instanti": 6555,
      "Authenticator": 6556,
      "LE_": 6557,
      "MT": 6558,
      "cuit": 6559,
      "gas": 6560,
      "Indexes": 6561,
      "goc": 6562,
      "StringFlag": 6563,
      "direction": 6564,
      "Certs": 6565,
      "resolved": 6566,
      "'\")": 6567,
      "XY": 6568,
      "Bag": 6569,
      "DTO": 6570,
      "Printer": 6571,
      "_file": 6572,
      "ResourceName": 6573,
      "eq": 6574,
      "reports": 6575,
      "VE": 6576,
      "sym": 6577,
      "WriteResponse": 6578,
      "EST": 6579,
      "anceled": 6580,
      "distribute": 6581,
      "Original": 6582,
      "ARN": 6583,
      "65": 6584,
      "Recover": 6585,
      "izations": 6586,
      "background": 6587,
      "finity": 6588,
      "production": 6589,
      "TABLE": 6590,
      "topics": 6591,
      "EXPRESS": 6592,
      "Infra": 6593,
      "BeTrue": 6594,
      "TERM": 6595,
      "smithyhttp": 6596,
      "CONNECTION": 6597,
      "Bre": 6598,
      "turn": 6599,
      "fname": 6600,
      "projectID": 6601,
      "complex": 6602,
      "encent": 6603,
      "async": 6604,
      "domains": 6605,
      "d5": 6606,
      "WithMethodType": 6607,
      "RecordCallWithMethodType": 6608,
      "stone": 6609,
      "issuer": 6610,
      "Marker": 6611,
      "double": 6612,
      "ivid": 6613,
      "f1": 6614,
      "attermost": 6615,
      "saved": 6616,
      "PROVIDED": 6617,
      "lots": 6618,
      "Rename": 6619,
      "NodeID": 6620,
      "iris": 6621,
      "compressed": 6622,
      "Words": 6623,
      "green": 6624,
      "audio": 6625,
      "relay": 6626,
      "sarama": 6627,
      "copi": 6628,
      "protos": 6629,
      "WARNING": 6630,
      "browser": 6631,
      "81": 6632,
      "CallOption": 6633,
      "PN": 6634,
      "{&": 6635,
      "goto": 6636,
      "indent": 6637,
      "Days": 6638,
      "ErrorMessage": 6639,
      "CONTRACT": 6640,
      "Autom": 6641,
      "DAMAGES": 6642,
      "erve": 6643,
      "BasicAuth": 6644,
      "FT": 6645,
      "ProtoMessage": 6646,
      "Cause": 6647,
      "tunnel": 6648,
      "tracing": 6649,
      "FL": 6650,
      "interceptor": 6651,
      "Good": 6652,
      "alive": 6653,
      "coordin": 6654,
      "P2": 6655,
      "knative": 6656,
      "agger": 6657,
      "perm": 6658,
      "Actual": 6659,
      "Leaf": 6660,
      "Authority": 6661,
      "kill": 6662,
      "accord": 6663,
      "hyperledger": 6664,
      "Sil": 6665,
      "cut": 6666,
      "newTest": 6667,
      "HEAD": 6668,
      "shop": 6669,
      "obao": 6670,
      "Frequency": 6671,
      "Bank": 6672,
      "Lib": 6673,
      "G_": 6674,
      "chestr": 6675,
      "handling": 6676,
      "INTO": 6677,
      "Backoff": 6678,
      "Mag": 6679,
      "StringSubmatch": 6680,
      "Challenge": 6681,
      "VERSION": 6682,
      "dg": 6683,
      "hcl": 6684,
      "owners": 6685,
      "sil": 6686,
      "SHALL": 6687,
      "Vendor": 6688,
      "urnal": 6689,
      "moji": 6690,
      "posts": 6691,
      "Increment": 6692,
      "GetPayload": 6693,
      "/.": 6694,
      "ETHER": 6695,
      "Cached": 6696,
      "Checks": 6697,
      "....": 6698,
      "Perform": 6699,
      "ysical": 6700,
      "...),": 6701,
      "ReadResponse": 6702,
      "WARRANTY": 6703,
      "cus": 6704,
      "mess": 6705,
      "pwd": 6706,
      "escape": 6707,
      "fakes": 6708,
      "://%": 6709,
      "Creating": 6710,
      "Interfaces": 6711,
      "=\",": 6712,
      "ARIS": 6713,
      "pubKey": 6714,
      "serving": 6715,
      "supplied": 6716,
      "ciphertext": 6717,
      "WriteByte": 6718,
      "GetRequest": 6719,
      "leaf": 6720,
      "swarm": 6721,
      "Say": 6722,
      "bid": 6723,
      "iles": 6724,
      "f2": 6725,
      "Extended": 6726,
      "inventory": 6727,
      "dig": 6728,
      "PID": 6729,
      "}.": 6730,
      "lik": 6731,
      "Seg": 6732,
      "Domains": 6733,
      "Est": 6734,
      "protoreflect": 6735,
      "aeger": 6736,
      "m2": 6737,
      "GV": 6738,
      "ENV": 6739,
      "r2": 6740,
      "reach": 6741,
      "Alp": 6742,
      "autoscal": 6743,
      "bench": 6744,
      "layers": 6745,
      "ecdsa": 6746,
      "M_": 6747,
      "vk": 6748,
      "apiVersion": 6749,
      "PullRequest": 6750,
      "LIABLE": 6751,
      "explicit": 6752,
      "Minimum": 6753,
      "versioned": 6754,
      "nested": 6755,
      "_index": 6756,
      "StringSlice": 6757,
      "discordgo": 6758,
      "effect": 6759,
      "aid": 6760,
      "umented": 6761,
      "WHETHER": 6762,
      "b1": 6763,
      "ARISING": 6764,
      "IsEmpty": 6765,
      "Native": 6766,
      "WORD": 6767,
      "handled": 6768,
      "Dns": 6769,
      "ParseFloat": 6770,
      "Predicate": 6771,
      "RT": 6772,
      "zh": 6773,
      "jack": 6774,
      "Ca": 6775,
      "NOTI": 6776,
      "APIClient": 6777,
      "hooks": 6778,
      "Guild": 6779,
      "ggle": 6780,
      "week": 6781,
      "Compression": 6782,
      "cach": 6783,
      "Datastore": 6784,
      "lager": 6785,
      "useful": 6786,
      "Audio": 6787,
      "NewService": 6788,
      "Dif": 6789,
      "city": 6790,
      "`%": 6791,
      "|=": 6792,
      "VALUES": 6793,
      "oration": 6794,
      "NewRouter": 6795,
      "AST": 6796,
      "minimum": 6797,
      "TIME": 6798,
      "(`{\"": 6799,
      "clientID": 6800,
      "buckets": 6801,
      "Authenticate": 6802,
      "gcp": 6803,
      "las": 6804,
      "DiscardUnknown": 6805,
      "sky": 6806,
      "attempts": 6807,
      "jected": 6808,
      "eder": 6809,
      "expiration": 6810,
      "semver": 6811,
      "widget": 6812,
      "Sha": 6813,
      "!\",": 6814,
      "Uuid": 6815,
      "Fold": 6816,
      "Cnt": 6817,
      "get_": 6818,
      "WISE": 6819,
      "notifications": 6820,
      "EP": 6821,
      "GN": 6822,
      "Expand": 6823,
      "Dispatcher": 6824,
      "c8": 6825,
      "${": 6826,
      "GetInt": 6827,
      "41": 6828,
      "Inner": 6829,
      "Capture": 6830,
      "vendor": 6831,
      "RequestBody": 6832,
      "icated": 6833,
      "References": 6834,
      "orizon": 6835,
      "csr": 6836,
      "AddTo": 6837,
      "Generation": 6838,
      "vie": 6839,
      "AllOf": 6840,
      "ARCH": 6841,
      "Bid": 6842,
      "2014": 6843,
      "COUN": 6844,
      "DR": 6845,
      "bw": 6846,
      "Heartbeat": 6847,
      "recovery": 6848,
      "Microsoft": 6849,
      "Hi": 6850,
      "aker": 6851,
      "rem": 6852,
      "Deposit": 6853,
      "Shape": 6854,
      "compose": 6855,
      "================================": 6856,
      "specs": 6857,
      "EC2": 6858,
      "Ker": 6859,
      "exclude": 6860,
      "backoff": 6861,
      "Identification": 6862,
      "O_CREATE": 6863,
      "result2": 6864,
      "Green": 6865,
      "exe": 6866,
      "51": 6867,
      "ATCH": 6868,
      "OTHERWISE": 6869,
      "Constant": 6870,
      "TORT": 6871,
      "thr": 6872,
      "Maximum": 6873,
      "Middlewares": 6874,
      "Specs": 6875,
      "replica": 6876,
      "gd": 6877,
      "bp": 6878,
      "localVar": 6879,
      "automatically": 6880,
      "tv": 6881,
      "hn": 6882,
      "making": 6883,
      "mapper": 6884,
      "includes": 6885,
      "stand": 6886,
      ".([]": 6887,
      "snap": 6888,
      "fero": 6889,
      "jw": 6890,
      "Encrypted": 6891,
      "Appro": 6892,
      "abi": 6893,
      "_ID": 6894,
      "\":\")": 6895,
      "ResultOutput": 6896,
      "92": 6897,
      "gid": 6898,
      "compiler": 6899,
      "merged": 6900,
      "guard": 6901,
      "Future": 6902,
      "gold": 6903,
      "ively": 6904,
      "PORT": 6905,
      "obar": 6906,
      "0755": 6907,
      "Win": 6908,
      "sha1": 6909,
      "]{": 6910,
      "itation": 6911,
      "aran": 6912,
      "okies": 6913,
      "certificates": 6914,
      "unce": 6915,
      "ErrNot": 6916,
      "Alarm": 6917,
      "syntax": 6918,
      "special": 6919,
      "NewContext": 6920,
      "frontend": 6921,
      "_N": 6922,
      "review": 6923,
      "Vm": 6924,
      "padding": 6925,
      "sug": 6926,
      "Compress": 6927,
      "ceeded": 6928,
      "pagination": 6929,
      "b0": 6930,
      "HOLDERS": 6931,
      "pend": 6932,
      "ansion": 6933,
      "Observ": 6934,
      "RoleBinding": 6935,
      "alpha1": 6936,
      "Sensor": 6937,
      "NewUser": 6938,
      "ipv4": 6939,
      "LB": 6940,
      "alf": 6941,
      "HTTPS": 6942,
      "executed": 6943,
      "fx": 6944,
      "Scheduled": 6945,
      "vote": 6946,
      "responseChan": 6947,
      "gmail": 6948,
      "erature": 6949,
      "Topics": 6950,
      "dur": 6951,
      "ili": 6952,
      "\":{\"": 6953,
      "kl": 6954,
      "Py": 6955,
      "Nick": 6956,
      "Stud": 6957,
      "xorm": 6958,
      "replicas": 6959,
      "Queries": 6960,
      "Membership": 6961,
      "Edges": 6962,
      "='": 6963,
      "Orders": 6964,
      "Dummy": 6965,
      "poly": 6966,
      "speed": 6967,
      "gate": 6968,
      "mean": 6969,
      "trail": 6970,
      "ryRun": 6971,
      "Notice": 6972,
      "restriction": 6973,
      "BAC": 6974,
      "conversion": 6975,
      "formers": 6976,
      "expand": 6977,
      "slug": 6978,
      "mtp": 6979,
      "ResourceType": 6980,
      "GR": 6981,
      "c_": 6982,
      "gt": 6983,
      "Major": 6984,
      "libp2p": 6985,
      "Photo": 6986,
      "_R": 6987,
      "Cy": 6988,
      "quota": 6989,
      "consensus": 6990,
      "Viper": 6991,
      "respond": 6992,
      "Fixture": 6993,
      "nor": 6994,
      "AppName": 6995,
      "legacy": 6996,
      "ividual": 6997,
      "Shop": 6998,
      "PP": 6999,
      "Firewall": 7000,
      "nr": 7001,
      "candidate": 7002,
      "e1": 7003,
      "crease": 7004,
      "ensitive": 7005,
      "SO": 7006,
      "GetClient": 7007,
      "greater": 7008,
      "appsv1": 7009,
      "0x8b": 7010,
      "AUTHORS": 7011,
      "lis": 7012,
      "ensu": 7013,
      "amel": 7014,
      "Will": 7015,
      "Functions": 7016,
      "DefaultClient": 7017,
      "ainer": 7018,
      "Online": 7019,
      "_to": 7020,
      "resourceName": 7021,
      "[*": 7022,
      "wf": 7023,
      "{}))": 7024,
      "wraps": 7025,
      "lark": 7026,
      "PersistentVolume": 7027,
      "aily": 7028,
      "west": 7029,
      "listening": 7030,
      "spl": 7031,
      "NewDelete": 7032,
      "Transition": 7033,
      "Deletion": 7034,
      "JO": 7035,
      "Given": 7036,
      "m3": 7037,
      "pdf": 7038,
      "0x06": 7039,
      "SN": 7040,
      "Scopes": 7041,
      "cty": 7042,
      "NumberOf": 7043,
      "Buckets": 7044,
      "Stateful": 7045,
      "endar": 7046,
      "isn": 7047,
      "IsNotFound": 7048,
      "qq": 7049,
      "grace": 7050,
      "68": 7051,
      "HostPort": 7052,
      "NewFile": 7053,
      "bash": 7054,
      "deadline": 7055,
      "updating": 7056,
      "Squ": 7057,
      "l2": 7058,
      "ServiceMetadata": 7059,
      "Alpha": 7060,
      "pageSize": 7061,
      "_user": 7062,
      "Formation": 7063,
      "printer": 7064,
      "v5": 7065,
      "restart": 7066,
      "Units": 7067,
      "_date": 7068,
      "mx": 7069,
      "ads": 7070,
      "elapsed": 7071,
      "regard": 7072,
      "Visitor": 7073,
      "hd": 7074,
      "ni": 7075,
      "packets": 7076,
      "fixtures": 7077,
      "Click": 7078,
      "69": 7079,
      "Sur": 7080,
      "sequ": 7081,
      "verification": 7082,
      "describe": 7083,
      "Previous": 7084,
      "AccAddress": 7085,
      "absolute": 7086,
      "persons": 7087,
      "ferred": 7088,
      "Pagination": 7089,
      "BufferSize": 7090,
      "actually": 7091,
      "prints": 7092,
      "Waiting": 7093,
      "awn": 7094,
      "Swagger": 7095,
      "ients": 7096,
      "kin": 7097,
      "negative": 7098,
      "xyz": 7099,
      "Distribution": 7100,
      "mal": 7101,
      "UPDATE": 7102,
      "(\"-": 7103,
      "Scr": 7104,
      "xerrors": 7105,
      "oting": 7106,
      "ldap": 7107,
      "factor": 7108,
      "wal": 7109,
      "centr": 7110,
      "ServeMux": 7111,
      "challenge": 7112,
      "ula": 7113,
      "stud": 7114,
      "Plane": 7115,
      "pvc": 7116,
      "tre": 7117,
      "max_": 7118,
      "74": 7119,
      "Band": 7120,
      "serialize": 7121,
      "RateLimit": 7122,
      "ades": 7123,
      "1_": 7124,
      "house": 7125,
      "FFFF": 7126,
      "DD": 7127,
      "fallback": 7128,
      "Encoded": 7129,
      "Networks": 7130,
      "ceed": 7131,
      "GetBool": 7132,
      "Rob": 7133,
      "jin": 7134,
      "aby": 7135,
      "GetId": 7136,
      "logies": 7137,
      "Instruction": 7138,
      "abl": 7139,
      "BlockSize": 7140,
      "gophercloud": 7141,
      "Ledger": 7142,
      "testutils": 7143,
      "GOOS": 7144,
      "predicate": 7145,
      "subscriber": 7146,
      "latency": 7147,
      "kms": 7148,
      "schemas": 7149,
      "TypeEnum": 7150,
      "orders": 7151,
      "OpenAPI": 7152,
      "Uint8": 7153,
      "Fast": 7154,
      "arg2": 7155,
      "bounds": 7156,
      "gb": 7157,
      "READ": 7158,
      "_version": 7159,
      "testData": 7160,
      "NewTicker": 7161,
      "lit": 7162,
      "Recovery": 7163,
      "Mob": 7164,
      "SR": 7165,
      "zo": 7166,
      "18n": 7167,
      "obtaining": 7168,
      "Particip": 7169,
      "codegen": 7170,
      "oracle": 7171,
      "dy": 7172,
      "nick": 7173,
      "serialized": 7174,
      "scene": 7175,
      "0x49": 7176,
      "AGE": 7177,
      "ja": 7178,
      "Dirs": 7179,
      "produ": 7180,
      "0x1f": 7181,
      "distance": 7182,
      "parallel": 7183,
      "'\"": 7184,
      "Int8": 7185,
      "ool": 7186,
      "GroupID": 7187,
      "RefreshToken": 7188,
      "Iam": 7189,
      "aves": 7190,
      "bindings": 7191,
      "Denom": 7192,
      "bill": 7193,
      "Tail": 7194,
      "destroy": 7195,
      "publisher": 7196,
      "clientcmd": 7197,
      "lid": 7198,
      "quick": 7199,
      "That": 7200,
      "minio": 7201,
      "Parsed": 7202,
      "installed": 7203,
      "Limits": 7204,
      "updated_at": 7205,
      "tmpDir": 7206,
      "Registered": 7207,
      "embedded": 7208,
      "authenticated": 7209,
      "Develo": 7210,
      "Repositories": 7211,
      "question": 7212,
      "INGS": 7213,
      "Every": 7214,
      "warn": 7215,
      "Eth": 7216,
      "itness": 7217,
      "ellow": 7218,
      "FIX": 7219,
      "ico": 7220,
      "visit": 7221,
      "c4": 7222,
      "0x09": 7223,
      "fixture": 7224,
      "Want": 7225,
      "uv": 7226,
      "made": 7227,
      "Letter": 7228,
      "Updater": 7229,
      "wasm": 7230,
      "correctly": 7231,
      "portions": 7232,
      "MO": 7233,
      "_status": 7234,
      "proposal": 7235,
      "persistence": 7236,
      "SERVIC": 7237,
      "wanted": 7238,
      "instruction": 7239,
      "sep": 7240,
      "expectedErr": 7241,
      "Disconnect": 7242,
      "foobar": 7243,
      "c3": 7244,
      "gm": 7245,
      "limitation": 7246,
      "stract": 7247,
      "TEST_": 7248,
      "andra": 7249,
      "FindAll": 7250,
      "ulnerability": 7251,
      "css": 7252,
      "configMap": 7253,
      "dbName": 7254,
      "ZE": 7255,
      "han": 7256,
      "fuse": 7257,
      "NewList": 7258,
      "VALID": 7259,
      "Responses": 7260,
      "virt": 7261,
      "\"`,": 7262,
      "cards": 7263,
      "fq": 7264,
      "isValid": 7265,
      "Logic": 7266,
      "Combined": 7267,
      "Does": 7268,
      "IE": 7269,
      "ilar": 7270,
      "adap": 7271,
      "Indexer": 7272,
      "SetOutput": 7273,
      "Offer": 7274,
      "0x30": 7275,
      "Invocation": 7276,
      "client_golang": 7277,
      "Suggest": 7278,
      "maint": 7279,
      "\"}}": 7280,
      "ervation": 7281,
      "uk": 7282,
      "Locked": 7283,
      "hw": 7284,
      "Techno": 7285,
      "()},": 7286,
      "Theme": 7287,
      "Counts": 7288,
      "slash": 7289,
      "click": 7290,
      "Int16": 7291,
      "Nested": 7292,
      "logged": 7293,
      "DB_": 7294,
      "irth": 7295,
      "shape": 7296,
      "Responder": 7297,
      "three": 7298,
      "cidr": 7299,
      "Completion": 7300,
      "according": 7301,
      "([][]": 7302,
      "].(*": 7303,
      "realm": 7304,
      "dom": 7305,
      "agg": 7306,
      "Refs": 7307,
      "idle": 7308,
      "np": 7309,
      "()})": 7310,
      "hereby": 7311,
      "consider": 7312,
      "fasthttp": 7313,
      "duplicate": 7314,
      "ny": 7315,
      "iny": 7316,
      "httpro": 7317,
      "_info": 7318,
      "h2": 7319,
      "ReadDir": 7320,
      "Expiry": 7321,
      "selection": 7322,
      ")...)": 7323,
      "asyn": 7324,
      "Continue": 7325,
      "rox": 7326,
      "gql": 7327,
      "itself": 7328,
      "Chaincode": 7329,
      "nginx": 7330,
      "race": 7331,
      "anizations": 7332,
      "gov": 7333,
      "discover": 7334,
      "creator": 7335,
      "mploy": 7336,
      "ApiKey": 7337,
      "Cpu": 7338,
      "Availability": 7339,
      "\\\":\\\"": 7340,
      "aggregate": 7341,
      "ron": 7342,
      "Docs": 7343,
      "Stock": 7344,
      "lip": 7345,
      "mismatch": 7346,
      "cors": 7347,
      "spot": 7348,
      "ElementType": 7349,
      "Categories": 7350,
      "Requested": 7351,
      "EventHandler": 7352,
      "Association": 7353,
      "ticket": 7354,
      "DefaultConfig": 7355,
      "/\")": 7356,
      "design": 7357,
      "things": 7358,
      "Affected": 7359,
      "usher": 7360,
      "SetName": 7361,
      "generation": 7362,
      "invalidParams": 7363,
      "sz": 7364,
      "m1": 7365,
      "INFRING": 7366,
      "INFRINGEMENT": 7367,
      "_T": 7368,
      "teardown": 7369,
      "CONT": 7370,
      "0x05": 7371,
      "0x42": 7372,
      "DebugLevel": 7373,
      "aring": 7374,
      "locked": 7375,
      "crt": 7376,
      "_list": 7377,
      "Pairs": 7378,
      "_L": 7379,
      "Elasticsearch": 7380,
      "userName": 7381,
      "Material": 7382,
      "units": 7383,
      "deleting": 7384,
      "________": 7385,
      "Paginator": 7386,
      "antial": 7387,
      "(\"<": 7388,
      "formatter": 7389,
      "btc": 7390,
      "plaintext": 7391,
      "Verifier": 7392,
      "TB": 7393,
      "_server": 7394,
      "satis": 7395,
      "}})": 7396,
      "Look": 7397,
      "Invoice": 7398,
      "2000": 7399,
      "403": 7400,
      "Definitions": 7401,
      "Party": 7402,
      "licensed": 7403,
      "Break": 7404,
      "Jwt": 7405,
      "Retrie": 7406,
      "OID": 7407,
      "sensor": 7408,
      "replication": 7409,
      "Relay": 7410,
      "smart": 7411,
      "_PRO": 7412,
      "iving": 7413,
      "Consensus": 7414,
      "_SE": 7415,
      "completion": 7416,
      "Oracle": 7417,
      "Fault": 7418,
      "last_": 7419,
      "Calculate": 7420,
      "processes": 7421,
      "linked": 7422,
      "Sq": 7423,
      "retrie": 7424,
      "dead": 7425,
      "achines": 7426,
      "GT": 7427,
      "DC": 7428,
      "MarshalIndent": 7429,
      "substantial": 7430,
      "Ist": 7431,
      "definitions": 7432,
      "May": 7433,
      "quip": 7434,
      "telegram": 7435,
      "62": 7436,
      "Unavailable": 7437,
      "_address": 7438,
      "Curve": 7439,
      "sufficient": 7440,
      "RootCmd": 7441,
      "Bindings": 7442,
      "quival": 7443,
      "whom": 7444,
      "olation": 7445,
      "CloudFormation": 7446,
      "loor": 7447,
      "TrimSuffix": 7448,
      "Capability": 7449,
      "ParseUint": 7450,
      "vp": 7451,
      "ParseIP": 7452,
      "0x80": 7453,
      "isk": 7454,
      "DEAL": 7455,
      "Legacy": 7456,
      "Like": 7457,
      "those": 7458,
      "aming": 7459,
      "ASF": 7460,
      "ru": 7461,
      "abases": 7462,
      "mandatory": 7463,
      "regular": 7464,
      "Glob": 7465,
      "furn": 7466,
      "wc": 7467,
      "acted": 7468,
      "httprouter": 7469,
      "DIR": 7470,
      "GE": 7471,
      "SetValue": 7472,
      "agree": 7473,
      "books": 7474,
      "clusive": 7475,
      "\"@": 7476,
      "d1": 7477,
      "FileMode": 7478,
      "flatbuffers": 7479,
      "segments": 7480,
      "Inline": 7481,
      "SIGTERM": 7482,
      "copied": 7483,
      "Mouse": 7484,
      "temporary": 7485,
      "Markdown": 7486,
      "Hooks": 7487,
      "Fd": 7488,
      "Deps": 7489,
      "SecurityGroup": 7490,
      "Reflect": 7491,
      "Minor": 7492,
      "ordered": 7493,
      "blk": 7494,
      "prise": 7495,
      ")})": 7496,
      "orer": 7497,
      "YY": 7498,
      "bg": 7499,
      "pgx": 7500,
      "jenkins": 7501,
      "conns": 7502,
      "certain": 7503,
      "kle": 7504,
      "ju": 7505,
      "Vals": 7506,
      "STRING": 7507,
      "Rotate": 7508,
      "yes": 7509,
      "Substring": 7510,
      "/\"+": 7511,
      "wx": 7512,
      "validators": 7513,
      "optim": 7514,
      "libs": 7515,
      "vertex": 7516,
      "Complex": 7517,
      "Tax": 7518,
      "ECDS": 7519,
      "msgTypes": 7520,
      "RawQuery": 7521,
      "Buff": 7522,
      "Commun": 7523,
      "oot": 7524,
      "NewSession": 7525,
      "mous": 7526,
      "Ratio": 7527,
      "i2": 7528,
      "pick": 7529,
      "HOME": 7530,
      "notes": 7531,
      "canvas": 7532,
      "family": 7533,
      "mob": 7534,
      "Handshake": 7535,
      "pat": 7536,
      "Utils": 7537,
      "Under": 7538,
      "Existing": 7539,
      "dirs": 7540,
      "Tmp": 7541,
      "DEALINGS": 7542,
      "ense": 7543,
      "key1": 7544,
      "0x79": 7545,
      "kubeClient": 7546,
      "sublicense": 7547,
      "NONINFRINGEMENT": 7548,
      "_error": 7549,
      "0x76": 7550,
      "Panel": 7551,
      "GetType": 7552,
      "Discover": 7553,
      "vents": 7554,
      "s1i32": 7555,
      "Clause": 7556,
      "ObjectID": 7557,
      "tlsConfig": 7558,
      "NotFoundError": 7559,
      "furnished": 7560,
      "BB": 7561,
      "releases": 7562,
      "Capabilities": 7563,
      "oct": 7564,
      "Fg": 7565,
      "succeed": 7566,
      "Piece": 7567,
      "solo": 7568,
      "bucketName": 7569,
      "ople": 7570,
      "assandra": 7571,
      "TF": 7572,
      "Was": 7573,
      "IPAddress": 7574,
      "KeyUsage": 7575,
      "Upsert": 7576,
      "builtin": 7577,
      "profiles": 7578,
      "raper": 7579,
      "sourcegraph": 7580,
      "Known": 7581,
      "=\")": 7582,
      "iggers": 7583,
      "cribed": 7584,
      "83": 7585,
      "Wire": 7586,
      "fac": 7587,
      "_0": 7588,
      "QueryParams": 7589,
      "_proto_msgTypes": 7590,
      "h1": 7591,
      "recent": 7592,
      "datadog": 7593,
      "PATH": 7594,
      "align": 7595,
      "counts": 7596,
      "infrastructure": 7597,
      "corp": 7598,
      "82": 7599,
      "Fns": 7600,
      "Quality": 7601,
      "Contri": 7602,
      "bz": 7603,
      "dx": 7604,
      "enough": 7605,
      "initializes": 7606,
      "unrecognized": 7607,
      "redu": 7608,
      "gardener": 7609,
      "///": 7610,
      "(`^": 7611,
      "Duplicate": 7612,
      "trade": 7613,
      "gy": 7614,
      "chunks": 7615,
      "Expansion": 7616,
      "tbl": 7617,
      "apiv1": 7618,
      "FieldName": 7619,
      "Repl": 7620,
      "ResponseError": 7621,
      "AppConfig": 7622,
      "vest": 7623,
      "EqualError": 7624,
      "varchar": 7625,
      "Pretty": 7626,
      "033": 7627,
      "harbor": 7628,
      "keyword": 7629,
      "zhu": 7630,
      "WithPayload": 7631,
      "CRET": 7632,
      "andidates": 7633,
      "Telemetry": 7634,
      "mf": 7635,
      "listeners": 7636,
      "brok": 7637,
      "Cmp": 7638,
      "craw": 7639,
      "//\"": 7640,
      "concurrent": 7641,
      "Problem": 7642,
      "colors": 7643,
      "fili": 7644,
      "likely": 7645,
      "Istio": 7646,
      "hig": 7647,
      "ART": 7648,
      "unless": 7649,
      "GetLogger": 7650,
      "executes": 7651,
      "opentelemetry": 7652,
      "OPTION": 7653,
      "kt": 7654,
      "prog": 7655,
      "Partial": 7656,
      "fh": 7657,
      "Supp": 7658,
      "0x68": 7659,
      "IA": 7660,
      "ISO": 7661,
      "attachment": 7662,
      "Sessions": 7663,
      "bine": 7664,
      "avg": 7665,
      "icast": 7666,
      "mtx": 7667,
      "jpg": 7668,
      "Instrument": 7669,
      "Profiles": 7670,
      "MD5": 7671,
      "120": 7672,
      "_IN": 7673,
      "Fund": 7674,
      "StringTo": 7675,
      "commend": 7676,
      "doing": 7677,
      "IST": 7678,
      "closer": 7679,
      "Forwar": 7680,
      "Privile": 7681,
      "uling": 7682,
      "legal": 7683,
      "------------": 7684,
      "guild": 7685,
      "Relationship": 7686,
      "SendMessage": 7687,
      "capture": 7688,
      "Statuses": 7689,
      "erier": 7690,
      "Topology": 7691,
      "Analytics": 7692,
      "Mix": 7693,
      "Selected": 7694,
      "enced": 7695,
      ":]...)": 7696,
      "renderer": 7697,
      "compl": 7698,
      "photo": 7699,
      "LLC": 7700,
      "asynchronous": 7701,
      "material": 7702,
      "processable": 7703,
      "Prom": 7704,
      "Built": 7705,
      "V1alpha1": 7706,
      "+\".": 7707,
      "alib": 7708,
      "irmed": 7709,
      "arison": 7710,
      "NewLogger": 7711,
      "ACC": 7712,
      "Modules": 7713,
      "online": 7714,
      "influxdb": 7715,
      "Withdraw": 7716,
      "exception": 7717,
      "healthy": 7718,
      "Cycle": 7719,
      "Authorize": 7720,
      "TextString": 7721,
      "UnaryServer": 7722,
      "argin": 7723,
      "Coll": 7724,
      "Imports": 7725,
      "KeepAlive": 7726,
      "dar": 7727,
      "httputil": 7728,
      "python": 7729,
      "ReadOnly": 7730,
      "Browser": 7731,
      "Hit": 7732,
      "RegisterType": 7733,
      "`\"": 7734,
      "hmac": 7735,
      "Environ": 7736,
      "hashes": 7737,
      "enance": 7738,
      "tel": 7739,
      "icted": 7740,
      "These": 7741,
      "0x66": 7742,
      "OnCall": 7743,
      "ExitCode": 7744,
      "----------------------------------------------------------------": 7745,
      "Attempt": 7746,
      "pear": 7747,
      "WriteJSON": 7748,
      "expectedError": 7749,
      "Concurrent": 7750,
      "GetObject": 7751,
      "TestParse": 7752,
      "syslog": 7753,
      "piv": 7754,
      "vmware": 7755,
      "ights": 7756,
      "('\\": 7757,
      "PB": 7758,
      "executable": 7759,
      "SetId": 7760,
      "directories": 7761,
      "multipart": 7762,
      "business": 7763,
      "Tmpl": 7764,
      "`))": 7765,
      "b4": 7766,
      "...\",": 7767,
      "priate": 7768,
      "signals": 7769,
      "GetService": 7770,
      "WithName": 7771,
      "curve": 7772,
      "cw": 7773,
      "8f": 7774,
      "indicate": 7775,
      "Pow": 7776,
      "recipient": 7777,
      "FindStringSubmatch": 7778,
      "stopCh": 7779,
      "oint": 7780,
      "Colors": 7781,
      "FD": 7782,
      "insecure": 7783,
      "GetAccount": 7784,
      "V1beta1": 7785,
      "Recipe": 7786,
      "bel": 7787,
      "ServerConfig": 7788,
      "containerd": 7789,
      "Bg": 7790,
      "upon": 7791,
      "products": 7792,
      "Invok": 7793,
      "Cart": 7794,
      "Tar": 7795,
      "mdb": 7796,
      "CallCount": 7797,
      "middlewares": 7798,
      "SL": 7799,
      "rack": 7800,
      "sts": 7801,
      "NAT": 7802,
      "glob": 7803,
      "1234567890": 7804,
      "imate": 7805,
      "AuthToken": 7806,
      "Modifier": 7807,
      "zA": 7808,
      "ModePerm": 7809,
      "Texture": 7810,
      "lint": 7811,
      "FirstName": 7812,
      "VirtualMachine": 7813,
      "delivery": 7814,
      "Logout": 7815,
      "_go": 7816,
      "extr": 7817,
      "blank": 7818,
      "]\\": 7819,
      "plus": 7820,
      "Service_": 7821,
      "loads": 7822,
      "bn": 7823,
      "EndTime": 7824,
      "Exclude": 7825,
      "BasePath": 7826,
      "0x22": 7827,
      "TLSConfig": 7828,
      "appropriate": 7829,
      "party": 7830,
      "Aggregation": 7831,
      "marker": 7832,
      "FailNow": 7833,
      "TIM": 7834,
      "experiment": 7835,
      "ing_": 7836,
      "theme": 7837,
      "Greater": 7838,
      "indices": 7839,
      "calc": 7840,
      "Dialog": 7841,
      "alter": 7842,
      "Na": 7843,
      "vance": 7844,
      "Editor": 7845,
      "_CO": 7846,
      "\"-\"": 7847,
      "dialect": 7848,
      "ield": 7849,
      "ownership": 7850,
      "Sock": 7851,
      "nic": 7852,
      "acenter": 7853,
      "GIN": 7854,
      "networks": 7855,
      "ModuleName": 7856,
      "Kernel": 7857,
      "ond": 7858,
      ">\"": 7859,
      "scopes": 7860,
      "goa": 7861,
      "ored": 7862,
      "NewWith": 7863,
      "subscriptions": 7864,
      "Lab": 7865,
      "Hashes": 7866,
      "populate": 7867,
      "jar": 7868,
      "cdn": 7869,
      "Installation": 7870,
      "captures": 7871,
      "Java": 7872,
      "IsSet": 7873,
      "#%": 7874,
      "qt": 7875,
      "hasher": 7876,
      "NOTICE": 7877,
      "Padding": 7878,
      "Datas": 7879,
      "Maint": 7880,
      "Measurement": 7881,
      "E2": 7882,
      "ago": 7883,
      "MetaData": 7884,
      "0xe2": 7885,
      "666": 7886,
      "categories": 7887,
      "Numbers": 7888,
      "gui": 7889,
      "envconfig": 7890,
      "Corporation": 7891,
      "Repos": 7892,
      "Ax": 7893,
      "San": 7894,
      "grant": 7895,
      "Autoscal": 7896,
      "dispatcher": 7897,
      "Notes": 7898,
      "decoding": 7899,
      "Logical": 7900,
      "GetID": 7901,
      "tester": 7902,
      "TestData": 7903,
      "ReturnsOnCall": 7904,
      "accepted": 7905,
      "TypeID": 7906,
      "partial": 7907,
      "published": 7908,
      "Admission": 7909,
      "WithMessage": 7910,
      "retries": 7911,
      "interrupt": 7912,
      "olar": 7913,
      "Unprocessable": 7914,
      "svr": 7915,
      "bulk": 7916,
      "Registr": 7917,
      "FileDescriptor": 7918,
      "k8sClient": 7919,
      "trying": 7920,
      "GetData": 7921,
      "ContentLength": 7922,
      "Sku": 7923,
      "quivalent": 7924,
      "mited": 7925,
      "uck": 7926,
      "OrUpdate": 7927,
      "CompactTextString": 7928,
      "Dto": 7929,
      "L2": 7930,
      "Vert": 7931,
      "fileInfo": 7932,
      "Processing": 7933,
      "eek": 7934,
      "0x2d": 7935,
      "93": 7936,
      "rx": 7937,
      "stable": 7938,
      "Resize": 7939,
      "WriteCloser": 7940,
      "Thing": 7941,
      "Entities": 7942,
      "reconciler": 7943,
      "SetConfig": 7944,
      "OrderBy": 7945,
      "Variant": 7946,
      "Authorizer": 7947,
      "Creds": 7948,
      "Ask": 7949,
      "statistics": 7950,
      "appers": 7951,
      "Avatar": 7952,
      "crete": 7953,
      "NotEqual": 7954,
      "Authorized": 7955,
      "SkipVerify": 7956,
      "{[]": 7957,
      "aps": 7958,
      "PM": 7959,
      "Consul": 7960,
      "DEFAULT": 7961,
      "nail": 7962,
      "00000": 7963,
      "iot": 7964,
      "markdown": 7965,
      "developer": 7966,
      "Tier": 7967,
      "friend": 7968,
      "netlink": 7969,
      "Alter": 7970,
      "indexes": 7971,
      "(\".": 7972,
      "123456789": 7973,
      "Fac": 7974,
      "lt": 7975,
      "tra": 7976,
      "Applic": 7977,
      "Just": 7978,
      "ARY": 7979,
      "runes": 7980,
      "Lambda": 7981,
      "Die": 7982,
      "Samples": 7983,
      "nf": 7984,
      "jaeger": 7985,
      "offer": 7986,
      "Stringer": 7987,
      "assume": 7988,
      "Constraints": 7989,
      "Sem": 7990,
      "Deserialize": 7991,
      "kyma": 7992,
      "ACE": 7993,
      "flake": 7994,
      "DEFAULT_": 7995,
      "rier": 7996,
      "gauge": 7997,
      "Mounts": 7998,
      "heartbeat": 7999,
      "NE": 8000,
      "Sorted": 8001,
      "bcrypt": 8002,
      ".,": 8003,
      "smtp": 8004,
      "sation": 8005,
      "Maps": 8006,
      "LT": 8007,
      "Nav": 8008,
      ",%": 8009,
      "HTTPError": 8010,
      "waitFor": 8011,
      "ASSWORD": 8012,
      "Holder": 8013,
      "trunc": 8014,
      "ClientSecret": 8015,
      "umbnail": 8016,
      "ially": 8017,
      "Phrase": 8018,
      "ToBytes": 8019,
      "ListNode": 8020,
      "authors": 8021,
      "perf": 8022,
      "affili": 8023,
      "Avg": 8024,
      "couldn": 8025,
      "general": 8026,
      "x2": 8027,
      "b3": 8028,
      "alibaba": 8029,
      "Remain": 8030,
      "igo": 8031,
      "Campaign": 8032,
      "subcommands": 8033,
      "nodeName": 8034,
      "reporter": 8035,
      "Removed": 8036,
      "Did": 8037,
      "iform": 8038,
      "vec": 8039,
      "Buy": 8040,
      "WebSocket": 8041,
      "Flat": 8042,
      "Special": 8043,
      "Products": 8044,
      "iN": 8045,
      "GetCurrent": 8046,
      "fav": 8047,
      "clientv3": 8048,
      "ListResponse": 8049,
      "Retention": 8050,
      "neighb": 8051,
      "bas": 8052,
      "sdl": 8053,
      ">\")": 8054,
      "PKCS": 8055,
      "Trail": 8056,
      "IntVar": 8057,
      "Numeric": 8058,
      "MongoDB": 8059,
      "onymous": 8060,
      "Normalize": 8061,
      "suppress": 8062,
      "RR": 8063,
      "performs": 8064,
      "FromBytes": 8065,
      "ResourceAttr": 8066,
      "longer": 8067,
      "Raft": 8068,
      "Qual": 8069,
      "nu": 8070,
      "FieldType": 8071,
      "nodeID": 8072,
      "bitr": 8073,
      "Salt": 8074,
      "ette": 8075,
      "sqlite3": 8076,
      "irmware": 8077,
      "mattermost": 8078,
      "aly": 8079,
      "ised": 8080,
      "strip": 8081,
      "0x33": 8082,
      "Average": 8083,
      "invokes": 8084,
      "major": 8085,
      "land": 8086,
      "autore": 8087,
      "Enqueue": 8088,
      "SetContext": 8089,
      "awe": 8090,
      "DES": 8091,
      "Vpn": 8092,
      "increment": 8093,
      "java": 8094,
      "access_token": 8095,
      "Notifications": 8096,
      "Decor": 8097,
      "Relative": 8098,
      "SK": 8099,
      "Recipient": 8100,
      "informers": 8101,
      "NewMessage": 8102,
      "ChannelID": 8103,
      "concurrency": 8104,
      "marks": 8105,
      "UnprocessableEntity": 8106,
      "Cel": 8107,
      "FQ": 8108,
      "Websocket": 8109,
      "kingpin": 8110,
      "2D": 8111,
      "URN": 8112,
      "(\"%+": 8113,
      "fit": 8114,
      "contributor": 8115,
      "icular": 8116,
      "MaxIdle": 8117,
      "TempFile": 8118,
      "a6": 8119,
      "Univer": 8120,
      "\"?": 8121,
      "Rep": 8122,
      "nounce": 8123,
      "LastName": 8124,
      "Neighb": 8125,
      "ippet": 8126,
      "NotAllowed": 8127,
      "pubkey": 8128,
      "Constructor": 8129,
      "Fingerprint": 8130,
      "erializ": 8131,
      "KeyFile": 8132,
      "sumed": 8133,
      "IBM": 8134,
      "Cross": 8135,
      "iu": 8136,
      "pts": 8137,
      "tcell": 8138,
      "Ti": 8139,
      "0x4b": 8140,
      "CreateTime": 8141,
      "_by": 8142,
      "(\"--": 8143,
      "hashed": 8144,
      "Trie": 8145,
      "MediaType": 8146,
      "Friend": 8147,
      "Pools": 8148,
      "persistent": 8149,
      "Incoming": 8150,
      "scenario": 8151,
      "Truncate": 8152,
      "0e": 8153,
      "stock": 8154,
      "noop": 8155,
      "LabelSelector": 8156,
      "Indices": 8157,
      "Translate": 8158,
      "reload": 8159,
      "incub": 8160,
      "Transformer": 8161,
      "]);": 8162,
      "consts": 8163,
      "SplitN": 8164,
      "RequestURI": 8165,
      "BaseResponse": 8166,
      "limits": 8167,
      "nl": 8168,
      "v7": 8169,
      "Coord": 8170,
      "_client": 8171,
      "conflict": 8172,
      "THIS": 8173,
      "starlark": 8174,
      "Hint": 8175,
      "argo": 8176,
      "deck": 8177,
      "AppID": 8178,
      "AGE_": 8179,
      "GetKey": 8180,
      "everything": 8181,
      "ServiceInstance": 8182,
      "regarding": 8183,
      "shut": 8184,
      "Indicator": 8185,
      "ed25519": 8186,
      "0xc9": 8187,
      "PubSub": 8188,
      "Technologies": 8189,
      "stre": 8190,
      "lifecycle": 8191,
      "zer": 8192,
      "observed": 8193,
      "APIServer": 8194,
      "locations": 8195,
      "Executable": 8196,
      "notifier": 8197,
      "converted": 8198,
      "inu": 8199,
      "frames": 8200,
      "Acquire": 8201,
      "Rsp": 8202,
      "prod": 8203,
      "0x07": 8204,
      "2d": 8205,
      "i18n": 8206,
      "appID": 8207,
      "TEST": 8208,
      "AW": 8209,
      "lx": 8210,
      "structions": 8211,
      "dbname": 8212,
      "third": 8213,
      "111": 8214,
      "references": 8215,
      "applications": 8216,
      "give": 8217,
      "pingcap": 8218,
      "MAX": 8219,
      "\"../": 8220,
      "DSN": 8221,
      "'/": 8222,
      "ReadTimeout": 8223,
      "positive": 8224,
      "Limited": 8225,
      "Html": 8226,
      "Getwd": 8227,
      "crc": 8228,
      "Mobile": 8229,
      "l1": 8230,
      "opening": 8231,
      "Stopped": 8232,
      "CustomResource": 8233,
      "Reload": 8234,
      "Critical": 8235,
      "Mid": 8236,
      "TestCheckResourceAttr": 8237,
      "robot": 8238,
      "consume": 8239,
      "Don": 8240,
      "Recent": 8241,
      "goroutines": 8242,
      "incubator": 8243,
      "Ranges": 8244,
      "NewApp": 8245,
      "MustParse": 8246,
      "anguages": 8247,
      "locale": 8248,
      "RoundTripper": 8249,
      "DEF": 8250,
      "Subscriptions": 8251,
      "FullName": 8252,
      "Couldn": 8253,
      "editor": 8254,
      "Hidden": 8255,
      "Oauth": 8256,
      "Zones": 8257,
      "Uni": 8258,
      "particular": 8259,
      "Locale": 8260,
      "goquery": 8261,
      "0x31": 8262,
      ")()": 8263,
      "CM": 8264,
      "sheet": 8265,
      "Pet": 8266,
      "informer": 8267,
      "Warningf": 8268,
      "Strip": 8269,
      "FI": 8270,
      "documents": 8271,
      "GCP": 8272,
      "usic": 8273,
      "Dictionary": 8274,
      "thrift": 8275,
      "ync": 8276,
      "(\\": 8277,
      "UNK": 8278,
      "]\")": 8279,
      "ancy": 8280,
      "care": 8281,
      "adow": 8282,
      "serted": 8283,
      "etach": 8284,
      "listing": 8285,
      "WRONLY": 8286,
      "f6": 8287,
      "a4": 8288,
      "Typed": 8289,
      "Working": 8290,
      "sch": 8291,
      "grader": 8292,
      "ObjectReference": 8293,
      "*(*": 8294,
      "~~": 8295,
      "marshalling": 8296,
      "listed": 8297,
      "commits": 8298,
      "dialer": 8299,
      "aobao": 8300,
      "384": 8301,
      "}`,": 8302,
      "SetPayload": 8303,
      "Unpack": 8304,
      "0x5f": 8305,
      "etched": 8306,
      "minutes": 8307,
      "unted": 8308,
      "Rating": 8309,
      "along": 8310,
      "cribers": 8311,
      "newValue": 8312,
      "cgo": 8313,
      "O_WRONLY": 8314,
      "badger": 8315,
      "}}{{": 8316,
      "v1alpha2": 8317,
      "affold": 8318,
      "aaaaaaaa": 8319,
      "Incorrect": 8320,
      "quid": 8321,
      "Diagnostics": 8322,
      "topo": 8323,
      "WithLabel": 8324,
      "compression": 8325,
      "otel": 8326,
      "UE": 8327,
      "php": 8328,
      "Fragment": 8329,
      "LOCK": 8330,
      "jinzhu": 8331,
      "Guid": 8332,
      "severity": 8333,
      "GetNamespace": 8334,
      "_ip": 8335,
      "ends": 8336,
      "checked": 8337,
      "Ws": 8338,
      "ably": 8339,
      "dataSource": 8340,
      "produce": 8341,
      "piece": 8342,
      "0x32": 8343,
      "Locations": 8344,
      "lru": 8345,
      "0x4a": 8346,
      "0x41": 8347,
      "ValueType": 8348,
      "executing": 8349,
      "afero": 8350,
      "expiry": 8351,
      "pot": 8352,
      "overflow": 8353,
      "f32": 8354,
      "sandbox": 8355,
      "gogo": 8356,
      "immediate": 8357,
      "anything": 8358,
      "Tcp": 8359,
      "literal": 8360,
      "Implemented": 8361,
      "\\\"\",": 8362,
      "LS": 8363,
      "past": 8364,
      "Expectations": 8365,
      "converter": 8366,
      "closes": 8367,
      "mgmt": 8368,
      "Sid": 8369,
      "GroupId": 8370,
      "mocked": 8371,
      "Primitive": 8372,
      "separated": 8373,
      "ane": 8374,
      "defaultValue": 8375,
      "separator": 8376,
      "dAt": 8377,
      "Ren": 8378,
      "{});": 8379,
      "{}}": 8380,
      "kvs": 8381,
      "{}},": 8382,
      "overwrite": 8383,
      "\"(": 8384,
      "Usecase": 8385,
      "DATA": 8386,
      "0x17": 8387,
      "autorest": 8388,
      "Cast": 8389,
      "Symlink": 8390,
      "Small": 8391,
      "datasource": 8392,
      "Pa": 8393,
      "nv": 8394,
      "contrib": 8395,
      "OB": 8396,
      "Otherwise": 8397,
      "ResetTimer": 8398,
      "UST": 8399,
      "mor": 8400,
      "itize": 8401,
      "cloak": 8402,
      "objs": 8403,
      "Alib": 8404,
      "dget": 8405,
      "etype": 8406,
      "GetDefault": 8407,
      "ampler": 8408,
      "panics": 8409,
      "MIN": 8410,
      "Peek": 8411,
      "won": 8412,
      "Cat": 8413,
      "Hours": 8414,
      "PG": 8415,
      "infos": 8416,
      "quantity": 8417,
      "ContainSubstring": 8418,
      "Alibaba": 8419,
      "cells": 8420,
      "meter": 8421,
      ".`,": 8422,
      "Initi": 8423,
      "inel": 8424,
      "ctr": 8425,
      "edges": 8426,
      "Experiment": 8427,
      "Related": 8428,
      "777": 8429,
      "Segments": 8430,
      "chrome": 8431,
      "Placement": 8432,
      "lvl": 8433,
      "leton": 8434,
      "Hardware": 8435,
      "vo": 8436,
      "void": 8437,
      "StringPtrInput": 8438,
      "USD": 8439,
      "grpc_": 8440,
      "olding": 8441,
      "{{-": 8442,
      "GetS": 8443,
      "0x4f": 8444,
      "=\"+": 8445,
      "hard": 8446,
      "GetBlock": 8447,
      "Cols": 8448,
      "Affinity": 8449,
      "Successfully": 8450,
      "guaran": 8451,
      "DeleteUser": 8452,
      "survey": 8453,
      "Bare": 8454,
      "}\"": 8455,
      "preter": 8456,
      "oth": 8457,
      "Issues": 8458,
      "QR": 8459,
      "tun": 8460,
      "trip": 8461,
      "miner": 8462,
      "maybe": 8463,
      "CombinedOutput": 8464,
      "pal": 8465,
      "utility": 8466,
      "hr": 8467,
      "Tls": 8468,
      "kp": 8469,
      "eces": 8470,
      "envelope": 8471,
      "integr": 8472,
      "Unmarshaler": 8473,
      "streaming": 8474,
      "LAN": 8475,
      "Predi": 8476,
      "ech": 8477,
      "Specific": 8478,
      "rotate": 8479,
      "isode": 8480,
      "0x14": 8481,
      "UpdateUser": 8482,
      "fro": 8483,
      "xs": 8484,
      "abet": 8485,
      "hq": 8486,
      "Reject": 8487,
      "agreements": 8488,
      "erda": 8489,
      "NewCreate": 8490,
      "0x48": 8491,
      "ptypes": 8492,
      "avatar": 8493,
      "ValidateName": 8494,
      "SMTP": 8495,
      "chk": 8496,
      "filer": 8497,
      "Percentage": 8498,
      "properly": 8499,
      "undoc": 8500,
      "belong": 8501,
      "GZ": 8502,
      "chase": 8503,
      "deletion": 8504,
      "0x53": 8505,
      "ResourceGroup": 8506,
      "datap": 8507,
      "undocumented": 8508,
      "statuses": 8509,
      "Analysis": 8510,
      "strs": 8511,
      "GetResponse": 8512,
      "Runs": 8513,
      "test1": 8514,
      "openstack": 8515,
      "particip": 8516,
      "Billing": 8517,
      "chant": 8518,
      "Finder": 8519,
      "sqs": 8520,
      "TEXT": 8521,
      "lost": 8522,
      "otion": 8523,
      "Charge": 8524,
      "AK": 8525,
      "AIL": 8526,
      "Fall": 8527,
      "criteria": 8528,
      "lf": 8529,
      "\"):": 8530,
      "apierrors": 8531,
      "Provisioner": 8532,
      "0x4e": 8533,
      "Monitoring": 8534,
      "UNC": 8535,
      "Define": 8536,
      "requirements": 8537,
      "manifests": 8538,
      "delegate": 8539,
      "darwin": 8540,
      "Gor": 8541,
      "detected": 8542,
      "observ": 8543,
      "aining": 8544,
      "202": 8545,
      "restful": 8546,
      "deployments": 8547,
      "Deployments": 8548,
      "Cach": 8549,
      "oring": 8550,
      "Station": 8551,
      "didn": 8552,
      "Mutation": 8553,
      "Tor": 8554,
      "NodeName": 8555,
      "specification": 8556,
      "_port": 8557,
      "Sal": 8558,
      "deposit": 8559,
      "_NAME": 8560,
      "APIs": 8561,
      "Matching": 8562,
      "Players": 8563,
      "SetTimeout": 8564,
      "dyn": 8565,
      "zu": 8566,
      "0x4c": 8567,
      "73": 8568,
      "ken": 8569,
      "uty": 8570,
      "Supply": 8571,
      "ESS_": 8572,
      "chars": 8573,
      "Lazy": 8574,
      "funcs": 8575,
      "Requirements": 8576,
      "isco": 8577,
      "hor": 8578,
      "HomeDir": 8579,
      "instrument": 8580,
      "LogFile": 8581,
      "Attempts": 8582,
      "_model": 8583,
      "wiki": 8584,
      "Meter": 8585,
      "MsgType": 8586,
      "InstanceId": 8587,
      "mapped": 8588,
      "mployee": 8589,
      "CAP": 8590,
      "Pixel": 8591,
      "lv": 8592,
      "Deal": 8593,
      "nav": 8594,
      "uction": 8595,
      "generating": 8596,
      "COL": 8597,
      "InfoLevel": 8598,
      "StatefulSet": 8599,
      "hist": 8600,
      "=\\\"": 8601,
      "Sheet": 8602,
      "sect": 8603,
      "wards": 8604,
      "HttpClient": 8605,
      "ampling": 8606,
      "_total": 8607,
      "filecoin": 8608,
      "CreateRequest": 8609,
      "Quit": 8610,
      "union": 8611,
      "STR": 8612,
      "ArrayOutput": 8613,
      "Provide": 8614,
      "Desired": 8615,
      "0x0b": 8616,
      "CUR": 8617,
      "loo": 8618,
      "//+": 8619,
      "Pal": 8620,
      "irc": 8621,
      "EnvVars": 8622,
      "Posts": 8623,
      "loom": 8624,
      "accepts": 8625,
      "Warnings": 8626,
      "amd": 8627,
      "NewCounter": 8628,
      "Iface": 8629,
      "principal": 8630,
      "sms": 8631,
      "addon": 8632,
      "ently": 8633,
      "0x6b": 8634,
      "twitter": 8635,
      "applies": 8636,
      "ClusterConfig": 8637,
      "cg": 8638,
      "preview": 8639,
      "InstanceID": 8640,
      "GL": 8641,
      "UseCase": 8642,
      "variant": 8643,
      "installation": 8644,
      "Accessor": 8645,
      "Candidate": 8646,
      "CertFile": 8647,
      "999": 8648,
      "ole": 8649,
      "locs": 8650,
      "Anch": 8651,
      "biten": 8652,
      "mobile": 8653,
      "MIM": 8654,
      "Sandbox": 8655,
      "decor": 8656,
      ")\"`": 8657,
      "optFns": 8658,
      "nowflake": 8659,
      "5000": 8660,
      "GH": 8661,
      "alg": 8662,
      "Lists": 8663,
      "Successful": 8664,
      "443": 8665,
      "Der": 8666,
      "fold": 8667,
      "Versioned": 8668,
      "HTTPRequest": 8669,
      "Provisioning": 8670,
      "20022": 8671,
      "say": 8672,
      "key2": 8673,
      "_tab": 8674,
      "labstack": 8675,
      "ATE_": 8676,
      "OPTIONS": 8677,
      "slow": 8678,
      "aration": 8679,
      "inkgo": 8680,
      "422016": 8681,
      "LookupEnv": 8682,
      "SIGINT": 8683,
      "chestrator": 8684,
      "rng": 8685,
      "receipt": 8686,
      "yze": 8687,
      "building": 8688,
      "(\",": 8689,
      "Structure": 8690,
      "NullString": 8691,
      "trie": 8692,
      "PT": 8693,
      "Tpl": 8694,
      "dos": 8695,
      "Unwrap": 8696,
      "ToFile": 8697,
      "CertPool": 8698,
      "LoadConfig": 8699,
      "insolar": 8700,
      "0x24": 8701,
      "WriteTimeout": 8702,
      "Serializer": 8703,
      "poses": 8704,
      "TokenType": 8705,
      "O_RD": 8706,
      "hat": 8707,
      "NOWN": 8708,
      "Dimension": 8709,
      "RAM": 8710,
      "Syscall": 8711,
      "cycle": 8712,
      "NewFrom": 8713,
      "exitCode": 8714,
      "Spot": 8715,
      "occurs": 8716,
      "NewErr": 8717,
      "Analyzer": 8718,
      "readable": 8719,
      "Consist": 8720,
      "MaxSize": 8721,
      "How": 8722,
      "ListMeta": 8723,
      "INTER": 8724,
      "Adap": 8725,
      "InMemory": 8726,
      "lets": 8727,
      "fetching": 8728,
      "4d": 8729,
      "Blog": 8730,
      "updater": 8731,
      "Lexer": 8732,
      "%.": 8733,
      "3000": 8734,
      "atic": 8735,
      "txs": 8736,
      "=?": 8737,
      "0x54": 8738,
      "orizontal": 8739,
      "basePath": 8740,
      "kubelet": 8741,
      "apiClient": 8742,
      "tempDir": 8743,
      "elasticsearch": 8744,
      "chromium": 8745,
      "addy": 8746,
      "antic": 8747,
      "Msgs": 8748,
      "Rotation": 8749,
      "`{": 8750,
      "UpdateTime": 8751,
      "ATED": 8752,
      "Guard": 8753,
      "occur": 8754,
      "log_": 8755,
      "Validators": 8756,
      "12345": 8757,
      ")(&": 8758,
      "cilium": 8759,
      "FIL": 8760,
      "cart": 8761,
      "Course": 8762,
      "ReadString": 8763,
      "0x40": 8764,
      "verified": 8765,
      "################": 8766,
      "61": 8767,
      "park": 8768,
      "magic": 8769,
      "Pick": 8770,
      "cx": 8771,
      "ada": 8772,
      "Dog": 8773,
      "_PORT": 8774,
      "/#": 8775,
      "privile": 8776,
      "(<-": 8777,
      ">\\": 8778,
      "WOR": 8779,
      "udo": 8780,
      "_api": 8781,
      "WithHTTPClient": 8782,
      "Pause": 8783,
      "endTime": 8784,
      "kite": 8785,
      "testName": 8786,
      "ReadJSON": 8787,
      "Jan": 8788,
      "Attack": 8789,
      "combin": 8790,
      "IsVersion": 8791,
      "buildpack": 8792,
      "better": 8793,
      "spans": 8794,
      "{}.": 8795,
      "LogEntry": 8796,
      "podName": 8797,
      "0x4d": 8798,
      "contracts": 8799,
      "beta": 8800,
      "Mappings": 8801,
      "Canonical": 8802,
      "oidc": 8803,
      "representing": 8804,
      "_message": 8805,
      "Sat": 8806,
      "Ded": 8807,
      "ildcard": 8808,
      "visitor": 8809,
      "Networking": 8810,
      ">.": 8811,
      "NewUpdate": 8812,
      "clause": 8813,
      "panel": 8814,
      "fave": 8815,
      "NotExists": 8816,
      "AuthInfo": 8817,
      "ApplyT": 8818,
      "biz": 8819,
      "Ginkgo": 8820,
      "ighted": 8821,
      "suggest": 8822,
      "0x11": 8823,
      "Enforce": 8824,
      "}).(": 8825,
      "KVStore": 8826,
      "_URL": 8827,
      "f7": 8828,
      "Atomic": 8829,
      "TestCreate": 8830,
      "Subsystem": 8831,
      "GEN": 8832,
      "scripts": 8833,
      "larg": 8834,
      "vul": 8835,
      "chro": 8836,
      "Grace": 8837,
      "=$": 8838,
      "FlagName": 8839,
      "Assertion": 8840,
      "Extractor": 8841,
      "COUNT": 8842,
      "Oapi": 8843,
      "mini": 8844,
      "Msgf": 8845,
      "0x92": 8846,
      "vanced": 8847,
      "Specification": 8848,
      "levels": 8849,
      "passphrase": 8850,
      "sli": 8851,
      "0x45": 8852,
      "rh": 8853,
      "average": 8854,
      "tu": 8855,
      "pause": 8856,
      "Finalizer": 8857,
      "new_": 8858,
      "Best": 8859,
      "Beacon": 8860,
      "izers": 8861,
      "logf": 8862,
      "Operand": 8863,
      "drivers": 8864,
      "_op": 8865,
      "dap": 8866,
      "StatusText": 8867,
      "community": 8868,
      "Rectangle": 8869,
      "unlock": 8870,
      "Seal": 8871,
      "strict": 8872,
      "topology": 8873,
      "Z0": 8874,
      "aur": 8875,
      "0x50": 8876,
      "TestClient": 8877,
      "Iterate": 8878,
      "ebiten": 8879,
      "encounter": 8880,
      "fetcher": 8881,
      "Credit": 8882,
      "LOG_": 8883,
      "appear": 8884,
      "NextToken": 8885,
      "solution": 8886,
      "UNKNOWN": 8887,
      "gcs": 8888,
      "0x1a": 8889,
      "SecretName": 8890,
      "ChainID": 8891,
      "x1b": 8892,
      "StatusCreated": 8893,
      "coded": 8894,
      "Blockchain": 8895,
      "Ant": 8896,
      "bob": 8897,
      "Reading": 8898,
      "ClusterID": 8899,
      "Bold": 8900,
      "dEx": 8901,
      "PER": 8902,
      "Take": 8903,
      "zones": 8904,
      "Demo": 8905,
      "...).": 8906,
      "nook": 8907,
      "googleapis": 8908,
      "Pem": 8909,
      "patterns": 8910,
      "unpack": 8911,
      "unset": 8912,
      "Temporary": 8913,
      "azurerm_": 8914,
      "HS": 8915,
      "plet": 8916,
      "sentry": 8917,
      "ErrorHandler": 8918,
      "Enc": 8919,
      "Attachments": 8920,
      "StringP": 8921,
      "MessageID": 8922,
      "sdkerrors": 8923,
      "denom": 8924,
      "players": 8925,
      "Reports": 8926,
      "frequency": 8927,
      "Influx": 8928,
      "Protection": 8929,
      "abcde": 8930,
      "9a": 8931,
      "FILE": 8932,
      "grav": 8933,
      "chaincode": 8934,
      "square": 8935,
      "Sav": 8936,
      "connecting": 8937,
      "identify": 8938,
      "CompositeValidationError": 8939,
      "crossplane": 8940,
      "iNdEx": 8941,
      "bur": 8942,
      "fsm": 8943,
      "Refer": 8944,
      "InvalidArgument": 8945,
      "warnings": 8946,
      "\"\":": 8947,
      "[-": 8948,
      "inct": 8949,
      "itess": 8950,
      "NewNode": 8951,
      "http_": 8952,
      "ea": 8953,
      "slices": 8954,
      "Gate": 8955,
      "LIN": 8956,
      "CommandLine": 8957,
      "minor": 8958,
      "($": 8959,
      "hemer": 8960,
      "projectName": 8961,
      "0x2c": 8962,
      "separate": 8963,
      "ForConfig": 8964,
      "Sym": 8965,
      "Border": 8966,
      "Tracing": 8967,
      "supply": 8968,
      "arDown": 8969,
      "Always": 8970,
      "Succeeded": 8971,
      "Are": 8972,
      "wp": 8973,
      "LOW": 8974,
      "wid": 8975,
      "ben": 8976,
      "ktop": 8977,
      "ety": 8978,
      "Invite": 8979,
      "privKey": 8980,
      "PackageIsVersion": 8981,
      "InsecureSkipVerify": 8982,
      "UserService": 8983,
      "IPNet": 8984,
      "_types": 8985,
      "jpeg": 8986,
      "Ints": 8987,
      "curl": 8988,
      "Mess": 8989,
      "pow": 8990,
      "Evaluate": 8991,
      "Chars": 8992,
      "GroupVersionKind": 8993,
      "SetString": 8994,
      "prevent": 8995,
      "_KEYS": 8996,
      "!(": 8997,
      "ledge": 8998,
      "0xcf": 8999,
      "Strict": 9000,
      "Voice": 9001,
      "ABC": 9002,
      "imes": 9003,
      "cockroachdb": 9004,
      "_set": 9005,
      "alice": 9006,
      "recipe": 9007,
      "Scenario": 9008,
      "JOIN": 9009,
      "coins": 9010,
      "channelID": 9011,
      "Contribut": 9012,
      "drive": 9013,
      "zen": 9014,
      "lour": 9015,
      "compilation": 9016,
      "AIN": 9017,
      "keyed": 9018,
      "PrivKey": 9019,
      "CMD": 9020,
      "ilot": 9021,
      "WithDefaults": 9022,
      "Creates": 9023,
      "flatten": 9024,
      "hours": 9025,
      "db_": 9026,
      "StorageClass": 9027,
      "Album": 9028,
      "Attest": 9029,
      "initi": 9030,
      "digits": 9031,
      "seal": 9032,
      "flare": 9033,
      "hemeral": 9034,
      "water": 9035,
      "android": 9036,
      "Criteria": 9037,
      "urfave": 9038,
      "ObjectType": 9039,
      "Calc": 9040,
      "Dockerfile": 9041,
      "Emitter": 9042,
      "gle": 9043,
      "anging": 9044,
      "{}]": 9045,
      "rabbit": 9046,
      "envs": 9047,
      "Multipart": 9048,
      "Delegate": 9049,
      "ih": 9050,
      "wo": 9051,
      "yles": 9052,
      "ato": 9053,
      "verifier": 9054,
      "Addon": 9055,
      "prior": 9056,
      "WithStatus": 9057,
      "registr": 9058,
      "skipping": 9059,
      "NewKey": 9060,
      "logFile": 9061,
      "stemd": 9062,
      "GNU": 9063,
      "PATCH": 9064,
      "Turn": 9065,
      "teams": 9066,
      "hest": 9067,
      "ServerName": 9068,
      "XXX_unrecognized": 9069,
      "_statusCode": 9070,
      "b8": 9071,
      "ranges": 9072,
      "Requ": 9073,
      "itecture": 9074,
      "attached": 9075,
      "acme": 9076,
      "StatusForbidden": 9077,
      "stash": 9078,
      "vpn": 9079,
      "ords": 9080,
      "NewS": 9081,
      "ipv6": 9082,
      "Propag": 9083,
      "Meeting": 9084,
      "MaxAge": 9085,
      "Guest": 9086,
      "Counters": 9087,
      "craft": 9088,
      "Produ": 9089,
      "imation": 9090,
      "staking": 9091,
      "\"\"),": 9092,
      "_TYPE_": 9093,
      "ToMap": 9094,
      "UserData": 9095,
      "routine": 9096,
      "newRequest": 9097,
      "analytics": 9098,
      "Prec": 9099,
      "wel": 9100,
      "(\"#": 9101,
      "FuncMap": 9102,
      "fragment": 9103,
      "SessionID": 9104,
      "Observer": 9105,
      "service_": 9106,
      "DeleteOptions": 9107,
      "UDPAddr": 9108,
      "instantiates": 9109,
      "pip": 9110,
      "outer": 9111,
      "EE": 9112,
      "games": 9113,
      "levant": 9114,
      "Am": 9115,
      "Teams": 9116,
      "accountID": 9117,
      "autoscaling": 9118,
      "c7": 9119,
      "X509": 9120,
      "Preview": 9121,
      "flight": 9122,
      "0600": 9123,
      "Frontend": 9124,
      "e3": 9125,
      "0x2b": 9126,
      "Guide": 9127,
      "1f": 9128,
      "Flight": 9129,
      "serializer": 9130,
      "WithLabelValues": 9131,
      "oas": 9132,
      "Concurrency": 9133,
      "Tencent": 9134,
      "band": 9135,
      "ssm": 9136,
      "0001": 9137,
      "individual": 9138,
      "0x29": 9139,
      "MC": 9140,
      "SUB": 9141,
      "gite": 9142,
      "scheduled": 9143,
      "0xca": 9144,
      "Outbound": 9145,
      "Assemb": 9146,
      "grpcServer": 9147,
      "Realm": 9148,
      "consum": 9149,
      "fallthrough": 9150,
      "Typ": 9151,
      "vd": 9152,
      "test2": 9153,
      "articles": 9154,
      "aliases": 9155,
      "Foreign": 9156,
      "Retriever": 9157,
      "anger": 9158,
      "usecase": 9159,
      "numeric": 9160,
      "Ordered": 9161,
      "passwd": 9162,
      "deliver": 9163,
      "Lol": 9164,
      "Election": 9165,
      "US_": 9166,
      "lm": 9167,
      "Seen": 9168,
      "CT": 9169,
      "rn": 9170,
      "uer": 9171,
      "Inode": 9172,
      "Filesystem": 9173,
      "NopCloser": 9174,
      "0xcc": 9175,
      "bag": 9176,
      "east": 9177,
      "Directive": 9178,
      "DaemonSet": 9179,
      "secretKey": 9180,
      "XMLName": 9181,
      "Written": 9182,
      "_bytes": 9183,
      "ImageName": 9184,
      "NewBufferString": 9185,
      "torrent": 9186,
      "amd64": 9187,
      "MustRegister": 9188,
      "Dialect": 9189,
      "bac": 9190,
      "Sep": 9191,
      "classes": 9192,
      "655": 9193,
      "counters": 9194,
      "itespace": 9195,
      "radius": 9196,
      "KS": 9197,
      "P_": 9198,
      "press": 9199,
      "AsString": 9200,
      "ReadFrom": 9201,
      "a_": 9202,
      "hack": 9203,
      "adb": 9204,
      "Deliver": 9205,
      "wind": 9206,
      "userInfo": 9207,
      "RET": 9208,
      "campaign": 9209,
      "Querier": 9210,
      "250": 9211,
      "arbitr": 9212,
      "fsnotify": 9213,
      "InternalError": 9214,
      "assigns": 9215,
      "c6": 9216,
      "Checkpoint": 9217,
      "Framework": 9218,
      "Egress": 9219,
      "iet": 9220,
      "0x71": 9221,
      "occ": 9222,
      "gtk": 9223,
      "recur": 9224,
      "GetFile": 9225,
      "umul": 9226,
      "visited": 9227,
      "removing": 9228,
      "GRO": 9229,
      "ado": 9230,
      "(\"{": 9231,
      "Craw": 9232,
      "normalize": 9233,
      "180": 9234,
      "authenticate": 9235,
      "Patterns": 9236,
      "unused": 9237,
      "Hyper": 9238,
      "\"\\\"": 9239,
      "Regular": 9240,
      "AttributeValue": 9241,
      "Dynamo": 9242,
      "`<": 9243,
      "enames": 9244,
      "Examples": 9245,
      "Thrott": 9246,
      "Levels": 9247,
      "Txs": 9248,
      "grp": 9249,
      "...]": 9250,
      "MessageState": 9251,
      "blockSize": 9252,
      "Streaming": 9253,
      "RpcRequest": 9254,
      "Magic": 9255,
      "KB": 9256,
      "fuzz": 9257,
      "errCh": 9258,
      "numberOf": 9259,
      "LED": 9260,
      "memo": 9261,
      "NewEvent": 9262,
      "KeyID": 9263,
      "0x78": 9264,
      "artifacts": 9265,
      "explicitly": 9266,
      "typeName": 9267,
      "ome": 9268,
      "deprecated": 9269,
      "comes": 9270,
      "abci": 9271,
      "createdAt": 9272,
      "Pg": 9273,
      "0x25": 9274,
      "similar": 9275,
      "`\",": 9276,
      "Possible": 9277,
      "glish": 9278,
      "Syntax": 9279,
      "sam": 9280,
      "ital": 9281,
      "authority": 9282,
      "looking": 9283,
      "comma": 9284,
      "cfgFile": 9285,
      "Between": 9286,
      "Gin": 9287,
      "Errorln": 9288,
      "implementations": 9289,
      "Datadog": 9290,
      "ErrNoRows": 9291,
      "RUN": 9292,
      "Miner": 9293,
      "Har": 9294,
      "NET": 9295,
      "fingerprint": 9296,
      "xdr": 9297,
      "verb": 9298,
      "recursive": 9299,
      "Sel": 9300,
      "norm": 9301,
      "AI": 9302,
      "atforms": 9303,
      "reduce": 9304,
      "isation": 9305,
      "github_": 9306,
      "KeyType": 9307,
      "xxx": 9308,
      "stops": 9309,
      "_PATH": 9310,
      "Packets": 9311,
      "exactly": 9312,
      "Drive": 9313,
      "rq": 9314,
      "utions": 9315,
      "Cobra": 9316,
      "attery": 9317,
      "SetLogger": 9318,
      "_string": 9319,
      "Smart": 9320,
      "_s": 9321,
      "_number": 9322,
      "b7": 9323,
      "reached": 9324,
      "0x0f": 9325,
      "HA": 9326,
      "Tip": 9327,
      "tweet": 9328,
      "DataStore": 9329,
      "Overrides": 9330,
      "nos": 9331,
      "arator": 9332,
      "jsonData": 9333,
      "relic": 9334,
      "Recur": 9335,
      "Panicf": 9336,
      "GetCluster": 9337,
      "Exceeded": 9338,
      "Alt": 9339,
      "Noop": 9340,
      "kc": 9341,
      "atlas": 9342,
      "Stake": 9343,
      "kas": 9344,
      "0x60": 9345,
      "Negative": 9346,
      "startup": 9347,
      "instanceID": 9348,
      "eventType": 9349,
      "Temperature": 9350,
      "AlreadyExists": 9351,
      "keybase": 9352,
      "igation": 9353,
      "Importer": 9354,
      "activate": 9355,
      "eldb": 9356,
      "filled": 9357,
      "Compat": 9358,
      "metal": 9359,
      "scrape": 9360,
      "\\\",\\\"": 9361,
      "2_": 9362,
      "Extend": 9363,
      "retrieving": 9364,
      "ropy": 9365,
      "entire": 9366,
      "scion": 9367,
      "REG": 9368,
      "Leave": 9369,
      "performance": 9370,
      "ReplaceAllString": 9371,
      "GetNode": 9372,
      "goss": 9373,
      "...*": 9374,
      "://\"": 9375,
      "ObjectId": 9376,
      "(\"\"),": 9377,
      "FileServer": 9378,
      "ModTime": 9379,
      "Urls": 9380,
[...]
